<pad>	0
<s>	0
</s>	0
<unk>	0
,	-2.92704
▁the	-3.00542
.	-3.18391
▁of	-3.45832
▁and	-3.76606
s	-4.02075
▁to	-4.14233
▁in	-4.19007
▁a	-4.3919
▁is	-4.56492
▁with	-4.71813
▁that	-4.85214
▁by	-5.01655
▁you	-5.17743
▁The	-5.19654
▁his	-5.23349
▁was	-5.2466
▁for	-5.27802
▁on	-5.28686
-	-5.32701
▁are	-5.34619
ing	-5.3495
▁I	-5.38516
▁O	-5.42545
▁as	-5.44873
▁all	-5.52321
'	-5.65127
▁be	-5.65714
▁who	-5.67493
▁from	-5.69418
▁(	-5.70619
▁he	-5.70814
▁this	-5.72461
ed	-5.73473
▁not	-5.77119
▁have	-5.81103
▁it	-5.83154
▁your	-5.94384
▁one	-5.94581
▁at	-5.95457
)	-5.98719
▁king	-6.04218
▁their	-6.05217
▁or	-6.09452
▁him	-6.106
▁son	-6.12821
▁He	-6.13229
▁which	-6.1428
▁said	-6.15423
▁"	-6.16116
;	-6.17186
▁has	-6.18071
▁will	-6.20438
▁also	-6.21859
▁were	-6.22714
▁	-6.23055
▁an	-6.31238
▁It	-6.32948
▁like	-6.36393
▁they	-6.37747
▁"""	-6.37906
▁me	-6.3843
▁my	-6.38809
▁great	-6.40173
▁them	-6.42178
d	-6.44219
ly	-6.45139
▁had	-6.46552
▁can	-6.47487
."	-6.49845
▁In	-6.50442
▁those	-6.53568
▁been	-6.55356
▁do	-6.56727
▁other	-6.63334
e	-6.63544
:	-6.63955
▁And	-6.65934
▁should	-6.66766
."""	-6.67798
▁then	-6.70113
▁there	-6.70792
▁A	-6.71131
▁her	-6.7237
▁these	-6.7503
t	-6.75769
▁shall	-6.76329
?	-6.78461
▁when	-6.79881
▁up	-6.81723
▁having	-6.82617
▁we	-6.84816
y	-6.84912
▁men	-6.85501
er	-6.87149
▁battle	-6.89181
▁This	-6.91408
▁into	-6.94141
▁two	-6.96845
▁Then	-6.98667
▁being	-6.99334
n	-7.00442
▁out	-7.01828
▁time	-7.02715
▁what	-7.03004
▁many	-7.04084
▁but	-7.04937
a	-7.05778
▁You	-7.06802
▁after	-7.07703
▁about	-7.08144
▁foremost	-7.1118
▁no	-7.15425
▁so	-7.15649
▁car	-7.15668
▁down	-7.16315
▁first	-7.16852
▁its	-7.18157
▁over	-7.19066
▁people	-7.19766
▁words	-7.20237
al	-7.20777
▁if	-7.20829
▁may	-7.21311
▁thus	-7.21462
th	-7.21489
▁made	-7.23097
▁man	-7.23403
▁any	-7.23566
i	-7.23734
in	-7.24912
▁us	-7.25652
▁more	-7.29063
▁arrows	-7.29096
▁mighty	-7.29598
▁They	-7.29824
▁such	-7.29865
▁some	-7.30049
es	-7.31658
▁world	-7.3184
▁very	-7.32521
▁India	-7.33425
▁well	-7.33803
▁see	-7.33941
▁good	-7.35328
▁own	-7.35375
▁even	-7.35968
r	-7.37184
▁best	-7.38341
▁again	-7.40449
▁called	-7.41256
▁There	-7.41754
▁now	-7.42678
▁himself	-7.4308
!	-7.43446
m	-7.43512
▁am	-7.44336
▁before	-7.44337
▁upon	-7.44378
▁through	-7.44422
▁became	-7.44552
▁only	-7.4494
▁three	-7.45312
▁away	-7.45857
▁our	-7.46626
▁earth	-7.46954
▁come	-7.48544
▁Having	-7.4924
▁did	-7.49302
▁body	-7.49334
▁That	-7.49948
▁used	-7.51268
▁life	-7.51543
▁go	-7.52147
▁she	-7.52938
).	-7.58454
▁began	-7.59001
▁most	-7.59209
▁Bharata	-7.59473
▁both	-7.61385
▁city	-7.61783
▁lord	-7.6184
▁without	-7.6245
▁If	-7.62897
▁sons	-7.63173
▁state	-7.6324
re	-7.63624
▁day	-7.64376
▁water	-7.64389
▁than	-7.64553
▁where	-7.65396
▁here	-7.66037
▁every	-7.66569
▁make	-7.67518
▁fire	-7.67521
▁name	-7.67634
▁always	-7.68118
▁person	-7.68363
▁another	-7.68477
▁When	-7.68711
▁place	-7.68921
▁celestials	-7.69131
And	-7.69286
▁never	-7.69439
▁known	-7.6965
▁powerful	-7.69767
▁came	-7.70357
▁between	-7.7065
▁under	-7.70959
▁As	-7.7113
o	-7.71398
▁high	-7.7145
▁We	-7.71917
▁would	-7.72037
c	-7.72418
▁each	-7.73935
▁race	-7.74671
▁various	-7.75322
▁how	-7.75452
▁Do	-7.76134
▁Rāma	-7.76242
▁know	-7.77135
l	-7.77267
▁Arjuna	-7.78335
▁bow	-7.78672
▁unto	-7.79168
▁back	-7.7968
▁Yudhishthira	-7.80676
"	-7.80726
▁form	-7.80825
▁father	-7.81118
▁S	-7.81248
▁way	-7.8222
▁years	-7.83597
▁went	-7.8382
▁highly	-7.83881
▁She	-7.83962
▁among	-7.84403
▁same	-7.84428
▁Let	-7.84532
▁mind	-7.84543
▁born	-7.84757
▁against	-7.85795
▁use	-7.86062
▁film	-7.8638
),	-7.86451
▁while	-7.86576
▁Drona	-7.86622
▁death	-7.8703
▁forest	-7.87067
▁head	-7.87198
S	-7.87377
▁'	-7.87795
h	-7.87928
g	-7.8807
▁creatures	-7.88469
▁long	-7.88648
▁could	-7.8895
▁One	-7.89159
▁does	-7.89436
▁army	-7.89822
▁take	-7.90823
▁part	-7.90893
▁Indian	-7.91461
▁eyes	-7.92136
▁prowess	-7.93097
▁“	-7.93298
▁Pandavas	-7.93708
▁Krishna	-7.94462
▁saying	-7.95186
or	-7.95695
▁Karna	-7.95908
▁end	-7.96316
▁let	-7.96545
▁get	-7.96632
na	-7.96692
▁Brahmanas	-7.96837
on	-7.97006
▁desire	-7.97761
▁killed	-7.98123
▁means	-7.9845
O	-7.98606
k	-7.9895
▁heart	-7.9907
▁become	-7.99376
▁things	-7.99397
▁These	-7.99952
▁Bhishma	-8.00516
▁off	-8.00598
ta	-8.00694
▁gods	-8.00817
▁kings	-8.01025
▁seen	-8.01698
▁new	-8.01774
▁food	-8.01792
▁weapons	-8.02297
▁power	-8.02404
▁heard	-8.02735
▁number	-8.02901
▁during	-8.03686
▁Brahmana	-8.03973
▁give	-8.04169
en	-8.04241
ra	-8.04699
I	-8.04853
st	-8.05234
’	-8.05397
▁live	-8.05478
▁field	-8.06216
▁fear	-8.06437
▁For	-8.06949
▁God	-8.07775
▁On	-8.0794
▁excellent	-8.08336
ers	-8.08505
▁different	-8.08624
▁virtue	-8.08772
▁because	-8.08971
▁saw	-8.09089
▁C	-8.09664
the	-8.09729
▁arms	-8.09792
▁addressed	-8.09886
▁therefore	-8.10194
an	-8.10253
▁towards	-8.10492
▁All	-8.10532
to	-8.11
▁much	-8.11013
▁un	-8.11092
▁four	-8.11105
▁kingdom	-8.11474
▁region	-8.11809
▁others	-8.1205
li	-8.12284
▁work	-8.1233
▁monkeys	-8.12475
▁say	-8.12673
▁large	-8.12897
▁After	-8.13176
ic	-8.13506
ar	-8.13696
▁whose	-8.13702
ri	-8.14297
▁beautiful	-8.14305
▁fight	-8.14658
▁took	-8.14678
u	-8.15153
▁Thereupon	-8.15597
▁elephants	-8.15649
le	-8.16115
▁But	-8.16168
▁set	-8.16866
▁Indra	-8.17127
▁help	-8.17192
▁living	-8.17335
▁energy	-8.17837
▁along	-8.18001
▁left	-8.18342
▁type	-8.18525
▁hero	-8.18583
▁five	-8.18865
▁daughter	-8.1902
▁ever	-8.19055
as	-8.19639
▁brother	-8.20048
▁wealth	-8.20091
▁United	-8.20204
ion	-8.20357
▁knowledge	-8.20524
▁shafts	-8.20696
▁warriors	-8.20884
▁enemies	-8.2091
▁horses	-8.21209
▁Thus	-8.2131
▁wife	-8.21435
▁hand	-8.21673
▁By	-8.21747
▁hands	-8.22241
▁died	-8.22456
▁Pandu	-8.22489
▁Bhima	-8.22832
▁grief	-8.2288
▁strength	-8.22957
"""	-8.2323
▁What	-8.23965
▁slain	-8.24756
▁given	-8.25069
▁done	-8.2531
▁named	-8.25581
▁greatly	-8.25961
▁Those	-8.26395
▁filled	-8.2679
▁account	-8.27005
▁:	-8.27101
p	-8.27134
▁days	-8.27204
▁ye	-8.27293
▁thousand	-8.27538
▁Lord	-8.27637
▁sun	-8.27946
b	-8.28028
▁old	-8.28047
ma	-8.28158
▁spoke	-8.28176
▁Duryodhana	-8.28279
▁acts	-8.28376
▁gold	-8.28729
▁celestial	-8.28891
▁full	-8.29144
▁right	-8.29145
C	-8.29259
▁His	-8.29337
▁whom	-8.29426
▁mountain	-8.29481
la	-8.29736
▁cannot	-8.29968
▁mother	-8.30143
▁together	-8.30171
▁year	-8.3118
ya	-8.31235
▁At	-8.31917
▁click	-8.32533
▁however	-8.32859
▁Some	-8.331
▁found	-8.33181
▁night	-8.33383
▁nor	-8.33747
▁last	-8.33885
ve	-8.33893
A	-8.34688
f	-8.34749
ness	-8.34989
▁Rishi	-8.35107
▁side	-8.35152
▁covered	-8.35278
▁seeing	-8.35927
▁around	-8.35946
▁gave	-8.36202
▁re	-8.36299
▁Dhritarashtra	-8.36434
▁illustrious	-8.36656
▁played	-8.3672
▁age	-8.36853
▁company	-8.36961
▁heaven	-8.36967
▁might	-8.37162
▁persons	-8.3764
▁resembling	-8.37652
▁States	-8.37701
▁B	-8.38159
est	-8.38204
▁monarch	-8.3838
able	-8.38529
▁river	-8.38758
▁sacrifice	-8.38783
▁second	-8.38958
man	-8.3911
▁created	-8.39217
▁act	-8.39589
▁next	-8.3967
▁using	-8.39743
▁within	-8.39801
▁cut	-8.40013
ll	-8.40396
▁team	-8.40638
▁near	-8.40767
▁able	-8.40908
ni	-8.41189
▁self	-8.4126
ir	-8.41761
▁D	-8.42052
▁house	-8.43063
▁won	-8.43266
▁blood	-8.43267
▁anger	-8.43297
▁foes	-8.43427
▁heroes	-8.43439
▁tutorial	-8.43488
il	-8.43544
va	-8.43688
▁birth	-8.43998
▁ten	-8.44024
▁order	-8.44027
▁war	-8.44297
▁family	-8.44575
▁Vedas	-8.44818
▁children	-8.45239
ur	-8.45323
▁Rama	-8.45998
ti	-8.4711
▁want	-8.47299
ka	-8.47696
▁following	-8.47857
ation	-8.47942
In	-8.48104
▁18	-8.48184
▁must	-8.48292
▁Hearing	-8.48374
▁file	-8.48417
▁since	-8.48882
▁friends	-8.491
▁descendant	-8.49102
D	-8.49285
▁hundred	-8.49438
▁Rishis	-8.49781
▁ground	-8.50266
▁home	-8.50302
▁Earth	-8.50779
▁women	-8.50867
▁endued	-8.50955
▁dreadful	-8.50956
ro	-8.51006
▁E	-8.51219
▁Brahma	-8.51229
▁de	-8.51437
▁happiness	-8.51483
▁Seeing	-8.51509
it	-8.51638
▁fruits	-8.51716
▁making	-8.51757
▁include	-8.51943
▁possessed	-8.52025
souled	-8.52215
▁trees	-8.52231
te	-8.53224
▁put	-8.53319
am	-8.53489
sh	-8.53727
▁senses	-8.53876
▁until	-8.53899
▁speak	-8.5393
▁ascetic	-8.53934
▁tell	-8.53945
▁equal	-8.54087
us	-8.54124
▁cause	-8.54243
▁viz	-8.54278
▁engaged	-8.54286
is	-8.54491
▁area	-8.54562
▁taking	-8.54634
▁To	-8.54754
▁child	-8.54984
▁troops	-8.55296
▁once	-8.55298
▁truth	-8.5531
▁find	-8.55519
Now	-8.5562
▁brought	-8.5563
▁soon	-8.55681
▁bring	-8.55689
x	-8.55743
▁c	-8.5586
▁3	-8.55878
▁becomes	-8.55966
▁destruction	-8.55998
▁husband	-8.56659
▁too	-8.5667
▁command	-8.5703
▁2	-8.57164
▁However	-8.57317
ha	-8.5744
▁still	-8.57494
▁Kuru	-8.57604
▁often	-8.57627
▁With	-8.58005
▁god	-8.58043
▁several	-8.5815
▁wish	-8.58223
▁regions	-8.58403
sa	-8.58505
▁thought	-8.58611
▁themselves	-8.58623
▁pierced	-8.58635
di	-8.58971
of	-8.59022
▁ruler	-8.59078
▁duties	-8.59094
▁present	-8.59328
▁taken	-8.59847
▁whole	-8.59932
▁due	-8.60021
▁think	-8.60056
▁sky	-8.60257
▁game	-8.60349
▁spoken	-8.60774
▁look	-8.60796
▁space	-8.60841
▁entered	-8.6096
▁going	-8.61084
▁considered	-8.61122
▁appeared	-8.61165
▁Kurus	-8.61212
▁soul	-8.61243
▁fell	-8.61377
1	-8.61394
T	-8.61478
▁wise	-8.61515
▁virtuous	-8.61603
ne	-8.6172
▁country	-8.61898
▁sacrifices	-8.62163
▁New	-8.62259
▁capable	-8.62587
▁clouds	-8.62637
▁sin	-8.62708
▁chief	-8.62736
▁need	-8.62745
▁according	-8.62769
▁performed	-8.6292
▁1	-8.63042
▁-	-8.63114
▁Vaishampayana	-8.63576
at	-8.63796
For	-8.64012
▁course	-8.64133
▁started	-8.64183
▁line	-8.64423
▁An	-8.64609
▁Kunti	-8.6499
▁system	-8.65045
B	-8.65131
▁So	-8.6521
▁later	-8.65265
▁Sanjaya	-8.655
el	-8.65567
▁asked	-8.65641
▁small	-8.65768
▁heroic	-8.6625
ch	-8.66561
▁hear	-8.66887
▁music	-8.67129
▁force	-8.67167
▁Now	-8.67295
▁enemy	-8.67436
▁worlds	-8.6766
▁Therefore	-8.67669
▁struck	-8.68269
The	-8.68274
▁brothers	-8.68308
da	-8.68599
▁just	-8.68787
▁universe	-8.68792
▁sacred	-8.68796
▁sent	-8.69219
▁F	-8.69289
▁today	-8.69376
▁highest	-8.70122
▁important	-8.70168
ity	-8.70307
▁human	-8.70874
▁main	-8.71105
▁money	-8.71237
▁Ka	-8.71389
▁yourself	-8.71691
▁Bhimasena	-8.71783
▁released	-8.7218
▁British	-8.72318
▁thousands	-8.72471
▁looked	-8.72679
de	-8.72867
▁P	-8.72897
▁century	-8.72993
P	-8.73298
▁deeds	-8.7332
▁desirous	-8.73413
▁R	-8.73535
▁sorrow	-8.73639
▁K	-8.73884
▁return	-8.73959
▁10	-8.74159
▁elephant	-8.74198
▁received	-8.74214
▁Go	-8.74229
warriors	-8.74362
▁terrible	-8.74517
▁pleased	-8.74862
▁object	-8.74969
▁conduct	-8.75169
▁objects	-8.75279
▁kinds	-8.75382
▁white	-8.7576
▁G	-8.76126
▁play	-8.76133
▁Re	-8.76203
▁wicked	-8.76288
▁lives	-8.76346
▁follow	-8.76445
So	-8.76495
▁5	-8.7659
▁got	-8.76822
▁How	-8.76837
ive	-8.76889
▁U	-8.772
▁monkey	-8.77494
ce	-8.7753
▁though	-8.77789
▁wind	-8.77951
w	-8.77953
▁held	-8.77981
▁love	-8.77995
▁o	-8.78013
▁district	-8.78226
▁Jesus	-8.78272
▁free	-8.7858
▁government	-8.78843
▁Be	-8.78845
▁proper	-8.78919
▁gifts	-8.78947
▁Partha	-8.78956
ul	-8.79076
▁control	-8.79078
2	-8.79089
less	-8.79145
▁victory	-8.79186
▁Su	-8.79306
▁T	-8.79624
▁4	-8.79791
▁animals	-8.7989
▁feet	-8.80015
▁seven	-8.80038
▁penances	-8.80137
▁exceedingly	-8.80273
▁times	-8.80389
▁mountains	-8.80546
▁cars	-8.80604
▁sides	-8.80675
tra	-8.80763
▁Sun	-8.80822
▁Indeed	-8.80827
▁golden	-8.80884
▁season	-8.80903
▁change	-8.8117
▁followed	-8.814
▁Click	-8.81439
▁learned	-8.81457
▁town	-8.81608
▁lost	-8.8167
um	-8.82193
▁including	-8.82307
▁single	-8.82391
▁select	-8.82626
▁17	-8.82656
ter	-8.82751
mi	-8.82872
▁show	-8.83109
▁dead	-8.83446
▁World	-8.83588
▁light	-8.83656
▁top	-8.83772
R	-8.83811
▁Many	-8.83839
▁face	-8.83913
▁weapon	-8.84026
▁real	-8.84071
▁tree	-8.84155
▁shot	-8.84462
▁May	-8.84664
▁sea	-8.85152
▁ocean	-8.85164
▁joy	-8.85404
▁strong	-8.85701
▁M	-8.86048
▁gifted	-8.86075
▁example	-8.86669
▁hard	-8.86681
▁Vi	-8.86924
▁lady	-8.87057
▁alone	-8.87184
eth	-8.87272
se	-8.87334
▁open	-8.87506
▁superior	-8.87544
▁Being	-8.87577
▁told	-8.87622
▁kill	-8.87861
▁huge	-8.87942
▁word	-8.87949
ate	-8.88033
M	-8.88074
▁certain	-8.88158
▁parts	-8.88266
▁keep	-8.88311
▁adorned	-8.8856
▁royal	-8.88827
▁usually	-8.88991
z	-8.88993
ia	-8.89035
▁From	-8.89122
▁Pritha	-8.89223
lo	-8.89467
▁friend	-8.89502
▁popular	-8.89593
▁land	-8.89615
▁success	-8.89678
▁period	-8.898
pa	-8.89929
▁Dur	-8.90121
3	-8.90136
ak	-8.90574
ry	-8.90592
ant	-8.90743
ent	-8.90873
et	-8.90927
▁birds	-8.90969
▁sweet	-8.91041
▁everything	-8.91173
▁National	-8.91304
ol	-8.91599
▁quickly	-8.91621
ine	-8.91659
▁yet	-8.91704
▁above	-8.92096
▁merit	-8.92189
▁page	-8.92226
▁soldiers	-8.92286
▁create	-8.92331
▁charioteer	-8.92336
L	-8.92424
▁entire	-8.92469
▁stood	-8.92494
▁six	-8.92683
v	-8.92695
▁respect	-8.92923
▁La	-8.92938
▁enter	-8.93163
ment	-8.93274
▁perform	-8.93512
▁forth	-8.93571
▁6	-8.93863
▁evil	-8.9411
▁coming	-8.9415
▁myself	-8.94529
▁sound	-8.94618
ga	-8.94674
▁preceptor	-8.94792
▁gone	-8.9486
▁little	-8.94918
▁lived	-8.95048
▁prosperity	-8.95056
▁kine	-8.95199
▁point	-8.95313
▁capital	-8.95334
▁countries	-8.95466
▁forms	-8.95586
▁s	-8.95602
To	-8.95672
▁woman	-8.95886
▁national	-8.96005
▁temple	-8.96043
▁view	-8.96444
▁prince	-8.96464
▁doing	-8.96655
▁per	-8.96672
▁peace	-8.96692
▁image	-8.96753
▁press	-8.96963
▁already	-8.96984
F	-8.97022
▁few	-8.97027
▁moon	-8.97042
▁eye	-8.97052
▁fall	-8.97124
▁learn	-8.97193
ā	-8.97202
▁Dhananjaya	-8.97264
▁early	-8.9733
▁major	-8.97386
▁why	-8.97404
▁devoted	-8.97424
▁arrow	-8.9747
▁Pa	-8.97819
▁caused	-8.97929
▁common	-8.97948
▁Sa	-8.98061
▁sharp	-8.9808
▁thou	-8.9824
▁population	-8.98528
▁group	-8.98751
▁20	-8.98778
E	-8.99038
ful	-8.99226
▁My	-8.99568
▁destroyed	-8.99869
▁righteous	-9.00071
▁flowers	-9.00071
▁Sītā	-9.00242
▁result	-9.00458
▁pure	-9.00479
▁either	-9.00526
▁list	-9.0062
▁beings	-9.00871
▁rest	-9.00963
▁King	-9.01151
▁sport	-9.01191
▁intelligent	-9.01254
/	-9.0134
N	-9.01363
▁speech	-9.01485
id	-9.01568
▁Who	-9.01679
sha	-9.01679
▁round	-9.01703
▁wrath	-9.01733
▁afflicted	-9.02021
▁bodies	-9.02125
ary	-9.0213
▁15	-9.02166
▁Delhi	-9.02271
▁Yoga	-9.02279
5	-9.02309
But	-9.02524
▁nature	-9.02713
▁gift	-9.02838
▁surrounded	-9.02869
▁located	-9.02875
▁class	-9.02919
▁rushed	-9.02924
ad	-9.03176
▁itself	-9.03191
▁abode	-9.03452
▁encounter	-9.03576
▁acquired	-9.03593
▁protect	-9.03599
▁million	-9.03627
▁12	-9.03662
▁Enter	-9.03758
▁De	-9.03772
▁Rakshasas	-9.03775
▁button	-9.03822
▁true	-9.03899
j	-9.04047
▁eternal	-9.04049
▁understanding	-9.04059
▁information	-9.04202
▁box	-9.04487
wa	-9.04601
and	-9.04705
▁deprived	-9.04823
▁twice	-9.04937
▁Soul	-9.04971
▁obtained	-9.05026
▁air	-9.05166
vi	-9.05282
▁rites	-9.05388
▁available	-9.05555
▁nothing	-9.0556
▁save	-9.05705
▁comes	-9.05786
▁chariot	-9.05918
▁Ma	-9.0621
▁run	-9.06267
be	-9.06287
▁case	-9.0631
▁movie	-9.06385
▁based	-9.06417
▁Gandharvas	-9.06723
born	-9.06749
▁rivers	-9.07034
▁16	-9.07192
▁married	-9.07235
4	-9.07304
▁steeds	-9.07345
▁blessed	-9.07384
ck	-9.07546
up	-9.07807
▁consider	-9.07883
▁7	-9.07887
▁N	-9.08046
▁defeated	-9.08113
ja	-9.0816
ci	-9.08337
ies	-9.08454
ru	-9.08607
▁passed	-9.08629
▁beauty	-9.08789
▁path	-9.089
▁language	-9.08931
▁January	-9.09103
▁Even	-9.09273
▁start	-9.0931
▁practice	-9.09543
armed	-9.09558
ting	-9.09641
▁text	-9.09678
▁fighting	-9.09698
▁While	-9.09756
▁sinful	-9.09842
▁village	-9.09858
–	-9.09927
ge	-9.10021
▁enjoy	-9.10172
▁ask	-9.10269
▁giving	-9.10394
tic	-9.10641
▁ascetics	-9.10767
by	-9.10846
▁built	-9.10846
▁hearing	-9.10949
▁written	-9.11014
▁makes	-9.11259
ous	-9.11267
▁mine	-9.11282
0	-9.11397
ling	-9.11457
▁mouth	-9.11502
▁red	-9.11545
▁thing	-9.11761
.”	-9.11817
▁action	-9.11944
%	-9.11956
▁Rāghava	-9.11971
▁business	-9.12065
▁none	-9.12097
▁moved	-9.12127
▁Brahman	-9.12257
▁fierce	-9.12299
▁please	-9.12456
▁pass	-9.12699
▁Boy	-9.12739
▁else	-9.12782
▁value	-9.12811
▁worship	-9.12928
age	-9.12975
▁Kshatriya	-9.12978
▁leave	-9.1309
▁Tamil	-9.13112
▁p	-9.13116
▁slay	-9.13133
▁Vasudeva	-9.13274
▁beholding	-9.13405
▁story	-9.13439
▁intelligence	-9.13601
▁reason	-9.13622
▁kind	-9.13623
▁colour	-9.1382
▁waters	-9.13863
▁religious	-9.13941
▁history	-9.13996
he	-9.1423
▁difficult	-9.14309
G	-9.1477
no	-9.14919
▁proceeded	-9.15114
▁South	-9.15179
▁American	-9.15233
▁similar	-9.15267
▁close	-9.15392
▁No	-9.154
▁forces	-9.15454
▁service	-9.15501
▁move	-9.15582
▁acquire	-9.15852
▁public	-9.15929
▁sure	-9.15978
co	-9.16085
ist	-9.1617
▁duty	-9.16267
▁Beholding	-9.16425
▁Your	-9.16506
▁famous	-9.16605
▁vows	-9.16633
▁behold	-9.16745
▁burning	-9.16919
▁effulgent	-9.16943
▁Rākşasas	-9.17247
▁pious	-9.1729
▁protected	-9.17311
▁Me	-9.17372
▁Pandava	-9.17402
un	-9.17515
▁slayer	-9.17621
▁qualities	-9.17625
▁foot	-9.17638
▁pleasure	-9.1775
▁North	-9.17826
▁auspicious	-9.1784
▁doubt	-9.17911
▁Na	-9.17918
▁fought	-9.17969
▁March	-9.17994
▁Why	-9.18159
▁eat	-9.18358
▁Ra	-9.1838
▁lotus	-9.18433
▁Satyaki	-9.18486
▁bear	-9.18656
▁holy	-9.1872
▁short	-9.18727
▁furnished	-9.1884
▁established	-9.18873
▁cast	-9.18962
▁method	-9.18973
▁wives	-9.19004
▁Here	-9.19291
ana	-9.19376
▁host	-9.19565
▁River	-9.19703
▁less	-9.19751
▁third	-9.19884
▁Asuras	-9.20137
▁Ar	-9.20296
▁e	-9.20326
▁Man	-9.20408
▁sacrificial	-9.20591
▁court	-9.206
▁works	-9.20624
▁try	-9.20662
▁worshipped	-9.20757
op	-9.20764
▁fame	-9.20775
▁code	-9.20802
hi	-9.20919
▁incapable	-9.21107
▁sins	-9.21152
▁sight	-9.21168
ance	-9.21171
▁Vishnu	-9.21292
▁month	-9.21324
me	-9.21453
▁indeed	-9.2147
▁hundreds	-9.21532
▁8	-9.21571
▁led	-9.21735
▁Kshatriyas	-9.21786
ton	-9.21796
▁seek	-9.21846
▁moment	-9.22192
▁former	-9.22323
▁placed	-9.22554
▁don	-9.22795
▁joined	-9.22836
▁dear	-9.2303
gu	-9.23047
▁loud	-9.23102
▁position	-9.23143
▁presence	-9.23256
▁latter	-9.23257
▁lake	-9.23306
▁returned	-9.2342
▁black	-9.23437
▁V	-9.23503
▁described	-9.2356
hu	-9.23588
▁East	-9.23806
▁member	-9.23852
▁feel	-9.23942
▁option	-9.24053
▁wonderful	-9.24204
▁boon	-9.24245
per	-9.24287
▁Christ	-9.24568
▁subject	-9.24569
▁b	-9.24602
▁hair	-9.24603
ot	-9.24686
▁University	-9.24714
▁local	-9.24724
▁Ba	-9.24861
ism	-9.24973
do	-9.25162
V	-9.2527
▁delight	-9.25304
▁pain	-9.25493
▁Rāvana	-9.2565
▁0	-9.25772
▁celebrated	-9.25894
▁ornaments	-9.25909
▁art	-9.25964
8	-9.26055
▁subjects	-9.26127
▁north	-9.26263
▁add	-9.26305
day	-9.26343
H	-9.2641
▁meet	-9.26443
▁rule	-9.26504
▁goes	-9.26532
for	-9.26548
▁deep	-9.26624
▁hold	-9.26661
▁Pradesh	-9.26755
▁Most	-9.26781
▁War	-9.26798
▁disease	-9.26869
▁largest	-9.26878
▁conversant	-9.26943
▁gives	-9.2703
▁half	-9.27132
▁duly	-9.27164
If	-9.272
▁mace	-9.27263
▁formed	-9.27314
ted	-9.2733
▁lead	-9.27402
▁June	-9.27517
▁check	-9.27664
▁H	-9.27728
▁eight	-9.2785
▁ancient	-9.27886
▁Lakşmaņa	-9.27889
▁support	-9.27892
▁laid	-9.27904
▁program	-9.28018
▁better	-9.28026
▁religion	-9.28216
▁sire	-9.28355
▁dis	-9.28506
".	-9.28536
▁project	-9.28605
▁law	-9.28693
▁Singh	-9.28874
▁deer	-9.28907
K	-9.29003
▁County	-9.29045
▁Yama	-9.29169
▁south	-9.29185
▁November	-9.29224
▁link	-9.29311
▁hath	-9.29346
▁pay	-9.29386
▁looking	-9.29414
▁defeat	-9.29478
▁Ganga	-9.29485
▁master	-9.2951
▁vow	-9.29577
im	-9.29603
▁11	-9.29696
▁total	-9.29753
▁voice	-9.29778
▁young	-9.29795
▁worthy	-9.29853
warrior	-9.30084
▁September	-9.30191
▁i	-9.30312
▁condition	-9.30369
▁April	-9.30381
▁Narada	-9.30387
▁armed	-9.30421
▁shown	-9.30526
▁sleep	-9.30685
▁games	-9.30778
▁places	-9.30849
ish	-9.31042
▁players	-9.31294
▁W	-9.31373
▁midst	-9.31396
▁low	-9.31481
▁co	-9.3149
▁cow	-9.31532
▁wisdom	-9.31555
▁role	-9.3157
▁rules	-9.31575
”	-9.31605
▁St	-9.31855
ho	-9.31884
ba	-9.3191
like	-9.32115
▁etc	-9.32181
▁window	-9.32354
ud	-9.32371
▁protection	-9.32386
▁general	-9.32401
▁whether	-9.32543
▁asceticism	-9.32564
?"""	-9.32609
▁August	-9.32745
▁December	-9.32745
▁riches	-9.3276
▁level	-9.32782
▁stars	-9.32801
▁plants	-9.3286
▁October	-9.32946
▁attain	-9.33133
▁Va	-9.33202
▁accompanied	-9.33244
▁scriptures	-9.33308
▁series	-9.33343
▁appears	-9.334
▁fearful	-9.33561
▁getting	-9.33606
▁displays	-9.33607
mp	-9.33613
os	-9.33727
▁speedily	-9.33744
▁Pra	-9.33828
▁Like	-9.33955
rs	-9.33985
▁Draupadi	-9.33992
▁July	-9.3403
,"""	-9.34092
▁write	-9.34132
▁sake	-9.34148
▁far	-9.34176
nd	-9.34222
pi	-9.34377
tha	-9.3448
▁states	-9.34559
▁deities	-9.34561
▁care	-9.34697
▁Ko	-9.34726
▁sometimes	-9.34732
ke	-9.34832
▁standard	-9.35026
▁San	-9.3519
son	-9.35227
tion	-9.35338
go	-9.35379
▁ball	-9.35519
du	-9.35645
▁fruit	-9.35651
▁speed	-9.3577
bha	-9.35814
▁consequence	-9.35857
lu	-9.35937
▁rage	-9.36033
▁Ro	-9.36046
▁horse	-9.36051
▁9	-9.36055
▁front	-9.36199
▁offered	-9.36248
▁thunder	-9.36386
▁stand	-9.36457
▁produced	-9.36471
▁2010	-9.36579
▁ones	-9.36698
▁Hindu	-9.369
▁*	-9.36954
▁honour	-9.37001
▁According	-9.37017
▁sat	-9.37029
▁14	-9.37152
▁13	-9.37165
▁refuge	-9.37218
▁cities	-9.37232
▁Khan	-9.37352
▁spread	-9.37367
numerous	-9.37375
ver	-9.37431
▁array	-9.37445
▁purpose	-9.3754
▁takes	-9.37644
▁rain	-9.37694
▁Death	-9.37845
▁Shalya	-9.37845
pur	-9.38044
▁read	-9.3822
▁ma	-9.38221
▁Ravana	-9.38293
▁version	-9.38396
mongst	-9.38515
▁player	-9.38583
▁heads	-9.38615
▁hermitage	-9.38687
▁areas	-9.38747
▁Le	-9.38785
▁leading	-9.38795
▁19	-9.38817
▁members	-9.39047
▁store	-9.39092
▁obtain	-9.39092
▁display	-9.39144
▁book	-9.39187
▁West	-9.39223
▁People	-9.39325
▁Dharma	-9.39337
▁righteousness	-9.39357
men	-9.39462
▁believe	-9.39514
▁appear	-9.39531
▁met	-9.39762
▁character	-9.39781
▁lion	-9.39796
ts	-9.39886
▁woods	-9.39917
ng	-9.39933
▁acquires	-9.40071
▁Such	-9.40088
▁points	-9.40154
▁Shakra	-9.40181
▁freed	-9.40277
▁Bengal	-9.40344
▁affection	-9.40392
▁source	-9.40573
▁milk	-9.40611
Arjuna	-9.40623
om	-9.40625
ki	-9.40634
ty	-9.40818
▁Of	-9.40819
▁English	-9.40824
▁receive	-9.40928
▁depend	-9.40978
▁bad	-9.41017
tu	-9.4122
▁knowing	-9.41333
▁match	-9.41365
▁breast	-9.4147
▁worked	-9.41551
▁process	-9.41553
▁least	-9.41688
▁stay	-9.4176
▁study	-9.42094
▁Shah	-9.42108
▁ready	-9.42233
▁search	-9.42419
▁event	-9.4242
▁school	-9.42551
▁30	-9.42628
ah	-9.42751
▁seat	-9.42812
ca	-9.42815
▁final	-9.42862
▁served	-9.42888
▁killing	-9.42943
po	-9.42997
▁February	-9.43004
This	-9.43031
▁current	-9.43064
▁bar	-9.43152
ial	-9.43201
▁aged	-9.43207
▁Tutorial	-9.4323
▁science	-9.43233
off	-9.4393
▁lot	-9.43989
▁call	-9.44058
▁Panchalas	-9.44318
▁football	-9.44336
▁female	-9.44355
▁Agni	-9.44368
nt	-9.44424
Then	-9.44479
▁names	-9.44533
▁J	-9.44603
bo	-9.44717
▁destroy	-9.44748
▁snakes	-9.44795
▁uttered	-9.44944
si	-9.44956
▁faith	-9.45056
▁destroyer	-9.45177
▁career	-9.4518
ji	-9.45241
dha	-9.45255
▁range	-9.45284
▁Supreme	-9.45457
▁neither	-9.45457
minded	-9.45521
▁cloth	-9.4567
▁Ni	-9.45676
▁rays	-9.45685
▁club	-9.45729
▁wood	-9.45751
▁although	-9.4591
▁noble	-9.45941
ally	-9.46
▁sense	-9.46082
▁interest	-9.46133
▁splendour	-9.46137
▁arrived	-9.46163
▁non	-9.46226
▁shower	-9.46288
▁anything	-9.46368
ence	-9.4643
▁term	-9.46565
▁past	-9.46568
ä	-9.46593
▁reached	-9.46595
—	-9.46621
▁understand	-9.46815
▁bank	-9.46933
cha	-9.47005
▁influence	-9.47146
▁sage	-9.47149
▁hill	-9.47161
▁flesh	-9.47283
▁accept	-9.47373
▁attained	-9.47422
▁possible	-9.47512
▁beginning	-9.47512
▁Sugrīva	-9.47517
▁conflict	-9.47743
▁carried	-9.47745
▁continued	-9.47873
▁months	-9.47964
▁details	-9.48046
▁Al	-9.48184
▁learning	-9.48301
▁younger	-9.48336
gi	-9.48408
▁special	-9.48472
▁Jain	-9.48475
▁Un	-9.48484
▁directed	-9.48612
▁inside	-9.48873
▁2020	-9.48977
▁pre	-9.49016
▁behind	-9.4914
▁output	-9.49344
▁sorts	-9.49349
▁video	-9.49375
▁palace	-9.49493
▁seated	-9.49503
▁kept	-9.4961
▁Mar	-9.4962
▁lying	-9.4963
▁record	-9.49641
▁Da	-9.49784
▁touch	-9.49826
▁directions	-9.49835
▁fair	-9.4993
▁describe	-9.50051
▁hope	-9.50079
▁energetic	-9.50088
▁Tell	-9.50124
▁Narayana	-9.50147
ie	-9.50193
▁drink	-9.50213
▁England	-9.50319
▁effulgence	-9.50319
ated	-9.5045
▁welfare	-9.50557
em	-9.50622
▁wounded	-9.50623
out	-9.50802
▁song	-9.50827
▁angry	-9.51034
▁Kerala	-9.51273
land	-9.51369
▁amount	-9.51448
▁replied	-9.51514
▁ways	-9.5152
▁Vidura	-9.51528
▁Ja	-9.51577
▁remain	-9.51588
▁health	-9.51649
▁dot	-9.51711
▁longer	-9.51798
7	-9.51858
ship	-9.52115
ut	-9.52192
ang	-9.524
▁morning	-9.52477
▁international	-9.52478
▁further	-9.52478
▁sports	-9.52518
▁Other	-9.52571
▁regard	-9.52585
▁delighted	-9.52741
▁fast	-9.52776
▁fort	-9.52918
▁chastiser	-9.52974
▁Mo	-9.53127
▁performance	-9.53168
▁hostile	-9.53213
▁fallen	-9.53264
▁goddess	-9.53452
▁sister	-9.53453
▁turn	-9.53561
▁blazing	-9.53697
▁origin	-9.53722
▁layer	-9.5374
har	-9.54125
▁slaying	-9.54166
field	-9.54381
▁favour	-9.54403
▁Danavas	-9.54428
▁devotion	-9.54443
▁Spoken	-9.54477
▁Mughal	-9.54527
▁km	-9.54769
▁sword	-9.54902
▁adored	-9.55011
ever	-9.55095
▁banks	-9.55107
▁bearing	-9.55141
▁late	-9.55204
tri	-9.55215
law	-9.55363
▁computer	-9.55412
▁departed	-9.55529
▁question	-9.55594
▁offer	-9.55622
▁truly	-9.5568
▁species	-9.55681
▁especially	-9.5569
▁Con	-9.55704
▁resembled	-9.55716
▁Suta	-9.55818
one	-9.5582
▁Son	-9.56057
▁shows	-9.5607
▁respective	-9.56314
▁f	-9.56356
▁office	-9.56374
▁changes	-9.56397
▁leaving	-9.56434
▁Kripa	-9.56441
▁function	-9.56445
▁shape	-9.56528
▁Vyasa	-9.56715
bi	-9.56929
▁raised	-9.57017
▁misery	-9.57195
▁related	-9.57355
▁playing	-9.57498
vo	-9.57531
▁release	-9.57578
▁data	-9.57601
▁color	-9.57726
▁across	-9.57813
▁increase	-9.57823
▁tears	-9.57833
▁happy	-9.57958
▁something	-9.57962
▁Po	-9.58064
▁Or	-9.58173
▁clear	-9.58246
ther	-9.58309
▁girl	-9.58512
▁Ca	-9.5853
9	-9.58641
▁songs	-9.58649
▁hearts	-9.58654
chi	-9.58753
ian	-9.5884
▁Co	-9.58864
mo	-9.58929
▁stop	-9.58988
▁glory	-9.58989
▁Lo	-9.58992
▁Since	-9.59016
▁films	-9.59016
▁tool	-9.59037
▁listen	-9.59042
▁complete	-9.59215
▁Am	-9.59352
▁Mu	-9.5946
▁deity	-9.59556
▁warrior	-9.59561
▁fled	-9.59636
▁performing	-9.59647
▁grandfather	-9.59768
▁charming	-9.5981
▁party	-9.59816
▁string	-9.59838
▁Keshava	-9.60028
▁International	-9.60029
▁broken	-9.60077
▁types	-9.60091
rd	-9.60128
▁Di	-9.60173
▁enraged	-9.6029
▁actions	-9.60306
▁supported	-9.60475
▁Bharatas	-9.60488
▁thy	-9.60594
▁particular	-9.60658
▁showers	-9.60824
com	-9.60852
▁Bo	-9.60983
▁answered	-9.61101
▁higher	-9.61237
▁Time	-9.61386
▁II	-9.61424
▁send	-9.61443
▁gets	-9.61455
▁causes	-9.61455
▁twenty	-9.61609
ku	-9.61636
▁State	-9.61734
▁meaning	-9.61744
▁lower	-9.61786
▁assembly	-9.61875
(	-9.61963
▁fact	-9.62128
ram	-9.62175
▁discharged	-9.62211
▁standing	-9.62222
ring	-9.62298
▁break	-9.62492
▁Her	-9.62548
line	-9.62574
▁composed	-9.62691
pe	-9.62707
▁bows	-9.62708
▁succeed	-9.62737
▁sinless	-9.62749
▁elements	-9.6288
▁Minister	-9.62946
▁divine	-9.62947
van	-9.62966
▁namely	-9.62977
6	-9.63037
▁almost	-9.63086
▁double	-9.63216
▁grace	-9.63532
▁tab	-9.63689
▁features	-9.63779
▁endow	-9.63786
*	-9.643
▁distance	-9.64301
▁pride	-9.64301
▁occasion	-9.64438
▁Ga	-9.64452
▁cases	-9.64456
▁2011	-9.6451
kar	-9.64512
▁falling	-9.64686
king	-9.64688
aka	-9.64723
▁priest	-9.64724
▁thinking	-9.64831
▁leaves	-9.64889
▁Ha	-9.64967
▁spot	-9.6499
▁attack	-9.65034
▁disciples	-9.65073
▁2019	-9.65146
▁rock	-9.65185
▁decked	-9.65199
thi	-9.65259
▁gems	-9.65361
▁financial	-9.65399
▁permission	-9.65399
▁Laksmana	-9.6541
▁attached	-9.65471
▁natural	-9.6553
▁website	-9.65566
▁drop	-9.65575
ac	-9.65625
▁working	-9.6566
▁immediately	-9.65703
▁beheld	-9.65728
▁headed	-9.65778
▁division	-9.65866
▁site	-9.65946
▁Empire	-9.65952
U	-9.65953
▁successful	-9.66098
▁festival	-9.66136
▁forests	-9.66217
▁Hindi	-9.66234
▁gain	-9.66292
ko	-9.66333
▁founded	-9.66333
▁rulers	-9.66385
▁Bhrigu	-9.66508
▁Madhu	-9.66515
▁marks	-9.66559
ster	-9.66694
▁lay	-9.66699
▁matter	-9.66706
▁items	-9.6672
▁straight	-9.66783
▁bottom	-9.66787
▁rich	-9.66793
▁size	-9.67052
▁Sweden	-9.67068
▁followers	-9.6715
▁fixed	-9.6719
ors	-9.67292
▁m	-9.67333
▁hit	-9.67346
▁President	-9.67348
▁looks	-9.67399
,"	-9.67428
▁bit	-9.67436
▁relatives	-9.67441
▁dark	-9.67504
▁social	-9.67631
led	-9.67659
▁rose	-9.67712
▁d	-9.67719
▁below	-9.67804
▁dynasty	-9.67913
▁heavy	-9.67913
▁southern	-9.67916
▁Virata	-9.67926
▁proceed	-9.67966
tan	-9.67973
▁2014	-9.68
▁turned	-9.68001
▁en	-9.68008
▁remained	-9.68008
▁choose	-9.68057
▁Maha	-9.68146
▁sounds	-9.68192
▁City	-9.68278
▁2017	-9.68318
▁online	-9.68448
▁length	-9.6848
▁skin	-9.68554
▁appointed	-9.68567
ag	-9.68649
▁Bar	-9.68722
▁mark	-9.68735
▁contact	-9.68782
▁possess	-9.68838
▁stone	-9.68847
▁poor	-9.6892
▁bed	-9.68974
▁future	-9.69051
ham	-9.69084
▁L	-9.69103
▁becoming	-9.69141
▁options	-9.69248
▁Rakshasa	-9.69297
▁quality	-9.69362
▁win	-9.69451
▁Ya	-9.69492
▁Sha	-9.69552
▁northern	-9.69628
▁League	-9.6963
▁die	-9.69641
▁wait	-9.69711
▁forward	-9.69818
▁pieces	-9.69902
ber	-9.70043
▁desires	-9.701
▁accomplished	-9.70117
▁Ne	-9.70194
▁census	-9.70202
▁modern	-9.70205
▁Sahadeva	-9.70215
▁grass	-9.70215
▁darkness	-9.70226
▁cancer	-9.70259
▁visit	-9.70264
▁slaughter	-9.70271
▁user	-9.70283
▁loss	-9.70448
▁events	-9.70621
▁Both	-9.7066
▁greater	-9.70672
▁believed	-9.70709
▁access	-9.70779
▁Raghu	-9.70782
▁wrong	-9.70783
▁25	-9.70853
▁spirit	-9.7092
▁snake	-9.71056
ical	-9.7106
▁belonging	-9.71067
▁development	-9.71107
▁exist	-9.71127
▁leader	-9.71209
▁Kumar	-9.71378
▁Great	-9.71384
ized	-9.71432
▁Ta	-9.7144
▁services	-9.71526
▁Car	-9.7169
▁Nakula	-9.71691
▁whatever	-9.71763
▁weak	-9.71817
▁acquiring	-9.71954
▁police	-9.71954
▁developed	-9.71964
▁title	-9.72093
▁con	-9.72104
▁teams	-9.72198
▁John	-9.72237
▁Nadu	-9.72264
▁allow	-9.72305
▁Ram	-9.72457
▁meat	-9.72467
▁attention	-9.72544
▁twelve	-9.72544
▁date	-9.72717
▁original	-9.72772
▁alive	-9.7285
▁minister	-9.72857
▁foe	-9.72883
▁Wind	-9.72884
▁Award	-9.72942
▁included	-9.73078
▁answer	-9.73115
▁invincible	-9.73139
▁traditional	-9.73284
our	-9.73417
▁grant	-9.73429
▁Mahadeva	-9.73441
▁greatest	-9.73487
▁sub	-9.73532
▁says	-9.73536
▁changed	-9.73539
ab	-9.737
ner	-9.7375
▁station	-9.73752
▁Cha	-9.73754
▁divided	-9.73786
▁practices	-9.73794
▁declared	-9.73816
▁princes	-9.73908
▁share	-9.73933
▁di	-9.73935
▁2009	-9.7404
▁ex	-9.74069
▁menu	-9.74114
▁surely	-9.74319
▁austerities	-9.74338
▁Soma	-9.74345
▁Type	-9.74354
▁iron	-9.74366
ran	-9.74376
▁conquered	-9.74518
▁selected	-9.74541
▁Pi	-9.74668
ft	-9.74698
▁Germany	-9.74701
▁instead	-9.74928
▁extreme	-9.74943
▁political	-9.74943
▁observe	-9.75088
▁orders	-9.75094
▁message	-9.75247
▁2000	-9.75264
▁creature	-9.75303
den	-9.75342
▁post	-9.75454
▁limbs	-9.75459
▁except	-9.75538
▁vast	-9.75555
▁big	-9.75578
It	-9.75655
▁1.	-9.75663
ns	-9.7577
▁Bi	-9.75824
▁repair	-9.75842
▁Congress	-9.75859
▁screen	-9.75875
▁""	-9.75876
▁certainly	-9.7593
▁hour	-9.75948
▁Save	-9.75961
if	-9.76373
▁added	-9.76388
▁necessary	-9.76472
▁military	-9.76473
▁print	-9.76505
▁room	-9.76533
▁item	-9.7662
▁Thereat	-9.76663
▁rate	-9.76748
mu	-9.76773
▁anxiety	-9.76781
▁2007	-9.76786
He	-9.76966
▁remove	-9.77016
▁enough	-9.77092
▁Hanumān	-9.77107
▁treatment	-9.77137
▁dance	-9.77276
▁suffer	-9.77319
ub	-9.77397
▁root	-9.77512
▁Punjab	-9.77541
▁Ti	-9.77704
▁marriage	-9.77713
▁blue	-9.77734
▁Bha	-9.77757
▁merits	-9.77808
▁Ho	-9.77913
▁running	-9.78026
▁creation	-9.7804
▁injury	-9.78049
ions	-9.7808
▁firm	-9.78158
▁curse	-9.78187
▁meeting	-9.78197
▁Rudra	-9.7839
As	-9.78425
▁learnt	-9.786
▁avoid	-9.78646
ī	-9.78653
▁shorn	-9.78654
▁existence	-9.7867
with	-9.78685
▁unable	-9.78775
▁test	-9.78787
side	-9.7883
▁lines	-9.78836
▁trade	-9.78963
▁Gandiva	-9.78969
▁London	-9.78969
▁brave	-9.78973
▁servants	-9.78975
▁mode	-9.79033
ig	-9.79049
iv	-9.79076
▁ruled	-9.79238
▁formerly	-9.79249
▁Lu	-9.7926
_	-9.79285
▁distress	-9.79364
we	-9.79411
▁tried	-9.79416
▁roars	-9.79464
ities	-9.79617
▁provide	-9.79682
▁displayed	-9.79766
▁pro	-9.79813
20	-9.7984
▁helps	-9.79897
▁center	-9.80018
▁reach	-9.80027
ure	-9.80209
▁France	-9.80247
▁icon	-9.80251
▁diverse	-9.80266
▁2018	-9.80272
▁mail	-9.80324
▁24	-9.80341
▁Ex	-9.80471
▁approached	-9.805
▁east	-9.80558
▁mobile	-9.80561
▁agreeable	-9.8057
▁severe	-9.80579
▁till	-9.80593
▁Pro	-9.80636
▁treat	-9.80725
Here	-9.80734
▁completely	-9.80756
▁Janaka	-9.80892
▁problems	-9.81057
▁dart	-9.81061
▁key	-9.81143
▁wings	-9.8121
▁dust	-9.81218
▁Listen	-9.81231
▁herself	-9.81237
▁2013	-9.8125
▁band	-9.81306
▁wide	-9.81332
▁drawn	-9.81339
▁Tri	-9.8136
▁variable	-9.81378
▁Sri	-9.81382
▁temples	-9.81464
▁develop	-9.81503
▁numbers	-9.81594
▁throughout	-9.81609
ow	-9.81617
▁ran	-9.81692
▁bird	-9.81712
▁wonder	-9.81806
▁Asia	-9.81871
▁garlands	-9.81898
,000	-9.81946
ard	-9.82011
▁individual	-9.8204
W	-9.82045
ct	-9.82077
▁t	-9.82172
▁track	-9.8218
▁wearing	-9.82259
▁Cup	-9.82284
▁mostly	-9.82337
▁honoured	-9.82358
▁cross	-9.82389
▁block	-9.82393
ap	-9.82485
ph	-9.82493
▁broad	-9.82504
▁Western	-9.82509
▁sought	-9.8251
▁‘	-9.82511
▁k	-9.82514
▁groups	-9.82657
Let	-9.82668
▁attributes	-9.82696
▁butter	-9.82733
▁terror	-9.82759
▁Hu	-9.82791
▁Games	-9.82804
▁ministers	-9.82818
▁earlier	-9.82834
▁Abhimanyu	-9.82848
▁assembled	-9.82848
-"	-9.82867
▁professional	-9.82912
▁effect	-9.83023
▁boy	-9.83059
We	-9.83129
▁ear	-9.83284
▁2012	-9.83294
▁consist	-9.83369
▁week	-9.83445
▁ordered	-9.83467
▁Government	-9.83493
▁morality	-9.83498
▁Vedic	-9.83505
▁hurled	-9.83544
▁required	-9.83589
▁fish	-9.83655
▁serve	-9.83721
▁road	-9.83805
▁mean	-9.83821
▁Varuna	-9.83834
▁Each	-9.83837
▁2001	-9.83841
▁dry	-9.83841
▁reign	-9.83841
▁Though	-9.83848
ava	-9.83858
▁attacked	-9.8388
▁2016	-9.83975
▁generally	-9.84088
mon	-9.84147
▁felt	-9.84156
▁Father	-9.84162
con	-9.84237
▁Se	-9.84319
▁star	-9.84391
▁fully	-9.84417
▁mass	-9.84459
▁York	-9.84489
▁hills	-9.84569
▁manner	-9.84576
▁style	-9.84661
cc	-9.84758
ex	-9.84766
▁Dasaratha	-9.84824
▁prevent	-9.84836
▁Drupada	-9.84844
▁yoga	-9.84858
▁overwhelmed	-9.84874
▁seed	-9.84876
▁innumerable	-9.84945
▁pour	-9.85009
▁fourth	-9.85018
qui	-9.8503
▁legs	-9.85088
▁Japan	-9.85159
▁television	-9.8516
▁Sam	-9.85201
▁idea	-9.8521
▁regarded	-9.85269
▁commanded	-9.8531
▁opened	-9.8534
▁watch	-9.85371
▁Pakistan	-9.85375
▁market	-9.85403
▁exalted	-9.85496
▁yore	-9.85497
red	-9.85515
▁repeatedly	-9.85559
▁accepted	-9.8563
kh	-9.85645
ize	-9.8583
▁carry	-9.85898
▁versed	-9.85919
▁speaking	-9.8594
▁sages	-9.8607
▁High	-9.86172
▁opinion	-9.86173
▁western	-9.86198
ras	-9.86228
▁Shiva	-9.86351
▁wishes	-9.86363
▁statement	-9.8657
▁2.	-9.86578
all	-9.86592
▁outside	-9.86612
▁vital	-9.86797
▁Wa	-9.86854
▁afraid	-9.86855
▁strike	-9.86856
ala	-9.86886
▁stricken	-9.86888
▁suddenly	-9.86922
▁controlled	-9.86965
▁holding	-9.87038
▁arm	-9.87061
▁neck	-9.87076
▁US	-9.8708
▁default	-9.87197
▁teeth	-9.87203
▁mi	-9.87361
▁installed	-9.87423
▁roots	-9.87423
▁citizens	-9.87424
▁moving	-9.87541
▁centre	-9.87559
tal	-9.87621
▁Men	-9.87681
▁promise	-9.87726
▁director	-9.8783
▁appearance	-9.87859
▁average	-9.87886
▁friendship	-9.87905
▁European	-9.87976
▁follows	-9.88074
▁mentioned	-9.88131
ins	-9.88207
▁supreme	-9.88231
▁terminal	-9.88232
▁risk	-9.88232
▁municipality	-9.88234
▁goal	-9.88293
▁breathing	-9.88324
▁entering	-9.8842
les	-9.88516
▁tax	-9.88523
▁clad	-9.8858
gh	-9.88648
ay	-9.88901
▁section	-9.88913
▁eldest	-9.88927
▁summer	-9.88929
▁palms	-9.88987
▁mo	-9.8899
▁table	-9.89125
kas	-9.89212
▁animal	-9.89258
▁album	-9.89277
▁central	-9.89278
▁Iowa	-9.89278
▁middle	-9.89278
▁Where	-9.89338
▁sold	-9.89513
▁protector	-9.89525
▁books	-9.89545
▁bull	-9.89574
cy	-9.89583
▁community	-9.89628
▁throne	-9.89628
▁Jo	-9.89663
ating	-9.89782
▁files	-9.89822
▁buy	-9.89898
▁shooting	-9.89918
▁armour	-9.8998
yu	-9.89985
▁saved	-9.9
nga	-9.90018
▁gained	-9.90036
▁physical	-9.90333
tt	-9.90335
▁nine	-9.90343
You	-9.90406
▁lo	-9.90434
▁knows	-9.90554
▁lust	-9.90558
▁houses	-9.90573
▁products	-9.90587
▁happened	-9.90644
▁Chinese	-9.90688
▁100	-9.90715
▁park	-9.90781
ari	-9.90857
▁finished	-9.90868
back	-9.909
gan	-9.91032
▁countenance	-9.91044
▁maiden	-9.91069
▁piece	-9.91074
▁Australia	-9.9129
▁heat	-9.91315
▁rise	-9.91334
ju	-9.91372
▁illusion	-9.91402
ika	-9.91408
▁direction	-9.91452
▁Du	-9.91454
▁fine	-9.916
▁easily	-9.91759
▁mercy	-9.91759
▁president	-9.91765
▁ch	-9.91771
▁income	-9.91772
▁excited	-9.91773
▁Panchala	-9.91791
▁announced	-9.91817
▁Raksasas	-9.91831
▁bowman	-9.91951
▁grieve	-9.91959
▁succeeds	-9.91968
eyed	-9.9198
▁reported	-9.91997
wi	-9.92074
▁regarding	-9.92103
▁Film	-9.92119
▁otherwise	-9.92141
▁Ali	-9.92147
▁maintain	-9.92157
▁portion	-9.92171
val	-9.92212
▁weight	-9.92235
▁1,	-9.92391
▁cat	-9.92413
ff	-9.92422
▁paid	-9.92489
▁Before	-9.92512
▁lies	-9.92539
▁Up	-9.92563
▁Once	-9.92574
▁advanced	-9.92585
▁sort	-9.92603
▁grow	-9.92611
▁Ju	-9.92622
▁vanquished	-9.92625
When	-9.92645
▁west	-9.92695
down	-9.92794
ries	-9.92811
▁California	-9.92842
▁daily	-9.92843
▁sign	-9.92916
▁bound	-9.93017
ita	-9.93087
▁ba	-9.93175
▁Dushasana	-9.93206
▁Although	-9.93213
▁oil	-9.93425
mer	-9.93536
▁bright	-9.93554
▁rising	-9.93572
▁taste	-9.93584
▁youth	-9.9366
▁happen	-9.93687
▁sc	-9.93747
▁See	-9.93791
▁ladies	-9.93937
▁drinking	-9.93939
00	-9.93939
▁Pan	-9.93979
▁price	-9.94004
▁draw	-9.94066
▁Ke	-9.94097
▁Linux	-9.94305
▁languages	-9.944
▁graceful	-9.94403
▁students	-9.94434
▁properly	-9.94436
▁talk	-9.94615
▁Rākşasa	-9.94755
der	-9.94778
gar	-9.94784
▁America	-9.94913
▁net	-9.94951
▁charge	-9.95
▁union	-9.95007
▁basic	-9.95037
▁arose	-9.95045
▁escape	-9.95256
▁2021	-9.95343
▁breath	-9.95405
▁offspring	-9.95416
▁beloved	-9.95416
▁Shakuni	-9.95446
▁•	-9.95472
▁Moon	-9.95481
▁Mi	-9.95753
▁cruel	-9.95785
▁companies	-9.95789
▁journey	-9.95789
▁kinsmen	-9.95789
▁dropped	-9.95793
fi	-9.95881
cr	-9.95915
nu	-9.95942
▁China	-9.95957
▁mainly	-9.95964
▁united	-9.95998
▁witness	-9.9615
▁poured	-9.9615
▁wrote	-9.96164
▁Gandhi	-9.96165
ned	-9.96204
▁shaft	-9.96275
▁22	-9.96348
é	-9.96539
▁saith	-9.96539
dy	-9.96574
▁swords	-9.96584
▁results	-9.9663
▁desired	-9.96664
▁begin	-9.96682
▁mixed	-9.96689
Krishna	-9.96718
▁increased	-9.96774
▁eating	-9.96834
▁opens	-9.96886
▁Press	-9.96933
▁culture	-9.97053
▁stroke	-9.97063
▁official	-9.97082
bu	-9.97107
▁parents	-9.97108
god	-9.97167
▁walk	-9.97256
▁chest	-9.97321
▁branches	-9.97341
▁Fort	-9.97354
▁destroying	-9.97373
▁fit	-9.97398
▁province	-9.97449
▁cave	-9.97452
▁Gu	-9.97456
▁software	-9.97677
▁2015	-9.97703
▁giver	-9.97729
▁Te	-9.97745
ans	-9.97773
▁Add	-9.97803
▁X	-9.97806
▁virtues	-9.97841
shi	-9.97862
▁male	-9.97903
▁removed	-9.98007
▁Hari	-9.98151
▁obtains	-9.98183
▁remains	-9.98192
▁separate	-9.98194
▁Dev	-9.98226
▁23	-9.98295
▁Park	-9.9831
▁Temple	-9.98442
▁stopped	-9.98445
▁web	-9.98467
▁allowed	-9.98475
▁Also	-9.98477
▁reduced	-9.98645
▁Him	-9.98669
▁quick	-9.98669
▁articles	-9.98767
▁Shantanu	-9.98825
▁experience	-9.98833
▁noise	-9.98857
▁flow	-9.98941
▁Alas	-9.98963
▁assailed	-9.98993
▁wear	-9.99036
▁private	-9.99212
▁Dhrishtadyumna	-9.9922
▁Angada	-9.99244
▁roar	-9.99373
so	-9.99486
▁g	-9.99493
▁base	-9.99505
han	-9.9951
Do	-9.99551
ा	-9.99594
ator	-9.99597
▁French	-9.99599
▁couple	-9.99599
▁slew	-9.996
▁stationed	-9.99627
▁introduced	-10.0004
▁21	-10.0006
▁agitated	-10.0006
▁burnt	-10.0007
▁40	-10.0013
▁decided	-10.0014
▁Hear	-10.0014
▁Com	-10.0017
▁cloud	-10.002
ara	-10.0023
za	-10.0025
pro	-10.0028
▁Europe	-10.0028
▁hours	-10.0029
dh	-10.003
▁Madras	-10.0034
▁danger	-10.0037
▁typical	-10.0038
▁flaming	-10.0038
▁green	-10.0038
▁spring	-10.0041
▁originated	-10.0056
▁movement	-10.006
▁address	-10.0071
▁soil	-10.0076
▁universal	-10.0077
▁Liberation	-10.0078
▁praise	-10.0081
▁Today	-10.0081
rt	-10.0089
▁h	-10.009
▁hell	-10.0091
▁Asura	-10.0103
▁dialog	-10.0116
▁wild	-10.0116
▁dice	-10.0119
▁quarters	-10.0127
▁stores	-10.013
ea	-10.013
▁Si	-10.014
▁Best	-10.014
▁contains	-10.0148
▁remember	-10.0155
▁beyond	-10.0156
▁Hanuman	-10.0158
▁brain	-10.0159
▁Select	-10.0159
▁offerings	-10.0162
▁elected	-10.0164
▁clean	-10.0164
▁committed	-10.0164
sena	-10.0176
▁Gujarat	-10.0186
▁Kauravas	-10.0186
▁approach	-10.0188
▁simple	-10.0196
▁square	-10.0196
▁2005	-10.0196
▁spent	-10.0197
▁Another	-10.0199
▁associated	-10.0202
▁plant	-10.0205
lam	-10.0209
▁Paul	-10.021
▁ascended	-10.0214
▁error	-10.0218
▁seemed	-10.0221
▁circle	-10.0236
▁gratified	-10.0236
▁situated	-10.0237
▁happens	-10.0268
ell	-10.0269
▁empire	-10.0276
▁studied	-10.0276
▁armies	-10.0277
▁Nala	-10.0287
▁inter	-10.0299
▁structure	-10.0299
yan	-10.0307
▁wanted	-10.0307
▁explain	-10.0307
▁fill	-10.0317
▁purified	-10.0318
▁cool	-10.0319
▁acting	-10.0319
dar	-10.0329
▁faces	-10.0333
▁border	-10.034
▁score	-10.0341
▁damsel	-10.0347
▁tiger	-10.035
▁com	-10.0358
▁Radha	-10.0359
▁w	-10.0373
J	-10.0377
▁previous	-10.0381
▁Par	-10.0389
▁poison	-10.0395
ise	-10.0396
▁Subhadra	-10.0397
▁2004	-10.0397
▁sequence	-10.0397
▁Raja	-10.0397
▁exists	-10.0399
▁specific	-10.0402
▁prepared	-10.041
▁addition	-10.0413
▁student	-10.0423
ura	-10.0425
▁produce	-10.0428
▁island	-10.0433
▁false	-10.0437
▁Bharadvaja	-10.0437
▁knew	-10.0437
▁spiritual	-10.0438
▁observing	-10.0439
▁quite	-10.044
ward	-10.0447
▁clothes	-10.0449
ris	-10.0456
Next	-10.0458
Indra	-10.0459
▁runs	-10.046
▁design	-10.0461
▁Windows	-10.0478
▁Look	-10.0479
▁Not	-10.0479
▁n	-10.0483
ls	-10.0483
▁achieved	-10.0489
▁personal	-10.0498
▁celebrate	-10.0503
▁election	-10.0507
▁detail	-10.0516
▁build	-10.0516
▁travel	-10.0517
var	-10.0517
▁Mumbai	-10.0519
▁silver	-10.0519
▁harsh	-10.0519
▁hot	-10.0527
mar	-10.0531
▁truthful	-10.0536
▁darts	-10.0538
▁Kar	-10.0539
▁Sp	-10.0541
▁spend	-10.0554
▁shopping	-10.056
▁opposite	-10.0561
▁smaller	-10.0561
▁assignment	-10.0561
▁Party	-10.0564
▁helped	-10.0565
▁cold	-10.0565
▁Li	-10.0567
▁bowmen	-10.0568
▁princess	-10.0569
▁Chola	-10.0569
▁addressing	-10.0569
▁actor	-10.0578
ler	-10.059
▁Ten	-10.0592
▁Day	-10.0594
▁building	-10.0596
▁Know	-10.0599
▁cover	-10.0601
▁Ocean	-10.0601
ani	-10.0605
dhi	-10.0608
▁Ki	-10.0611
▁symptoms	-10.0621
▁plays	-10.0625
▁practise	-10.0627
hana	-10.0629
ip	-10.0638
▁Tu	-10.0643
▁rather	-10.0644
▁distressed	-10.0644
▁worshipful	-10.0646
que	-10.0646
ide	-10.0647
▁cries	-10.0652
▁lotuses	-10.0659
▁dog	-10.0663
vana	-10.0677
▁Pitris	-10.0685
▁Per	-10.0687
▁Har	-10.069
▁leaders	-10.0694
▁Ru	-10.0695
▁completed	-10.071
▁network	-10.0717
▁Act	-10.0724
▁beasts	-10.0725
▁college	-10.0726
▁Maharashtra	-10.0727
▁Canada	-10.0727
▁File	-10.0735
▁seized	-10.0735
▁presented	-10.0742
bar	-10.0745
▁lesson	-10.0747
▁musical	-10.0764
▁uncle	-10.0767
▁1980	-10.0769
▁Janardana	-10.0769
▁sitting	-10.077
ations	-10.0771
▁finding	-10.0775
▁–	-10.0777
▁trust	-10.0778
▁feeling	-10.0784
io	-10.0789
▁fly	-10.0793
▁chariots	-10.0793
▁Muslim	-10.0805
▁media	-10.0805
▁Hi	-10.0817
fe	-10.0817
▁slowly	-10.082
▁Pe	-10.0826
▁Manu	-10.0833
▁ill	-10.0835
▁values	-10.0846
▁Sen	-10.0851
▁remaining	-10.0852
▁grew	-10.0853
ten	-10.0856
▁production	-10.0857
▁ought	-10.0859
▁protecting	-10.0861
▁eastern	-10.0861
▁carrying	-10.087
▁Asian	-10.0877
way	-10.088
▁plan	-10.0888
▁District	-10.0896
▁Project	-10.0896
▁advice	-10.0896
▁industry	-10.0896
▁policy	-10.0896
▁situation	-10.0896
▁Vasava	-10.0896
▁rice	-10.0896
▁Through	-10.0896
▁mis	-10.0909
▁Ku	-10.0918
▁la	-10.0918
▁standards	-10.0924
ron	-10.0927
▁Vrishni	-10.0932
su	-10.0934
▁Raj	-10.0934
▁blind	-10.0936
▁closed	-10.0936
▁striking	-10.0938
▁Fa	-10.0945
ments	-10.0951
0,000	-10.097
▁offering	-10.0972
▁Gandhari	-10.0981
▁1990	-10.0982
▁status	-10.0982
▁stream	-10.0982
lic	-10.0987
▁Kan	-10.0987
fa	-10.0989
▁ho	-10.1
Yudhishthira	-10.1004
▁sit	-10.1006
headed	-10.1018
▁Illinois	-10.1024
▁Kashmir	-10.1024
▁Shikhandin	-10.1026
▁handsome	-10.1027
▁Without	-10.1028
ali	-10.1035
▁active	-10.1039
▁scored	-10.1041
▁deed	-10.1044
▁observed	-10.1047
pp	-10.1047
▁difference	-10.1064
▁camp	-10.1065
▁principal	-10.1068
▁thick	-10.1068
▁surface	-10.1068
▁Sugriva	-10.1069
▁pray	-10.1069
▁schools	-10.107
from	-10.108
▁presents	-10.1086
las	-10.1092
▁elder	-10.1092
▁dwell	-10.1103
▁El	-10.1108
▁Vrikodara	-10.1111
▁budget	-10.1111
▁driver	-10.1112
▁evening	-10.1114
▁bent	-10.112
ite	-10.1121
▁gate	-10.1121
▁disregard	-10.1122
▁consists	-10.1127
▁ears	-10.1127
▁boons	-10.114
50	-10.1145
▁virus	-10.1148
▁model	-10.115
▁Thereafter	-10.1157
▁winter	-10.1157
av	-10.1163
▁practised	-10.1172
▁severed	-10.1182
▁users	-10.1184
▁reasons	-10.1187
ile	-10.1188
ory	-10.1195
▁Mantras	-10.1198
▁Lankā	-10.1199
▁punishment	-10.12
nch	-10.1218
▁Java	-10.1221
▁Hence	-10.1222
▁Dr	-10.1227
▁note	-10.1227
pt	-10.1238
▁Sita	-10.124
▁yield	-10.1242
▁benefit	-10.1242
▁calamity	-10.1243
▁economic	-10.1243
▁vicious	-10.1243
bb	-10.1244
▁General	-10.1244
kha	-10.1249
▁crushed	-10.1256
▁2008	-10.1269
▁Sometimes	-10.127
▁falls	-10.1272
tor	-10.1278
▁jewels	-10.1285
▁Central	-10.1287
▁School	-10.1287
▁System	-10.1287
▁immobile	-10.1287
▁competition	-10.1287
▁multiple	-10.1287
▁Kingdom	-10.1288
▁activity	-10.1288
▁governor	-10.1291
▁stage	-10.1294
▁utter	-10.1295
▁characters	-10.13
▁CE	-10.1302
▁steps	-10.1312
hy	-10.1313
▁crowned	-10.1315
▁tournament	-10.1332
▁Over	-10.1334
▁locality	-10.1335
▁Later	-10.1339
10	-10.1348
▁v	-10.1362
▁po	-10.1362
hara	-10.1365
▁card	-10.1367
▁territory	-10.1376
▁Lanka	-10.1376
ign	-10.1376
▁application	-10.1378
▁step	-10.1389
▁reduce	-10.14
▁proceeding	-10.1406
▁provided	-10.1411
▁fault	-10.1415
▁cost	-10.1416
▁26	-10.1421
▁domestic	-10.1421
▁Municipality	-10.1421
▁1970	-10.1421
▁Agastya	-10.1422
▁satisfied	-10.1422
▁serpents	-10.1423
od	-10.1435
▁affected	-10.1449
▁Heaven	-10.1466
▁property	-10.1469
▁ordained	-10.1474
▁lie	-10.1479
▁direct	-10.1497
▁currently	-10.1498
▁Janamejaya	-10.1511
▁smell	-10.1511
▁consciousness	-10.1512
▁treated	-10.1514
▁Every	-10.1515
▁seats	-10.1516
);	-10.1518
▁lose	-10.1528
▁records	-10.1534
▁mention	-10.1547
▁ship	-10.1554
▁Rajasthan	-10.1557
▁hosts	-10.1562
▁grandson	-10.1563
▁wretch	-10.1563
▁approaching	-10.1566
▁accomplish	-10.1568
▁delay	-10.1571
▁Test	-10.1571
▁perfect	-10.1579
▁Olympics	-10.158
ef	-10.1589
ada	-10.1595
▁2006	-10.1598
▁Brihaspati	-10.1602
▁ceremony	-10.1602
▁variety	-10.1602
▁visible	-10.1602
ley	-10.1603
▁rescue	-10.1607
vin	-10.1626
▁showed	-10.1632
▁Can	-10.1641
▁aim	-10.1655
▁First	-10.1656
▁Yuga	-10.1656
▁flying	-10.1657
▁attend	-10.1659
▁drawing	-10.1662
ini	-10.1676
▁instruments	-10.1676
▁significant	-10.1678
▁Naga	-10.1681
time	-10.1688
""	-10.1689
▁ignorance	-10.1694
▁pleasant	-10.1694
▁stock	-10.1694
▁queen	-10.1694
▁Z	-10.1694
▁Welcome	-10.1697
▁debt	-10.1702
vas	-10.1705
▁soft	-10.1707
end	-10.1708
▁setting	-10.1711
ved	-10.1715
▁regular	-10.1725
▁immeasurable	-10.1741
▁Madhya	-10.1741
port	-10.1743
▁continue	-10.1748
▁fields	-10.1748
▁succeeded	-10.175
mb	-10.1753
▁Gra	-10.1755
ila	-10.1756
▁divisions	-10.1758
▁attempt	-10.1764
▁Make	-10.1765
res	-10.1767
▁connected	-10.1768
▁colours	-10.1774
ks	-10.1775
▁education	-10.1779
▁renounce	-10.1798
▁directory	-10.1802
ised	-10.1806
▁priests	-10.1808
▁news	-10.1811
▁Ge	-10.1812
▁purchase	-10.1818
▁leg	-10.1819
▁format	-10.1825
▁More	-10.1827
▁foolish	-10.1832
▁mental	-10.1832
▁combat	-10.1834
▁Buddhist	-10.1834
▁Ubuntu	-10.1834
▁asylum	-10.1834
▁Self	-10.1835
▁Gautama	-10.1836
▁department	-10.1836
▁script	-10.1838
ze	-10.1841
par	-10.1852
che	-10.1872
ons	-10.1878
▁anxious	-10.1881
▁switch	-10.1881
▁browser	-10.1881
▁keen	-10.1882
▁cha	-10.1884
▁uttering	-10.1884
▁r	-10.1885
ville	-10.1885
ular	-10.1892
▁diseases	-10.19
▁flower	-10.1904
▁join	-10.192
▁puissant	-10.1928
▁placing	-10.1928
▁Subala	-10.1929
▁grand	-10.193
▁Shudra	-10.194
▁recite	-10.1943
▁hue	-10.1949
▁50	-10.195
▁particularly	-10.1956
▁opening	-10.1963
▁evidence	-10.1975
▁storm	-10.1977
▁hunger	-10.1977
▁suffered	-10.1977
▁sharpened	-10.1977
▁Prime	-10.1979
▁Union	-10.1981
▁villages	-10.1982
▁Ri	-10.1982
▁product	-10.1983
▁entirely	-10.1984
▁growth	-10.1985
▁request	-10.199
▁wielder	-10.1995
▁cows	-10.1997
ken	-10.201
set	-10.201
▁keeping	-10.2011
▁worth	-10.2017
▁passing	-10.2019
▁27	-10.2021
▁yellow	-10.2023
▁questions	-10.2026
▁pa	-10.203
▁grown	-10.2038
▁Che	-10.2039
▁sing	-10.204
hood	-10.2042
▁sp	-10.2043
▁teacher	-10.2043
▁sell	-10.2058
ible	-10.2064
▁notes	-10.207
▁category	-10.2071
kin	-10.2082
▁someone	-10.2084
ger	-10.2085
dic	-10.2094
▁arts	-10.2096
▁caves	-10.2102
ik	-10.2115
▁Association	-10.2119
▁acted	-10.2124
▁lack	-10.2125
ants	-10.2125
▁Fire	-10.2128
▁roaring	-10.213
cing	-10.2135
▁summit	-10.2137
▁skilled	-10.2146
▁terms	-10.2154
▁Chand	-10.2159
▁research	-10.2164
ă	-10.2167
▁happily	-10.2167
▁proud	-10.2168
▁Madri	-10.2169
▁mild	-10.217
▁urged	-10.2172
▁collect	-10.2174
ple	-10.2175
gra	-10.2179
work	-10.2181
pati	-10.2181
sana	-10.2182
sta	-10.2184
▁pull	-10.219
▁report	-10.2203
cle	-10.2208
▁seasons	-10.2209
▁machine	-10.2216
▁Company	-10.2216
▁assuming	-10.2216
▁medical	-10.2216
▁sovereignty	-10.2216
nce	-10.2219
▁covering	-10.2223
▁belong	-10.2224
▁inner	-10.2226
▁likely	-10.2226
▁matches	-10.2231
▁Lake	-10.2233
▁broke	-10.2235
war	-10.2235
▁seems	-10.2236
▁counsellors	-10.2238
▁throw	-10.2257
▁beneficial	-10.2264
▁easy	-10.2264
▁creator	-10.2265
▁everywhere	-10.2266
▁connection	-10.2272
▁methods	-10.2273
▁guests	-10.2275
▁ta	-10.2277
▁bestow	-10.2278
▁install	-10.2279
▁issued	-10.2279
cent	-10.2292
After	-10.2294
ep	-10.2304
iya	-10.2311
car	-10.2311
▁families	-10.2313
▁womb	-10.2313
▁honey	-10.2314
▁Peter	-10.2315
▁conditions	-10.2318
▁measure	-10.2318
▁brings	-10.2319
▁Oh	-10.232
▁cells	-10.232
▁Ye	-10.2321
▁published	-10.2322
▁shop	-10.2328
▁location	-10.2333
▁Championship	-10.2333
au	-10.2335
ging	-10.2349
▁Bas	-10.2359
▁Grandfather	-10.2363
ified	-10.2374
?"	-10.2379
tta	-10.2383
▁flag	-10.2384
▁exile	-10.2397
▁equally	-10.2399
▁Among	-10.2404
▁attains	-10.2404
On	-10.2411
▁Jayadratha	-10.2412
▁discourse	-10.2412
▁ourselves	-10.2413
▁thunderbolt	-10.2413
▁slash	-10.2413
▁Ray	-10.2422
▁bus	-10.2424
▁Inter	-10.2425
▁saints	-10.2428
▁effects	-10.2431
▁commander	-10.2433
▁job	-10.2434
▁tongue	-10.2434
Y	-10.2436
▁suffering	-10.2439
▁Daityas	-10.2439
▁libations	-10.244
▁intention	-10.2441
▁uses	-10.2442
▁hence	-10.2446
▁Bra	-10.2447
▁coast	-10.2455
▁simply	-10.2462
▁regain	-10.2464
bounding	-10.2466
▁ca	-10.2474
my	-10.2478
▁powers	-10.2478
▁problem	-10.2486
ps	-10.2491
▁upper	-10.2492
▁secret	-10.2495
▁adore	-10.2497
▁sa	-10.2498
▁lightning	-10.2512
▁aside	-10.2513
▁replaced	-10.2519
▁bears	-10.2529
▁Pu	-10.2531
▁Next	-10.2536
▁collected	-10.2545
▁containing	-10.255
▁compass	-10.256
▁abstain	-10.2562
▁writing	-10.2562
▁fortune	-10.2562
▁sexual	-10.2563
▁vision	-10.2568
▁Behold	-10.2572
▁3.	-10.2575
▁ends	-10.2577
ach	-10.2579
▁Olympic	-10.2587
▁figure	-10.2588
▁app	-10.2594
▁Only	-10.2602
▁1998	-10.2613
▁Dhristadyumna	-10.2613
▁loop	-10.2614
▁goals	-10.262
▁manager	-10.2621
▁selection	-10.2632
rat	-10.2633
▁bo	-10.2634
▁Koha	-10.2635
▁mid	-10.2635
row	-10.2638
▁Maratha	-10.2639
▁Jews	-10.2653
▁exceeding	-10.2657
▁Nagas	-10.2657
▁vi	-10.2659
▁Ctrl	-10.2663
▁clarified	-10.2663
▁1999	-10.2664
▁relationship	-10.2664
▁House	-10.2665
▁serving	-10.2665
ier	-10.2666
▁slaughtered	-10.2669
▁affect	-10.2678
▁bathed	-10.2687
ight	-10.2697
▁signs	-10.2708
Be	-10.2709
▁terrific	-10.2714
▁Ad	-10.2715
▁constructor	-10.2716
▁Because	-10.2717
▁Garuda	-10.2717
▁phone	-10.272
▁carefully	-10.2723
▁growing	-10.273
▁rendered	-10.2732
▁recorded	-10.2733
▁praised	-10.2735
▁systems	-10.2736
▁occur	-10.2741
▁movies	-10.2742
▁pair	-10.2745
▁clubs	-10.2755
▁needs	-10.2755
▁Th	-10.2757
▁profit	-10.2764
▁fool	-10.2765
▁acquisition	-10.2766
▁brethren	-10.2766
▁prime	-10.2766
▁creating	-10.2766
▁marked	-10.2772
vat	-10.2773
▁sources	-10.2777
▁mu	-10.279
▁minutes	-10.2791
▁wrathful	-10.2801
▁Ashoka	-10.2802
▁Please	-10.2805
kara	-10.2814
▁port	-10.2816
▁floor	-10.2817
▁Council	-10.2817
▁Moodle	-10.2817
▁commercial	-10.2817
▁resplendent	-10.2817
▁Siddhas	-10.2821
▁obtaining	-10.283
ren	-10.283
lli	-10.2835
▁height	-10.2852
▁Apsaras	-10.2852
▁mad	-10.2858
▁Uttar	-10.2867
tro	-10.2869
▁Truth	-10.287
▁airport	-10.287
▁starting	-10.2872
▁larger	-10.2872
that	-10.2874
mba	-10.2875
▁sandal	-10.2876
▁folder	-10.2883
▁maces	-10.2889
▁board	-10.2891
fer	-10.2892
▁crown	-10.2898
▁trying	-10.2906
▁casting	-10.2908
▁German	-10.2911
▁imp	-10.2916
▁College	-10.2921
▁patience	-10.2921
▁Court	-10.2921
▁pale	-10.2928
▁31	-10.2931
▁staying	-10.2931
▁ended	-10.2937
▁Sea	-10.2937
cur	-10.294
▁instructions	-10.2945
▁islands	-10.2946
▁engage	-10.2955
▁material	-10.2955
oo	-10.2958
ction	-10.2961
ek	-10.2964
▁retreat	-10.2966
▁letter	-10.2968
▁ra	-10.2972
▁balance	-10.2974
▁urban	-10.2974
▁Kaikeyi	-10.2974
▁valley	-10.2974
▁probabl	-10.2974
▁multi	-10.2975
▁touching	-10.2975
▁granted	-10.2978
ual	-10.2982
▁Its	-10.2985
org	-10.2986
▁riding	-10.2991
▁Kho	-10.2994
▁credit	-10.2996
▁Deva	-10.2998
▁mounted	-10.2999
▁movements	-10.3002
▁historical	-10.3002
▁Sir	-10.3007
▁correct	-10.301
▁28	-10.3021
ş	-10.3024
▁decision	-10.3026
▁content	-10.3026
hal	-10.3027
▁Two	-10.3027
▁gross	-10.3033
▁Anand	-10.3057
▁Yakshas	-10.3062
▁wall	-10.3063
▁normal	-10.3067
ification	-10.3067
▁Tra	-10.3069
▁extra	-10.3071
▁positive	-10.3079
▁practising	-10.3079
▁Pri	-10.3101
á	-10.3104
raj	-10.3106
▁saint	-10.3115
▁raise	-10.3117
▁lions	-10.3124
▁corner	-10.3126
▁boat	-10.3128
▁welkin	-10.3132
▁bridge	-10.3133
ology	-10.3134
vara	-10.3134
▁Book	-10.3137
▁decide	-10.3137
▁Greek	-10.3138
▁commonly	-10.3139
▁depends	-10.3142
▁tradition	-10.3143
▁Para	-10.3149
▁classes	-10.3157
yo	-10.3158
▁Shi	-10.316
▁enjoyment	-10.3174
▁tribes	-10.3174
▁training	-10.3178
int	-10.318
▁gentle	-10.3186
▁instance	-10.3186
▁Ganges	-10.3187
▁deserve	-10.3207
▁delivered	-10.3216
What	-10.322
▁waiting	-10.3221
▁Red	-10.3223
▁infection	-10.3224
his	-10.3229
▁renounc	-10.323
▁Nor	-10.3236
▁hospital	-10.3237
ect	-10.3239
▁forsooth	-10.324
▁fraught	-10.324
▁copy	-10.3242
▁Awards	-10.3242
ative	-10.3248
▁assumed	-10.325
▁needed	-10.3253
▁prompt	-10.3261
▁conquer	-10.3261
▁muscles	-10.3263
▁purposes	-10.3264
eg	-10.3267
▁Air	-10.3272
▁Roman	-10.3274
has	-10.3289
▁Ignorance	-10.3294
▁activities	-10.3294
▁campaign	-10.3294
▁railway	-10.3294
▁independence	-10.3295
▁reap	-10.3297
ira	-10.3306
▁quarter	-10.3309
▁2022	-10.3311
▁rushing	-10.3328
▁issue	-10.3333
▁gas	-10.3337
▁stick	-10.3338
ire	-10.3342
▁females	-10.3343
▁sand	-10.3348
▁Sanskrit	-10.3348
▁Internet	-10.3348
▁Library	-10.3348
▁luck	-10.3349
▁Water	-10.335
▁surrounding	-10.3353
ium	-10.3355
▁districts	-10.3362
▁contract	-10.337
ata	-10.338
sacrifice	-10.3383
▁advance	-10.3383
▁towns	-10.3391
▁Google	-10.3403
▁piercing	-10.3403
▁smoke	-10.3403
▁Assembly	-10.3403
▁begotten	-10.3403
▁Kashyapa	-10.3403
▁independent	-10.3407
▁shore	-10.3408
ee	-10.3409
▁constructed	-10.3411
▁promised	-10.3428
gen	-10.3429
garh	-10.3435
nda	-10.3436
▁commit	-10.344
▁judge	-10.3441
▁influenced	-10.3442
▁glad	-10.3443
being	-10.3445
▁garden	-10.3445
▁guest	-10.3446
▁execute	-10.3449
▁stones	-10.3451
▁l	-10.3452
▁dissolution	-10.3458
▁sex	-10.3461
▁saluted	-10.3463
▁brand	-10.3463
▁Sabha	-10.3466
▁relate	-10.3466
▁conferred	-10.3468
▁collection	-10.3468
rc	-10.3469
▁regards	-10.3473
▁castes	-10.3473
▁touched	-10.3478
▁ranks	-10.3493
▁counsel	-10.3502
▁medal	-10.3503
pat	-10.3503
▁Raksasa	-10.3503
ists	-10.351
▁burn	-10.351
▁shone	-10.3514
▁carwarriors	-10.3514
old	-10.3519
lan	-10.3526
▁handle	-10.3537
▁Kha	-10.3544
bolt	-10.3551
▁quotes	-10.3556
tas	-10.3562
berg	-10.3562
▁im	-10.3567
▁folk	-10.3568
▁absence	-10.3568
▁Nature	-10.3569
▁&	-10.3572
▁Good	-10.3572
▁staff	-10.3575
▁county	-10.3578
ksha	-10.3581
▁29	-10.3584
▁determined	-10.3586
▁train	-10.359
▁Bu	-10.3594
▁cricket	-10.3595
▁crops	-10.3604
▁password	-10.3624
▁memory	-10.3624
▁split	-10.3624
▁inflamed	-10.3624
▁owing	-10.3626
▁forgiveness	-10.3626
▁Govinda	-10.3628
▁Kala	-10.3631
▁connect	-10.3639
▁$	-10.364
pra	-10.3642
ai	-10.3644
▁variables	-10.365
▁Mon	-10.3653
▁Open	-10.3656
ib	-10.3667
▁recited	-10.3672
▁conch	-10.3677
▁Forsooth	-10.368
▁ceremonies	-10.368
▁taught	-10.3681
▁mouse	-10.3681
▁Sub	-10.3683
▁Keep	-10.3684
▁retired	-10.3685
▁cell	-10.3693
▁discovered	-10.3694
▁En	-10.3698
▁directly	-10.37
ious	-10.3704
▁debut	-10.3706
▁flows	-10.3713
let	-10.3715
sp	-10.3715
▁beat	-10.3719
▁brackets	-10.3725
▁deeply	-10.3728
▁choice	-10.3737
▁cycle	-10.3737
▁aloud	-10.3737
▁1960	-10.3738
▁feat	-10.374
az	-10.3741
lin	-10.3742
▁wine	-10.3746
▁loan	-10.3754
necked	-10.3758
ches	-10.3766
ev	-10.3777
▁commands	-10.3784
▁Tan	-10.3787
▁depressed	-10.3794
▁shelter	-10.3794
▁shining	-10.3794
▁Northern	-10.3794
▁unique	-10.3795
▁enjoyed	-10.3795
▁fever	-10.3796
▁Student	-10.3796
▁intent	-10.3798
▁majority	-10.3802
▁Knowing	-10.3802
▁fulfilled	-10.3806
▁deliver	-10.3808
▁useful	-10.3809
▁fat	-10.383
▁branch	-10.3844
▁increasing	-10.3845
▁author	-10.3849
▁centuries	-10.3851
▁council	-10.3851
▁empty	-10.3851
▁causing	-10.3851
▁studies	-10.3851
▁spirits	-10.3855
▁Y	-10.3855
▁Dis	-10.3859
▁kindness	-10.3859
low	-10.3861
▁delightful	-10.3866
▁Sindhus	-10.3868
unt	-10.3872
q	-10.3873
▁dam	-10.3877
▁thighs	-10.388
▁tutorials	-10.3881
त	-10.3883
▁cheerful	-10.3891
▁meets	-10.3892
box	-10.3894
▁Chi	-10.3899
▁seem	-10.3904
rn	-10.3906
ong	-10.3906
▁Texas	-10.3908
▁progress	-10.3908
▁Airport	-10.3909
▁About	-10.3909
▁purity	-10.3909
▁meditation	-10.391
put	-10.391
▁souls	-10.3912
▁shoot	-10.3919
▁represent	-10.3925
▁informed	-10.3934
▁originates	-10.3937
▁expected	-10.3938
▁legal	-10.3943
▁feature	-10.395
ization	-10.3951
mat	-10.3953
▁degree	-10.3962
▁sovereign	-10.3965
▁reward	-10.3966
▁Governor	-10.3966
▁exchange	-10.3966
▁nose	-10.3967
tr	-10.3967
▁Grand	-10.3967
▁singing	-10.397
▁paper	-10.3972
ice	-10.3981
▁referr	-10.3988
nam	-10.3994
ast	-10.3998
▁represented	-10.3998
▁graced	-10.4001
uk	-10.4002
▁damage	-10.4009
▁thirst	-10.4014
lia	-10.4019
▁civil	-10.4019
▁complex	-10.4019
▁serpent	-10.4022
▁shame	-10.4024
▁holiday	-10.4024
▁winning	-10.4024
▁interface	-10.4024
▁Akbar	-10.4024
▁1996	-10.4025
▁Women	-10.4025
▁Ghatotkacha	-10.4025
▁installation	-10.4027
▁feats	-10.4031
▁yoked	-10.4031
rama	-10.4045
ms	-10.4051
ama	-10.4062
X	-10.4063
▁pot	-10.4063
kan	-10.4066
▁guide	-10.4067
▁Sultan	-10.4081
▁trunk	-10.4081
ö	-10.4083
▁stories	-10.4083
▁twang	-10.4083
▁foreign	-10.4083
▁servant	-10.4088
over	-10.4089
▁dedicated	-10.409
▁Madhava	-10.409
▁issues	-10.4098
▁ire	-10.4109
▁confer	-10.4111
fold	-10.4116
▁bore	-10.4123
▁finally	-10.4125
esh	-10.4135
▁door	-10.4136
je	-10.4137
▁functions	-10.414
▁rod	-10.4141
▁allows	-10.4141
▁Federation	-10.4142
▁administration	-10.4142
▁Odisha	-10.4142
▁Japanese	-10.4142
▁email	-10.4142
▁caught	-10.4142
▁coach	-10.4143
▁overcome	-10.4145
▁Shar	-10.4145
▁Sur	-10.4146
▁scattered	-10.4148
▁tail	-10.4153
▁Mal	-10.4154
▁involved	-10.4154
vel	-10.4159
▁seeds	-10.4165
▁circumstances	-10.4168
▁sees	-10.4171
▁server	-10.4172
▁notice	-10.4175
▁exercise	-10.4185
▁Give	-10.4195
wan	-10.4197
▁residence	-10.4201
name	-10.4203
▁fifth	-10.4204
▁bi	-10.4206
nk	-10.4207
▁visited	-10.4207
▁pressure	-10.4212
igh	-10.4216
▁officers	-10.4218
und	-10.4218
▁disappeared	-10.4219
▁consume	-10.4221
▁Shri	-10.4241
▁achieve	-10.4243
▁expenses	-10.4244
▁rare	-10.4254
▁showing	-10.4255
▁Ran	-10.4256
form	-10.4258
▁literature	-10.426
▁drug	-10.4262
▁observance	-10.4263
▁Island	-10.4264
deva	-10.427
▁leads	-10.4281
▁tend	-10.4282
▁Bank	-10.4287
use	-10.43
By	-10.4304
▁2013.	-10.4313
▁disc	-10.4316
▁dancing	-10.432
▁satisfy	-10.432
▁reserve	-10.432
▁cried	-10.432
▁acquainted	-10.4326
▁lances	-10.4327
▁Veda	-10.433
most	-10.4334
▁passion	-10.4334
▁Meru	-10.4335
▁Saying	-10.434
▁adopted	-10.4342
ash	-10.4346
bhu	-10.435
▁improve	-10.435
▁bowed	-10.4351
▁territories	-10.438
▁Firefox	-10.4382
▁task	-10.4384
▁wheel	-10.4387
▁Just	-10.4389
▁blow	-10.4389
▁cutting	-10.4389
▁actually	-10.4391
▁customer	-10.4395
▁thereof	-10.44
▁weeks	-10.4401
ung	-10.4407
▁coins	-10.4412
▁str	-10.4416
▁2014.	-10.4423
das	-10.4432
▁sick	-10.444
▁Meanwhile	-10.4441
▁extensive	-10.4441
▁architecture	-10.4441
▁competent	-10.4441
▁Summer	-10.4442
▁bones	-10.4443
▁salt	-10.4443
▁dream	-10.4446
▁thrown	-10.4452
▁Under	-10.4453
▁inspired	-10.446
▁Others	-10.4461
▁additional	-10.4477
▁custom	-10.4478
▁provides	-10.4479
▁Hall	-10.4481
▁Come	-10.4489
▁signed	-10.4495
tter	-10.4497
▁firmament	-10.4502
▁actress	-10.4502
▁mission	-10.4502
▁charity	-10.4503
▁chess	-10.4503
▁hither	-10.4503
▁properties	-10.4503
ound	-10.4504
mark	-10.4506
▁annual	-10.4507
▁approved	-10.4507
▁enjoys	-10.4508
ina	-10.451
▁ability	-10.451
▁caste	-10.4512
▁TV	-10.4513
▁sung	-10.4518
▁singer	-10.4524
▁rocks	-10.4528
▁Are	-10.4535
asa	-10.4535
tru	-10.4539
ble	-10.4541
▁Don	-10.4542
▁route	-10.4548
lf	-10.4559
▁martial	-10.4563
▁construction	-10.4564
▁count	-10.4567
▁elders	-10.4568
▁super	-10.4568
▁+	-10.4571
▁investment	-10.4571
▁flight	-10.4572
▁walking	-10.4579
ray	-10.4581
▁tells	-10.4587
▁resist	-10.4592
▁march	-10.4593
▁widely	-10.4593
▁limited	-10.4594
▁stands	-10.4597
control	-10.4602
▁oblations	-10.4605
▁discharge	-10.4609
▁silent	-10.4609
tar	-10.4612
▁Create	-10.4619
▁Child	-10.4625
▁Bangladesh	-10.4625
▁Nahusha	-10.4625
▁Vaidehi	-10.4625
▁Vritra	-10.4625
▁primary	-10.4625
▁obey	-10.4625
▁inhabitants	-10.4625
▁frame	-10.4625
र	-10.4625
▁native	-10.4626
▁favourite	-10.4627
▁Cl	-10.4628
▁resolved	-10.4633
▁eaten	-10.4637
▁Sever	-10.4637
▁listed	-10.4639
▁Australian	-10.4644
▁fund	-10.4648
uch	-10.465
read	-10.4652
▁download	-10.4658
▁owner	-10.4659
ker	-10.4659
▁sixth	-10.4659
80	-10.4665
rate	-10.467
▁Holi	-10.467
▁Pat	-10.4671
▁Vasus	-10.4673
yas	-10.4675
bh	-10.4685
▁drugs	-10.4685
▁advantage	-10.4687
▁rigid	-10.4687
▁precious	-10.4687
▁1995	-10.4688
▁infantry	-10.4688
▁victorious	-10.4689
▁Manipur	-10.4689
▁sentence	-10.4692
▁editor	-10.4694
▁tigers	-10.4696
▁device	-10.4697
▁Fi	-10.4709
vati	-10.4709
▁respected	-10.4713
▁bathing	-10.4718
▁belongs	-10.4727
▁extend	-10.4728
pala	-10.4732
▁safe	-10.4733
()	-10.4733
▁compile	-10.4736
▁receiv	-10.4737
▁unit	-10.4738
▁arise	-10.4745
▁Wi	-10.4747
▁commune	-10.475
▁Ladakh	-10.475
▁marry	-10.475
▁juice	-10.475
▁woe	-10.475
▁worldwide	-10.4751
▁Army	-10.4755
▁streams	-10.4757
▁partner	-10.4757
dra	-10.4758
▁league	-10.4761
▁disciple	-10.4761
▁Bhu	-10.4768
▁perfectly	-10.4771
▁injured	-10.4777
ec	-10.4782
▁separated	-10.4784
""."	-10.4785
▁pop	-10.4788
▁2012.	-10.4788
Who	-10.4794
▁Ab	-10.4798
ok	-10.4803
▁church	-10.4806
▁transport	-10.4811
▁worn	-10.4813
▁Markandeya	-10.4813
▁Microsoft	-10.4813
▁arrival	-10.4813
▁hockey	-10.4813
▁potential	-10.4813
▁contain	-10.4813
▁Yayati	-10.4814
▁vice	-10.4815
▁classical	-10.4818
There	-10.4822
▁kilometres	-10.4828
▁launched	-10.4828
▁banner	-10.4833
▁doctor	-10.4834
▁humans	-10.4837
▁Char	-10.4844
▁Guru	-10.4845
▁images	-10.4856
▁begins	-10.4857
▁symbol	-10.4862
▁designed	-10.4862
▁manes	-10.4864
▁Name	-10.4868
▁Parva	-10.4873
▁minor	-10.4874
▁Jerusalem	-10.4876
▁bought	-10.4876
▁austere	-10.4882
▁pi	-10.4887
▁comment	-10.4888
▁efforts	-10.4888
▁attachment	-10.489
▁parties	-10.4891
▁walls	-10.4898
▁attaining	-10.49
▁Ph	-10.4901
▁finish	-10.4907
▁Sh	-10.4911
cl	-10.4919
ug	-10.4924
▁husbands	-10.4931
▁seeking	-10.4933
▁Spirit	-10.494
▁conversation	-10.494
▁irresistible	-10.494
▁operating	-10.494
▁Rāvaņa	-10.494
rk	-10.4942
▁sixty	-10.4944
nal	-10.4944
▁secure	-10.4951
▁behove	-10.4954
▁Kaurava	-10.4954
▁programs	-10.4959
▁Qu	-10.4964
▁charged	-10.4967
▁failed	-10.4967
▁occurs	-10.4969
▁twins	-10.4969
60	-10.4972
▁sites	-10.4974
▁flames	-10.4983
▁destroys	-10.4995
cut	-10.5003
▁sets	-10.5003
▁Academy	-10.5004
▁database	-10.5004
▁Kapoor	-10.5004
▁Creator	-10.5005
▁motion	-10.5008
▁chosen	-10.5009
▁accosted	-10.5012
▁starts	-10.5018
▁element	-10.502
lla	-10.502
▁winds	-10.5023
ped	-10.5023
▁respectively	-10.5044
▁ascending	-10.5047
soldiers	-10.5048
▁checked	-10.5049
▁shouts	-10.505
her	-10.5055
▁recit	-10.5062
rings	-10.5066
▁champion	-10.5067
▁Chennai	-10.5068
▁Oklahoma	-10.5068
▁Prishata	-10.5068
▁invisible	-10.5068
▁delete	-10.5069
sen	-10.5071
des	-10.5074
▁rang	-10.5075
▁Tirtha	-10.5079
ue	-10.5081
▁captured	-10.5086
ria	-10.5087
▁harm	-10.5089
▁awarded	-10.5096
▁peak	-10.5097
▁comfort	-10.5098
len	-10.5109
▁ice	-10.5113
▁Sara	-10.5127
og	-10.5129
▁burden	-10.5133
▁1992	-10.5133
▁Group	-10.5134
▁unknown	-10.5136
▁fresh	-10.5136
nes	-10.5137
▁subduer	-10.5143
▁generation	-10.5151
▁Surya	-10.5154
▁daughters	-10.5156
burg	-10.5157
▁weeping	-10.5159
▁paying	-10.5164
ick	-10.5166
▁na	-10.517
”.	-10.5197
▁crossed	-10.5197
▁prominent	-10.5198
▁society	-10.5198
▁supply	-10.5198
▁confidence	-10.5198
▁cultural	-10.52
▁ashes	-10.5203
pping	-10.5204
▁ago	-10.5205
▁Rao	-10.5216
pped	-10.5217
▁expert	-10.5219
▁Cho	-10.522
▁entertain	-10.523
nar	-10.523
▁j	-10.5234
▁expect	-10.5236
▁existing	-10.5242
▁ha	-10.5243
▁perceive	-10.5248
but	-10.5248
▁Nara	-10.525
▁Hills	-10.5255
▁manifest	-10.5256
▁Follow	-10.5264
▁Phalguna	-10.5264
▁celebration	-10.5264
▁summarize	-10.5264
▁sorry	-10.5264
▁failure	-10.5265
▁sales	-10.5266
▁chance	-10.5267
▁conchs	-10.5271
▁Je	-10.5273
▁thoughts	-10.5276
▁consumed	-10.5282
▁document	-10.5284
▁flame	-10.5286
▁Gandharva	-10.5287
▁previously	-10.529
ं	-10.5293
▁ordinances	-10.5296
▁anti	-10.5297
▁Bay	-10.5298
▁successfully	-10.5303
▁difficulty	-10.5306
▁rights	-10.5315
▁Africa	-10.5321
▁br	-10.5325
▁biggest	-10.533
▁stomach	-10.533
▁whetted	-10.533
▁belief	-10.533
▁vain	-10.5331
▁mistake	-10.5331
▁Darkness	-10.5331
▁importance	-10.5331
▁management	-10.5332
▁Fill	-10.5333
cho	-10.5337
▁Whatever	-10.5337
atta	-10.5338
▁oppressed	-10.5343
▁Bengali	-10.5345
▁elections	-10.5352
▁deal	-10.5353
▁Mor	-10.5364
▁era	-10.5373
▁pitch	-10.5374
▁provinces	-10.5376
$	-10.5378
▁reside	-10.5378
yana	-10.539
▁roles	-10.5396
▁shapes	-10.5397
▁Telugu	-10.5397
▁understood	-10.5397
▁violence	-10.5397
▁antagonist	-10.5397
▁resort	-10.5397
▁label	-10.5397
▁Gift	-10.5398
▁cash	-10.5407
▁writer	-10.5409
ock	-10.5418
1.	-10.5421
▁Kritavarman	-10.5428
▁60	-10.5447
▁environment	-10.5448
▁swift	-10.5448
right	-10.5456
▁immense	-10.5464
▁insurance	-10.5464
▁monsoon	-10.5464
▁humility	-10.5464
▁Church	-10.5465
▁stake	-10.5465
▁association	-10.5465
▁authority	-10.5466
now	-10.5469
▁dwelling	-10.547
▁appearing	-10.548
handed	-10.5488
▁raga	-10.5491
ld	-10.5495
▁Change	-10.5498
▁marched	-10.5499
▁rank	-10.55
▁cry	-10.5504
cor	-10.5505
vya	-10.5509
▁slow	-10.5519
2.	-10.5523
▁Destiny	-10.5532
▁behaviour	-10.5532
▁mount	-10.5532
▁Mahendra	-10.5532
▁keyboard	-10.5532
▁Vāli	-10.5533
▁Yudhisthira	-10.5537
▁Going	-10.5551
▁minds	-10.5556
▁possession	-10.5565
▁demand	-10.5567
▁ancestors	-10.5569
▁Rākṣasas	-10.5572
ets	-10.5573
▁drums	-10.5581
▁Paris	-10.5581
▁tremble	-10.5584
▁furious	-10.5584
▁Cor	-10.5586
▁walked	-10.559
▁2003	-10.5593
▁Sikkim	-10.56
▁Suyodhana	-10.56
▁worst	-10.56
▁chaste	-10.56
▁occurred	-10.5601
▁Taking	-10.5601
▁Green	-10.5602
▁Sarasvati	-10.5603
▁sufficient	-10.5603
▁Kal	-10.5608
wal	-10.561
▁load	-10.5613
avi	-10.5625
▁executed	-10.5626
▁apartment	-10.5629
▁tall	-10.5629
▁complexion	-10.5634
▁cursed	-10.5635
bin	-10.5639
▁Pur	-10.5643
known	-10.5645
▁Bri	-10.5646
▁input	-10.5646
▁Col	-10.5651
bal	-10.5656
▁Republic	-10.5663
▁organs	-10.5663
▁limit	-10.5664
▁driving	-10.5668
▁inferior	-10.5668
▁contest	-10.5669
▁David	-10.5669
▁Eastern	-10.5669
▁guilty	-10.5669
▁background	-10.567
▁rent	-10.5671
▁agreement	-10.5672
▁Kubera	-10.5673
▁roads	-10.5673
▁embraced	-10.5674
▁examples	-10.5676
light	-10.5678
ery	-10.5679
ral	-10.568
▁confirmed	-10.5681
▁subdued	-10.5682
▁inhabited	-10.5686
▁tr	-10.5694
▁modes	-10.5697
▁honours	-10.5703
▁Bala	-10.5706
▁Holy	-10.5708
ens	-10.5709
▁lap	-10.5718
▁skill	-10.5721
fully	-10.5721
▁girls	-10.5726
▁pe	-10.5729
▁aid	-10.5729
▁Dh	-10.5729
▁borne	-10.5731
▁Note	-10.5732
▁80	-10.5734
▁whence	-10.5735
ि	-10.5737
▁semicolon	-10.5737
▁1947	-10.5738
▁honor	-10.5738
▁Uttara	-10.574
ix	-10.575
▁everyone	-10.575
▁reading	-10.5755
▁cheerfully	-10.5756
▁Kali	-10.5758
▁earn	-10.5759
jo	-10.5769
▁Uma	-10.577
soever	-10.5777
▁Jan	-10.5778
▁shoulders	-10.5781
▁asking	-10.5783
40	-10.5792
state	-10.5795
▁blank	-10.5806
▁Kākutstha	-10.5807
▁cardinal	-10.5807
▁desert	-10.5807
▁safety	-10.5808
▁helpless	-10.5808
▁Master	-10.581
▁Karnataka	-10.581
▁household	-10.5812
▁awk	-10.5813
▁sang	-10.5813
bra	-10.582
▁masses	-10.5821
▁kingdoms	-10.5838
▁pattern	-10.5839
▁earned	-10.584
▁lips	-10.5841
ov	-10.5843
▁extended	-10.5843
gat	-10.5844
▁Our	-10.5846
▁Hai	-10.585
▁diet	-10.5851
ś	-10.5852
tur	-10.5854
▁erect	-10.5866
▁Himavat	-10.5877
▁equipped	-10.5877
▁Chitrasena	-10.5877
▁ease	-10.5878
▁Vasishtha	-10.5878
▁compassion	-10.588
▁fury	-10.5881
▁awake	-10.5881
▁refused	-10.5882
▁computers	-10.5882
▁settled	-10.589
▁remembering	-10.5891
▁sl	-10.5903
how	-10.5905
▁Han	-10.5905
▁sleeping	-10.5907
▁package	-10.5911
▁championship	-10.5911
▁fathers	-10.5922
▁lakes	-10.5929
▁Yu	-10.5931
pon	-10.5936
▁trouble	-10.5937
▁scene	-10.5937
▁ascend	-10.5938
▁preceptors	-10.5942
▁2019.	-10.5942
▁Bhagadatta	-10.5947
▁bacteria	-10.5947
▁responsible	-10.5947
▁shift	-10.5947
▁conclusion	-10.5947
▁dispute	-10.5948
▁losing	-10.5949
▁dwellers	-10.5952
▁derived	-10.5954
▁Min	-10.5954
▁recitation	-10.5957
▁fl	-10.5957
30	-10.5959
▁refer	-10.5962
▁experienced	-10.5976
▁passes	-10.5977
▁ro	-10.5978
▁incident	-10.5982
▁insult	-10.5986
lar	-10.5988
▁beget	-10.5989
mas	-10.5994
▁fatigue	-10.6002
▁Chandra	-10.6002
▁smiling	-10.6002
▁sending	-10.6005
▁Ban	-10.6008
▁economy	-10.6018
▁eventually	-10.6018
hra	-10.6018
▁Division	-10.6018
▁thread	-10.6018
▁injuries	-10.6019
▁devoi	-10.6019
▁driven	-10.6027
▁flat	-10.6029
▁compared	-10.6035
ably	-10.6036
▁Sat	-10.6039
One	-10.6047
rā	-10.6053
rm	-10.6054
▁ordinance	-10.6055
▁shine	-10.6057
▁grasp	-10.6058
▁locks	-10.6061
▁ring	-10.607
▁eager	-10.6074
▁Ch	-10.6079
▁levels	-10.608
▁Britain	-10.6089
▁restaurant	-10.6089
▁variegated	-10.6089
▁warfare	-10.6089
▁asleep	-10.6089
▁malice	-10.609
▁Prague	-10.609
▁James	-10.6095
▁ornament	-10.6095
▁resources	-10.6096
ade	-10.6098
wing	-10.6102
▁filling	-10.6103
▁herbs	-10.6103
▁apart	-10.6107
▁returning	-10.6111
▁buildings	-10.6111
▁require	-10.6112
▁Dar	-10.6116
▁discus	-10.6128
▁dose	-10.6135
▁beside	-10.6135
▁catch	-10.6137
▁twin	-10.6138
▁drive	-10.6142
gal	-10.6148
▁distinct	-10.6149
▁dare	-10.6151
▁gra	-10.6154
▁prove	-10.6155
▁rear	-10.6156
▁combination	-10.6161
▁library	-10.6161
▁Tripura	-10.6162
▁reverence	-10.6162
▁spake	-10.6162
▁security	-10.6163
▁simultaneously	-10.6163
▁vote	-10.6164
▁vary	-10.6167
▁da	-10.617
▁Jaya	-10.6176
▁2002	-10.6179
▁Gi	-10.6185
▁originate	-10.6196
wo	-10.6203
▁bestowed	-10.6209
▁trans	-10.621
▁interests	-10.6213
decked	-10.6214
year	-10.6217
ena	-10.6223
▁cook	-10.6229
▁Virtue	-10.6234
▁agriculture	-10.6234
▁description	-10.6234
▁negative	-10.6234
▁Chief	-10.6234
▁exhausted	-10.6239
▁mere	-10.6242
▁Vrishnis	-10.6244
▁Apple	-10.6245
▁inform	-10.6245
▁Israel	-10.6249
▁nights	-10.6249
▁Puru	-10.6255
▁Out	-10.6256
▁older	-10.627
▁hast	-10.627
din	-10.6272
ency	-10.6291
▁holder	-10.6298
▁Himalayas	-10.6299
ged	-10.6303
ü	-10.6307
▁drunk	-10.6307
▁tremendous	-10.6307
▁resolution	-10.6307
▁uproar	-10.6307
hyphen	-10.6307
▁1993	-10.6307
▁Black	-10.6307
▁BCE	-10.6308
▁manage	-10.631
▁Neither	-10.631
▁sprung	-10.6311
▁arranged	-10.6313
▁billion	-10.6314
▁meal	-10.6319
▁fail	-10.6321
▁Pre	-10.6321
▁Ve	-10.6322
anga	-10.6328
▁van	-10.6335
▁metal	-10.6339
▁temperature	-10.635
▁vultures	-10.6352
▁involve	-10.6362
water	-10.6367
▁Indo	-10.6368
▁honest	-10.637
rous	-10.637
▁Parliament	-10.638
▁Understanding	-10.638
▁earliest	-10.638
▁eleven	-10.638
▁emperor	-10.638
▁breed	-10.638
▁facing	-10.6381
▁Dutch	-10.6381
▁fuel	-10.6381
▁fix	-10.6382
:"	-10.6384
▁Notice	-10.6386
▁90	-10.6396
▁Bihar	-10.6397
band	-10.6402
▁Gar	-10.6418
▁assail	-10.6422
▁medicine	-10.6425
▁basin	-10.643
chief	-10.6435
That	-10.6436
▁cease	-10.6438
▁fourteen	-10.6447
▁drag	-10.6449
▁emitt	-10.6451
▁vehicles	-10.6454
▁Ayodhyā	-10.6454
▁Damayanti	-10.6454
▁Knowledge	-10.6454
▁opportunity	-10.6454
▁rural	-10.6454
▁begot	-10.6455
▁1997	-10.6455
▁Dan	-10.6456
▁gradually	-10.6456
▁rush	-10.6459
Go	-10.6461
these	-10.6464
▁edit	-10.6465
▁fishes	-10.647
▁le	-10.647
▁planets	-10.6475
▁abandoned	-10.6484
ute	-10.6484
▁mothers	-10.649
ping	-10.6491
▁warm	-10.65
▁finger	-10.6501
controlled	-10.6508
cation	-10.6508
Ma	-10.651
wn	-10.6512
▁govern	-10.652
▁Prince	-10.6526
▁passions	-10.6527
▁throwing	-10.6527
ū	-10.6529
▁messenger	-10.6529
▁multitude	-10.6529
▁response	-10.6529
▁Horse	-10.6529
▁1994	-10.653
ration	-10.653
▁1950	-10.653
▁considering	-10.6534
▁frequently	-10.6537
taka	-10.6537
▁dependent	-10.6537
▁solar	-10.6537
putting	-10.6538
▁waited	-10.6538
▁Russian	-10.654
▁texts	-10.654
ula	-10.654
▁taxes	-10.6544
▁managed	-10.6546
ese	-10.6552
▁canvas	-10.6557
▁holds	-10.656
▁governed	-10.6561
▁prey	-10.6564
▁ne	-10.6564
ied	-10.6568
istic	-10.6573
bit	-10.6574
▁flu	-10.658
uff	-10.6585
board	-10.6585
▁Ana	-10.6593
▁usual	-10.6599
▁householder	-10.6601
▁drama	-10.6603
▁intellect	-10.6604
í	-10.6604
▁spouse	-10.6604
▁stupefied	-10.6604
▁wrought	-10.6604
rum	-10.6607
▁freedom	-10.6609
▁Again	-10.6611
▁Srinjayas	-10.6612
raising	-10.6616
▁plans	-10.6616
▁gun	-10.6617
▁arrested	-10.6624
char	-10.663
cat	-10.6632
▁expanded	-10.6634
nder	-10.6635
▁headquarters	-10.6643
uri	-10.6648
▁teaching	-10.665
▁(1	-10.665
▁saving	-10.6656
▁200	-10.6657
▁Sar	-10.6664
▁millions	-10.6668
▁exert	-10.6677
▁Sumitrā	-10.668
▁Skanda	-10.668
▁climate	-10.668
▁labour	-10.668
▁capacity	-10.668
▁1991	-10.668
▁combatants	-10.6681
▁fleet	-10.6681
▁Regard	-10.6682
▁wheels	-10.6685
log	-10.6688
▁award	-10.6689
▁organized	-10.6691
yam	-10.6693
▁accounts	-10.6698
▁laws	-10.6699
▁descendants	-10.6703
▁fingers	-10.6708
▁Have	-10.671
▁Sal	-10.6712
mm	-10.6715
▁senseless	-10.6716
▁cherish	-10.6717
▁producer	-10.6717
▁supporting	-10.672
▁gl	-10.6724
▁convert	-10.6724
tch	-10.673
long	-10.673
▁4.	-10.6731
▁inscription	-10.6732
▁pick	-10.6733
cal	-10.6743
▁Fe	-10.6754
▁Viśvāmitra	-10.6756
▁senior	-10.6756
▁adoration	-10.6756
▁crime	-10.6756
▁equipment	-10.6757
▁Assam	-10.6757
▁Jarasandha	-10.6758
▁Dam	-10.6759
▁Fr	-10.6762
▁estimated	-10.6764
▁invited	-10.6764
▁List	-10.6766
▁assigned	-10.677
▁lightness	-10.6771
▁matters	-10.6781
▁scent	-10.6781
nath	-10.679
▁bending	-10.6797
▁su	-10.6805
tutorial	-10.6813
Bhima	-10.6813
▁positions	-10.6814
▁profuse	-10.6817
▁constant	-10.6817
ced	-10.6824
ou	-10.683
▁alcohol	-10.683
▁invest	-10.6831
▁customers	-10.6832
▁waste	-10.6833
▁Aurangzeb	-10.6833
▁Jamadagni	-10.6833
▁Somadatta	-10.6833
▁William	-10.6833
▁advancing	-10.6833
▁constellation	-10.6833
▁substance	-10.6833
▁Dharmaraja	-10.6834
▁Sakra	-10.6834
▁finds	-10.6837
▁declare	-10.6838
aving	-10.6843
maternal	-10.6848
oon	-10.6851
▁crossing	-10.6868
▁th	-10.6876
▁crying	-10.6888
▁disorder	-10.6889
▁Sindhu	-10.6892
▁blame	-10.6893
्	-10.6896
▁para	-10.6898
▁welcome	-10.69
▁Nehru	-10.6911
▁piety	-10.6911
▁tribute	-10.6911
▁behalf	-10.6911
▁hurt	-10.6911
▁bomb	-10.6912
▁percent	-10.6912
▁abuse	-10.6914
▁afterwards	-10.6916
▁Similarly	-10.692
▁hall	-10.6932
▁Mani	-10.6935
top	-10.6936
▁savings	-10.6937
dan	-10.6945
▁slave	-10.6966
▁explained	-10.6973
▁wield	-10.6975
adi	-10.698
til	-10.6984
▁thirty	-10.6989
▁Bollywood	-10.6989
▁blew	-10.6989
▁Destroyer	-10.6991
▁semi	-10.6999
▁pen	-10.7005
▁risen	-10.7009
▁Vasu	-10.7019
▁teach	-10.702
▁Brāhmaṇas	-10.7022
▁Fl	-10.7022
▁attacks	-10.7022
ņa	-10.7024
jan	-10.7024
▁moves	-10.7029
▁Vai	-10.7031
tric	-10.7038
bs	-10.7038
stra	-10.7039
▁None	-10.7039
▁agree	-10.7046
▁Anga	-10.7059
▁Los	-10.706
▁courage	-10.7067
▁chemical	-10.7068
▁tropical	-10.7068
▁cinema	-10.7068
▁Vali	-10.7068
▁officer	-10.7068
▁loose	-10.7068
▁benefits	-10.7069
▁hotel	-10.7071
▁techniques	-10.7072
▁tri	-10.7073
▁strain	-10.7073
▁knees	-10.7073
▁Ben	-10.7076
▁flowing	-10.7086
hil	-10.7091
▁fore	-10.7092
▁claim	-10.7096
▁rains	-10.7101
18	-10.7109
▁murder	-10.7114
▁Championships	-10.7115
▁Rai	-10.7123
uring	-10.7128
▁exertion	-10.7131
▁Tirthas	-10.7134
dom	-10.7143
▁Switzerland	-10.7147
▁ignorant	-10.7147
▁quarrel	-10.7147
▁Formerly	-10.7147
▁Three	-10.7147
▁afford	-10.7147
▁shattered	-10.7147
▁humble	-10.7147
▁ir	-10.7148
▁kick	-10.7149
▁via	-10.7149
▁prepare	-10.7149
▁Italy	-10.715
▁yourselves	-10.7152
▁shoulder	-10.7155
tti	-10.7163
▁smilingly	-10.7165
▁creates	-10.7166
▁employed	-10.7167
▁reflected	-10.7171
▁washed	-10.7176
oma	-10.7177
▁letters	-10.7178
▁ascertain	-10.7194
▁tu	-10.7196
▁Ver	-10.7197
fall	-10.7197
▁Wo	-10.7198
▁owned	-10.7199
nagar	-10.72
▁challenge	-10.7211
▁sudden	-10.7211
▁protects	-10.7213
ima	-10.7216
▁loudly	-10.7217
15	-10.7219
mis	-10.7222
▁Catholic	-10.7227
▁Middle	-10.7227
▁Province	-10.7227
▁diadem	-10.7227
▁pleasing	-10.7227
▁terrified	-10.7227
▁grandsire	-10.7227
▁embodied	-10.7227
▁vanquish	-10.7227
▁forehead	-10.7227
▁Rajput	-10.7228
▁Purusha	-10.7229
based	-10.7229
▁nominated	-10.723
▁shut	-10.7231
▁static	-10.7234
▁tries	-10.7237
▁Indrajit	-10.7239
rin	-10.724
▁Andhra	-10.7241
▁intended	-10.7244
▁sink	-10.7245
▁tea	-10.7245
▁feelings	-10.7247
▁sole	-10.725
▁buying	-10.7255
▁healthy	-10.7262
▁injure	-10.7263
▁depart	-10.7272
▁devour	-10.7275
▁expand	-10.7275
▁minute	-10.7276
▁2,	-10.7283
Therefore	-10.7288
▁Cla	-10.7291
▁effort	-10.7292
▁mansion	-10.7293
▁kills	-10.7294
▁Kama	-10.7295
zo	-10.73
▁concentration	-10.7308
▁fragrant	-10.7308
▁trembling	-10.7308
▁neglect	-10.7308
▁George	-10.7308
▁index	-10.7308
▁mantras	-10.7309
▁seeks	-10.731
▁repaired	-10.7312
▁scion	-10.7316
▁Sikh	-10.7319
▁cited	-10.7329
▁folded	-10.733
then	-10.7331
11	-10.7342
▁besides	-10.7347
gre	-10.7348
▁dress	-10.735
▁boys	-10.735
▁sad	-10.7364
ye	-10.7367
Draupadi	-10.7369
▁crowd	-10.7371
▁channel	-10.7374
▁sha	-10.7375
▁palm	-10.7375
▁prison	-10.7375
▁effective	-10.7377
▁corn	-10.7377
▁heavens	-10.7378
▁payment	-10.738
fect	-10.7383
▁Mr	-10.7383
▁Bh	-10.7386
▁internet	-10.7389
▁IDE	-10.739
▁miles	-10.739
▁panel	-10.739
▁roll	-10.7392
▁threw	-10.7392
▁scale	-10.7397
▁trial	-10.7398
ability	-10.7398
▁nearby	-10.74
▁baffled	-10.7401
▁lean	-10.7403
cer	-10.7404
▁agent	-10.7404
▁Mc	-10.7417
▁penetrated	-10.742
▁pointed	-10.7427
▁firmly	-10.743
▁import	-10.7437
▁Za	-10.7441
ratha	-10.7447
▁Bre	-10.7452
who	-10.7454
lash	-10.7454
▁offers	-10.7457
▁umbrella	-10.7457
▁penance	-10.7459
▁withstand	-10.7461
awa	-10.7464
▁2018.	-10.7464
▁Bombay	-10.7471
▁dignity	-10.7471
▁repent	-10.7471
▁abandon	-10.7472
▁mask	-10.7472
▁Mah	-10.7474
pose	-10.7475
rant	-10.7478
▁Muslims	-10.7487
▁approximately	-10.7487
hya	-10.7488
▁log	-10.7494
▁numberless	-10.7494
▁paste	-10.7508
can	-10.7512
▁monarchs	-10.7516
▁presid	-10.7522
pr	-10.7524
anda	-10.7524
▁2020.	-10.7531
▁serious	-10.7538
illa	-10.7541
▁garland	-10.7542
▁forgive	-10.7542
▁organization	-10.7542
▁review	-10.7543
▁recent	-10.7543
lies	-10.7545
▁maintained	-10.7545
▁wins	-10.7546
▁faults	-10.7549
▁focus	-10.755
cast	-10.755
▁Islam	-10.7552
▁Bali	-10.7552
▁Alauddin	-10.7554
▁Filmfare	-10.7554
▁Football	-10.7554
▁valuable	-10.7554
▁audience	-10.7554
▁Living	-10.7554
▁Meghalaya	-10.7554
▁emergency	-10.7554
▁concert	-10.7554
▁1984	-10.7554
▁Southern	-10.7555
▁Yadu	-10.7556
▁distributed	-10.756
▁enveloped	-10.7561
▁al	-10.7563
▁cup	-10.7564
▁Which	-10.7565
▁spending	-10.7567
▁ensure	-10.7569
tis	-10.7569
▁pursued	-10.7575
▁opposed	-10.7577
▁mud	-10.7578
▁ver	-10.7586
▁drinks	-10.7591
▁guard	-10.7597
व	-10.76
▁originally	-10.7601
▁Star	-10.7603
▁meant	-10.7605
tus	-10.7612
▁radio	-10.7623
ford	-10.7623
▁Has	-10.7631
nya	-10.7632
▁bill	-10.7634
▁Padma	-10.7637
å	-10.7637
▁Eclipse	-10.7637
▁Raghava	-10.7637
▁compound	-10.7637
▁embracing	-10.7637
▁essence	-10.7637
▁Surely	-10.7637
▁worshipping	-10.7638
kra	-10.7638
▁Brahmacharya	-10.7639
ians	-10.7641
▁x	-10.7647
▁Line	-10.7648
vis	-10.7651
▁restrain	-10.7654
▁covers	-10.766
▁apply	-10.7663
▁claimed	-10.7671
▁Devi	-10.7671
▁occasions	-10.7676
iva	-10.7682
ological	-10.769
▁patient	-10.7696
▁chiefs	-10.7699
▁shell	-10.7699
▁Goa	-10.7703
▁rec	-10.7703
mana	-10.7709
▁bark	-10.7711
▁Srinjaya	-10.7712
▁reference	-10.7715
▁vessels	-10.7719
▁Festival	-10.7721
▁Magadha	-10.7721
▁identify	-10.7721
▁platform	-10.7721
▁Queen	-10.7721
▁1987	-10.7722
▁rainfall	-10.7722
▁snow	-10.7723
▁Sauti	-10.7723
oid	-10.7725
▁illness	-10.7726
▁Music	-10.7726
▁founder	-10.7728
▁cleansed	-10.7728
500	-10.7729
▁Deity	-10.773
▁tip	-10.7731
▁bowing	-10.7732
mara	-10.7735
▁reply	-10.7735
17	-10.7736
bro	-10.7736
▁cap	-10.7737
qu	-10.7741
rang	-10.7741
▁gathered	-10.7745
▁courses	-10.7762
▁reaching	-10.7763
▁Pen	-10.7769
▁2017.	-10.777
▁measures	-10.7771
▁farm	-10.7772
eat	-10.7773
▁wants	-10.7775
mal	-10.7779
you	-10.7779
▁Will	-10.778
▁thereby	-10.7788
ida	-10.779
▁shares	-10.7796
▁Ed	-10.78
▁Pandya	-10.78
▁Sacrifice	-10.7806
▁Prajapati	-10.7806
▁global	-10.7806
▁Idaho	-10.7806
▁Vishvamitra	-10.7806
▁improper	-10.7806
▁Deccan	-10.7806
▁carbon	-10.7806
▁35	-10.7806
charya	-10.7808
▁Teacher	-10.7809
▁calm	-10.7812
▁repeated	-10.7817
▁°	-10.782
▁sway	-10.7822
▁Ce	-10.7822
▁faultless	-10.7822
▁Far	-10.7826
▁2011.	-10.7827
vid	-10.783
▁renowned	-10.7831
pha	-10.7838
▁cur	-10.7852
▁rever	-10.7853
▁accomplishments	-10.7867
Duryodhana	-10.7871
▁formation	-10.7873
wood	-10.7875
▁70	-10.7877
▁reverse	-10.7885
▁knee	-10.7885
▁operation	-10.7886
▁behave	-10.7887
etween	-10.789
▁accident	-10.789
▁Mexico	-10.7891
▁Purandara	-10.7891
▁Sankhya	-10.7891
▁Second	-10.7891
▁categories	-10.7891
▁nectar	-10.7891
▁treasury	-10.7891
▁subcontinent	-10.7891
▁dollar	-10.7891
▁dragged	-10.7891
▁Valley	-10.7892
▁extent	-10.7892
▁Indus	-10.7892
udi	-10.7895
▁races	-10.7895
▁target	-10.7897
are	-10.7901
▁White	-10.7901
▁Persian	-10.7902
ending	-10.7904
▁tied	-10.7906
25	-10.7913
▁traditions	-10.7919
▁costly	-10.7921
▁Home	-10.7922
▁Jam	-10.7925
▁Soon	-10.7925
▁loved	-10.7925
▁Take	-10.7925
▁steal	-10.7933
▁reports	-10.7947
▁Sim	-10.7952
▁assume	-10.7957
With	-10.7957
▁bu	-10.7959
▁essential	-10.7961
▁lance	-10.797
▁fond	-10.7976
▁Buddhism	-10.7977
▁FrontAccounting	-10.7977
▁Hastinapur	-10.7977
▁Individual	-10.7977
▁Savitri	-10.7977
▁captain	-10.7977
▁destitute	-10.7977
▁1971	-10.7978
▁covetousness	-10.7979
▁mangled	-10.7982
▁combined	-10.7984
▁Super	-10.7984
▁affliction	-10.7988
▁heir	-10.7989
▁thereupon	-10.7989
▁reviews	-10.7989
▁comedy	-10.7991
▁waves	-10.7992
ore	-10.7993
▁recently	-10.7994
▁gene	-10.7994
▁tour	-10.8004
▁BC	-10.8005
ched	-10.8009
dri	-10.801
▁converted	-10.8014
▁Sports	-10.8024
nne	-10.8028
pen	-10.8036
txt	-10.8044
spoken	-10.8044
click	-10.8045
bed	-10.8046
▁torn	-10.8047
▁slight	-10.8051
70	-10.8051
ient	-10.8053
▁picture	-10.8061
▁Vaishya	-10.8064
shan	-10.8064
▁Hyderabad	-10.8064
▁pilgrimage	-10.8065
▁closing	-10.8065
▁adopt	-10.8065
▁Val	-10.8066
▁hereafter	-10.8068
▁sector	-10.8069
▁fellow	-10.8069
▁Check	-10.8074
▁tools	-10.8075
▁maid	-10.8078
▁revealed	-10.8084
▁spa	-10.8084
▁Matsya	-10.8087
oli	-10.8087
▁Mark	-10.8097
▁wished	-10.81
▁bag	-10.81
press	-10.8104
▁arch	-10.8107
ify	-10.811
mate	-10.8112
▁solicit	-10.8119
▁Ang	-10.8124
▁infinite	-10.8125
▁regional	-10.8132
ew	-10.8133
zi	-10.8134
▁initial	-10.8135
▁te	-10.8137
key	-10.8137
▁copper	-10.8142
▁cre	-10.8151
▁Austria	-10.8152
▁Vibhīşaņa	-10.8152
▁cavalry	-10.8152
▁obedient	-10.8152
▁funeral	-10.8152
▁downpour	-10.8152
▁purged	-10.8152
▁1982	-10.8152
▁Battle	-10.8153
▁Railway	-10.8155
▁pool	-10.8155
▁polo	-10.8155
▁exception	-10.8156
▁plus	-10.816
▁sh	-10.816
▁controlling	-10.8161
▁feed	-10.8164
▁counter	-10.8165
itis	-10.8174
▁routed	-10.8175
▁sporting	-10.8176
▁rep	-10.8178
▁par	-10.8178
ey	-10.8182
izing	-10.8182
endra	-10.8183
ora	-10.8186
▁fed	-10.8188
see	-10.8189
▁bare	-10.8194
▁stretching	-10.8197
▁homes	-10.82
▁relations	-10.8205
▁mix	-10.8214
▁organisms	-10.8227
▁ja	-10.8227
▁Russia	-10.8227
▁increases	-10.8232
▁Ham	-10.8239
▁Department	-10.8241
▁Lakshmana	-10.8241
▁Muhammad	-10.8241
▁Service	-10.8241
▁appropriate	-10.8241
▁decrepitude	-10.8241
▁shield	-10.8241
discharging	-10.8241
▁Italian	-10.8241
▁Satvata	-10.8241
▁desist	-10.8241
▁vehicle	-10.8241
▁silk	-10.8241
▁Highway	-10.8243
kşa	-10.8245
▁encircled	-10.8251
▁Muni	-10.8257
▁gardens	-10.826
▁ahead	-10.8263
▁fi	-10.8273
▁materials	-10.8275
rita	-10.8275
▁Maya	-10.8279
nna	-10.8285
▁stated	-10.8286
▁refers	-10.8287
ugh	-10.8297
cus	-10.83
▁feels	-10.8301
▁crow	-10.8303
▁officials	-10.8304
म	-10.8307
।	-10.831
▁pit	-10.8322
▁costs	-10.8325
▁northeast	-10.8325
▁Edit	-10.8326
▁Pala	-10.833
▁autumn	-10.833
▁despite	-10.833
▁applied	-10.833
▁invasion	-10.833
▁Write	-10.833
▁Shraddha	-10.8332
▁winner	-10.8332
▁metres	-10.8332
▁vessel	-10.8332
▁plain	-10.8332
16	-10.8333
▁tank	-10.8333
▁grave	-10.8333
▁liberated	-10.8333
▁Institute	-10.8335
▁shal	-10.8336
▁demon	-10.8337
▁studying	-10.8346
▁venture	-10.8347
▁Kr	-10.8347
▁painful	-10.8349
▁swiftly	-10.8351
▁subjugated	-10.8351
era	-10.8351
▁sore	-10.8353
▁Swa	-10.8363
▁separately	-10.8367
▁lament	-10.8373
▁Hindus	-10.8375
▁ph	-10.8376
▁du	-10.8377
▁fate	-10.838
▁seventh	-10.8386
▁beast	-10.8387
ame	-10.8398
ica	-10.8403
▁returns	-10.8406
▁ga	-10.8409
▁Shu	-10.8412
well	-10.8413
▁Christian	-10.8414
qua	-10.8419
▁Kichaka	-10.842
▁hidden	-10.842
▁Close	-10.842
▁1979	-10.842
▁Children	-10.842
▁Jammu	-10.842
▁shed	-10.8421
▁matted	-10.8422
▁youthful	-10.8423
▁plunged	-10.8424
86	-10.8428
tten	-10.8429
▁Try	-10.8431
▁novel	-10.8433
▁vile	-10.8433
nning	-10.8434
anta	-10.8434
arm	-10.8435
▁encountered	-10.8435
12	-10.8438
▁Adi	-10.844
न	-10.8443
▁Nu	-10.8444
ball	-10.8445
▁climbing	-10.8446
▁tag	-10.8447
▁remov	-10.8447
▁bandy	-10.845
▁festivals	-10.8453
▁stretched	-10.8455
lay	-10.8463
rag	-10.8463
▁rainy	-10.8466
▁affairs	-10.8467
▁clicking	-10.8467
gon	-10.8468
▁fe	-10.8471
▁Vijaya	-10.8477
▁Vira	-10.8478
▁hairs	-10.8478
lock	-10.8485
gam	-10.8488
father	-10.8492
▁internal	-10.8497
▁monthly	-10.8501
▁renounced	-10.8505
▁Emperor	-10.8511
▁Lomasha	-10.8511
▁Netherlands	-10.8511
▁Uttarakhand	-10.8511
▁impact	-10.8511
▁Search	-10.8512
▁leadership	-10.8513
▁Royal	-10.8514
▁Port	-10.8522
▁calling	-10.8524
▁Lok	-10.8528
▁delivery	-10.8528
cas	-10.8528
▁sale	-10.8534
▁Fo	-10.8534
▁liked	-10.8541
ming	-10.8543
ily	-10.8545
mala	-10.8547
▁Bal	-10.8547
▁immortals	-10.8551
upon	-10.856
▁consideration	-10.856
ctor	-10.8561
▁waist	-10.8565
raja	-10.8566
▁row	-10.8569
hand	-10.8572
vata	-10.8573
Sa	-10.8576
uka	-10.858
▁pierce	-10.8587
▁boast	-10.859
ttle	-10.8593
this	-10.8598
▁Washington	-10.8603
▁brilliant	-10.8603
▁distribution	-10.8603
▁fortunate	-10.8603
▁folly	-10.8603
▁spacious	-10.8603
▁Malayalam	-10.8603
▁appeal	-10.8603
▁continually	-10.8603
▁destination	-10.8605
▁Goodness	-10.8607
▁dense	-10.8607
▁blessings	-10.8608
▁difficulties	-10.8609
++	-10.861
▁vent	-10.8612
▁aware	-10.8613
ela	-10.8613
Pa	-10.8615
▁Free	-10.8616
▁ceased	-10.8622
▁Comp	-10.8629
▁aspect	-10.8632
▁produces	-10.8635
▁awards	-10.8636
▁coat	-10.8643
▁turns	-10.8645
▁highsouled	-10.8649
▁Sini	-10.865
ney	-10.8654
▁riders	-10.8664
▁Nila	-10.867
hala	-10.8671
▁contribute	-10.8674
▁auto	-10.8676
▁insects	-10.8679
▁1983	-10.8695
▁Despite	-10.8695
▁administrative	-10.8695
▁oxygen	-10.8695
▁widow	-10.8695
▁Repeat	-10.8695
▁Zealand	-10.8695
▁sprang	-10.8696
▁Haryana	-10.8696
▁Charles	-10.8696
lets	-10.8697
▁cake	-10.8697
▁awful	-10.8698
▁cord	-10.8699
▁operations	-10.8701
▁constitute	-10.8705
▁Tool	-10.8709
▁ablutions	-10.8709
▁2021.	-10.8714
▁constantly	-10.8714
▁agreed	-10.8714
▁bewailing	-10.8715
▁swans	-10.8715
▁sometime	-10.8718
▁concerning	-10.872
▁Satya	-10.8726
▁serves	-10.8727
▁cometh	-10.8729
▁Bel	-10.8731
ban	-10.874
▁sum	-10.8754
yn	-10.8755
dia	-10.8757
▁chain	-10.8764
even	-10.8777
▁actual	-10.8777
rg	-10.8778
▁2015.	-10.8783
▁excess	-10.8787
▁rival	-10.8787
▁1972	-10.8789
▁Friday	-10.8789
▁misfortune	-10.8789
▁guise	-10.8789
▁steady	-10.8789
▁quiet	-10.8789
▁suicide	-10.8789
▁1956	-10.8789
▁impart	-10.8789
▁1989	-10.8789
▁nation	-10.8792
▁Islamic	-10.8792
▁Madra	-10.8792
▁Ravi	-10.8794
▁Road	-10.8794
▁Vis	-10.8796
▁UK	-10.8796
▁opponent	-10.8799
▁popularity	-10.8801
▁African	-10.8802
▁stretch	-10.8803
▁rope	-10.8803
▁exactly	-10.8803
▁initially	-10.8806
▁meters	-10.8806
▁bend	-10.8812
▁Devas	-10.8813
▁devotees	-10.8814
string	-10.8816
▁Mela	-10.8817
uck	-10.8828
▁2008.	-10.8828
ern	-10.883
skin	-10.8834
▁keys	-10.8834
▁sal	-10.8834
▁wandering	-10.8836
una	-10.8839
▁engine	-10.8845
gue	-10.8847
▁hide	-10.8853
▁render	-10.8863
▁Bor	-10.8864
osis	-10.8874
rut	-10.8875
▁Mir	-10.8877
▁bliss	-10.8878
▁Florida	-10.8883
▁stadium	-10.8883
▁Vajra	-10.8883
▁Virginia	-10.8883
▁amiable	-10.8883
▁Mizoram	-10.8883
▁prosperous	-10.8883
▁1969	-10.8884
▁spies	-10.8885
▁Senate	-10.8887
▁theatre	-10.8888
▁Ashvatthaman	-10.8888
▁Verily	-10.8889
▁Fame	-10.889
▁weakness	-10.8891
▁paint	-10.8891
▁upwards	-10.8892
▁clothing	-10.8892
▁wander	-10.8898
isation	-10.89
eshwar	-10.8901
▁Start	-10.8904
varman	-10.8904
▁performances	-10.8905
▁waxing	-10.8907
▁Pass	-10.8908
hri	-10.891
▁hole	-10.8916
▁Anu	-10.8917
▁Hill	-10.8919
▁resisted	-10.8933
▁Yojanas	-10.8941
▁horns	-10.8952
▁prices	-10.8961
Ye	-10.8965
▁Canadian	-10.8978
▁Chandigarh	-10.8978
▁impossible	-10.8978
▁ordinary	-10.8978
▁protein	-10.8978
▁treasure	-10.8978
▁entry	-10.8978
▁Center	-10.8978
▁zone	-10.8978
▁cattle	-10.8979
▁devil	-10.898
▁Major	-10.898
▁suitable	-10.898
nia	-10.8984
▁Chess	-10.8985
▁2010.	-10.8989
▁competed	-10.899
ny	-10.8992
▁article	-10.8993
▁Bill	-10.8994
▁determine	-10.8995
▁Prana	-10.8998
play	-10.8999
▁rapt	-10.9
▁receives	-10.9001
▁Bhava	-10.9002
13	-10.9005
med	-10.9005
▁owe	-10.9009
▁Use	-10.9015
▁secur	-10.9021
▁cooked	-10.9024
▁AD	-10.9042
▁teachers	-10.905
▁assist	-10.9052
▁faithful	-10.9053
ez	-10.9054
tya	-10.9054
hall	-10.9059
▁scar	-10.9063
▁nations	-10.9065
▁Sama	-10.9068
▁bath	-10.9069
▁demons	-10.9072
▁tanks	-10.9072
pal	-10.9073
▁capture	-10.9073
▁Wikipedia	-10.9074
▁episode	-10.9074
▁meritorious	-10.9074
▁occupied	-10.9074
▁permanent	-10.9074
▁salvation	-10.9074
द	-10.9074
▁Science	-10.9074
▁1985	-10.9075
▁disposition	-10.9075
▁statue	-10.9075
▁execution	-10.9076
▁Angeles	-10.9076
▁divest	-10.9079
dle	-10.9084
▁winged	-10.9093
▁purifying	-10.9094
▁frequented	-10.9095
▁digital	-10.9098
▁Mari	-10.9104
▁styles	-10.9104
▁Ji	-10.9105
▁expressed	-10.9106
test	-10.911
▁didn	-10.9111
spect	-10.9112
▁restrained	-10.9117
▁indicates	-10.9122
▁praises	-10.9123
▁2016.	-10.9128
pet	-10.9129
zar	-10.9132
▁Bro	-10.9133
▁clearly	-10.9134
rana	-10.9135
▁Chedis	-10.9142
▁din	-10.9143
▁Var	-10.9145
19	-10.915
▁beds	-10.9151
▁bread	-10.9166
dding	-10.9167
▁prevented	-10.9168
▁censure	-10.9169
ः	-10.9171
▁Sumantra	-10.9171
▁consuming	-10.9171
▁identified	-10.9171
▁politics	-10.9171
▁quantity	-10.9171
▁surrender	-10.9171
▁typing	-10.9171
▁changing	-10.9171
▁subtile	-10.9171
▁mystery	-10.9172
▁naked	-10.9172
▁Mithila	-10.9172
▁1988	-10.9172
▁Mount	-10.9173
▁smile	-10.9173
▁armours	-10.9173
▁twiceborn	-10.9179
some	-10.9181
▁restored	-10.9181
▁acid	-10.9181
▁recognized	-10.9186
▁fired	-10.9189
▁shew	-10.9189
▁tie	-10.9194
▁resting	-10.92
▁tourist	-10.92
▁tomorrow	-10.9207
▁em	-10.9212
▁Kalinga	-10.9214
▁artists	-10.9216
▁figures	-10.9221
▁Well	-10.9236
aj	-10.9239
ttended	-10.9244
▁painting	-10.9245
▁needle	-10.9246
Rāma	-10.925
From	-10.9251
▁console	-10.9253
act	-10.9255
▁toward	-10.9258
▁Islands	-10.9267
▁observan	-10.9268
े	-10.9269
▁Georgia	-10.9269
▁Manager	-10.9269
▁Yuyudhana	-10.9269
▁addicted	-10.9269
▁advisor	-10.9269
▁disaster	-10.9269
▁judgment	-10.9269
▁leonine	-10.9269
▁Grandsire	-10.9269
▁razor	-10.9269
▁Spain	-10.927
▁heavily	-10.927
▁suppress	-10.927
▁alliance	-10.927
▁sugar	-10.927
▁assistance	-10.927
▁Shivaji	-10.9272
▁Shalva	-10.9272
▁Sho	-10.9273
▁Old	-10.9276
▁Republican	-10.9277
▁performs	-10.9277
▁bond	-10.929
▁bracket	-10.9294
▁doubts	-10.9295
▁cheer	-10.9298
▁Sch	-10.9298
▁Bir	-10.9299
pit	-10.9303
▁Van	-10.9312
▁feathers	-10.9322
▁sunk	-10.9324
▁express	-10.9333
lon	-10.9339
▁Khara	-10.9348
Having	-10.935
▁hate	-10.9351
90	-10.9354
▁careful	-10.9359
▁Afghanistan	-10.9368
▁Cricket	-10.9368
▁Telangana	-10.9368
▁aggrieved	-10.9368
▁commenced	-10.9368
▁irrepressible	-10.9368
▁pregnant	-10.9368
▁primari	-10.9368
▁untruth	-10.9368
▁emblem	-10.9368
▁Ireland	-10.9369
▁Bavaria	-10.9369
▁basis	-10.9369
▁retirement	-10.9369
▁departure	-10.9369
▁fiery	-10.9369
▁Board	-10.937
▁calf	-10.9371
▁panic	-10.9372
head	-10.9372
200	-10.9372
▁printed	-10.9373
▁Sagara	-10.9373
▁Karma	-10.9374
▁Run	-10.9374
▁robes	-10.9374
▁starr	-10.9374
▁fearlessly	-10.9379
mā	-10.9381
▁lustre	-10.9382
▁Mary	-10.9384
▁penetrat	-10.9385
▁characteristics	-10.9387
▁protest	-10.9391
▁furiously	-10.9392
▁tribe	-10.9392
▁talking	-10.9397
▁edge	-10.9398
▁dogs	-10.94
▁lyrics	-10.9404
gas	-10.9412
▁joints	-10.9412
▁trip	-10.9414
rangers	-10.9424
89	-10.9426
lands	-10.9431
▁cooking	-10.9434
▁ruin	-10.9436
+	-10.944
sco	-10.9444
▁Mer	-10.9445
▁$1	-10.9453
▁continues	-10.9455
ola	-10.9468
▁Account	-10.9468
▁Corporation	-10.9468
▁Education	-10.9468
▁Kannada	-10.9468
▁consequent	-10.9468
▁drew	-10.9468
▁explore	-10.9468
▁forcibly	-10.9468
▁valiant	-10.9468
▁miserable	-10.9468
▁photo	-10.9468
▁delta	-10.9469
▁automatically	-10.9469
▁1978	-10.9469
▁altar	-10.9469
▁surgery	-10.9469
▁commentator	-10.9469
▁offices	-10.9469
▁Sumitra	-10.9469
▁1986	-10.9469
ked	-10.947
▁nether	-10.947
▁Gold	-10.9472
▁decorated	-10.9472
▁gaze	-10.9473
▁airline	-10.9473
▁bid	-10.9476
▁Thou	-10.9476
pu	-10.948
▁raid	-10.9483
▁descended	-10.9483
▁hunting	-10.9495
▁ideas	-10.9495
▁deceitful	-10.9498
run	-10.9505
▁organ	-10.9505
▁Gre	-10.9509
▁individuals	-10.9512
yl	-10.9513
sar	-10.9514
▁Marathas	-10.9518
▁lu	-10.9519
▁skills	-10.9526
▁secured	-10.9528
▁robbers	-10.9528
66	-10.9533
▁hang	-10.9535
iz	-10.9538
▁critical	-10.9543
▁pained	-10.9544
They	-10.955
▁delighter	-10.9552
▁Mad	-10.9552
▁fires	-10.9553
▁Dha	-10.9553
▁exact	-10.9554
▁grandsons	-10.9558
▁Whe	-10.9559
▁communicate	-10.9561
▁concept	-10.9564
▁observances	-10.9566
▁transfer	-10.9569
▁depression	-10.9569
▁industries	-10.9569
▁relevant	-10.9569
▁tissue	-10.9569
▁workshops	-10.9569
▁Videha	-10.957
▁Place	-10.957
▁betide	-10.957
▁abide	-10.957
▁Hyder	-10.957
▁Brahmā	-10.957
▁programming	-10.9571
▁foundation	-10.9571
▁idol	-10.9572
▁baby	-10.9573
▁Savyasachin	-10.9574
▁Salutation	-10.9576
▁wake	-10.9577
▁settlement	-10.9578
▁companions	-10.9579
▁mat	-10.9587
▁ride	-10.9588
stand	-10.9591
▁communicated	-10.9592
▁curly	-10.9593
▁skillful	-10.9593
iness	-10.96
▁statements	-10.9601
▁enjoyments	-10.9604
▁promote	-10.961
▁metals	-10.9613
▁Sin	-10.9618
▁Punjabi	-10.9626
▁Kusha	-10.9626
tted	-10.9628
▁tests	-10.9632
▁governing	-10.9634
▁repeat	-10.9639
▁cheerless	-10.9641
▁stored	-10.9646
▁attachments	-10.965
▁banners	-10.9652
coursing	-10.9652
Brahma	-10.9652
power	-10.9656
▁Bur	-10.9658
▁Class	-10.9659
▁Amar	-10.9659
▁wash	-10.9661
▁brush	-10.9665
▁disappear	-10.9666
▁turning	-10.9666
▁deposit	-10.9668
▁shout	-10.967
88	-10.9671
▁Chicago	-10.9672
▁Gavaskar	-10.9672
▁Inkscape	-10.9672
▁Kausalyā	-10.9672
▁Portuguese	-10.9672
▁correspond	-10.9672
▁enmity	-10.9672
▁thither	-10.9672
▁bereft	-10.9672
▁micro	-10.9672
▁slender	-10.9672
▁1981	-10.9672
rian	-10.9672
▁Vikarna	-10.9672
▁broadcast	-10.9672
▁Club	-10.9672
▁hook	-10.9673
▁perpetuator	-10.9674
▁Police	-10.9674
▁assumes	-10.9677
▁concentrated	-10.9677
▁Fu	-10.9679
▁discuss	-10.968
▁upload	-10.968
ddha	-10.9681
house	-10.9682
▁merged	-10.9685
▁fruition	-10.9685
▁asks	-10.9687
▁conqueror	-10.9688
▁eats	-10.969
▁indulge	-10.9691
▁eighth	-10.9693
▁Thinking	-10.9693
▁Kashi	-10.9696
▁Mag	-10.9696
phi	-10.9703
▁Kam	-10.9704
▁pressed	-10.9704
▁restraint	-10.9722
Vi	-10.9724
create	-10.9725
▁ni	-10.9728
?”	-10.9731
▁contented	-10.9734
At	-10.9735
ges	-10.9738
▁Iran	-10.974
▁units	-10.9751
▁rates	-10.9752
▁rejoice	-10.9759
▁hosted	-10.9759
▁brief	-10.9759
▁unrighteous	-10.9772
▁calendar	-10.9775
▁celebrating	-10.9775
▁irrigation	-10.9775
▁regenerate	-10.9775
▁basketball	-10.9775
▁dried	-10.9775
▁detect	-10.9775
▁wrestling	-10.9775
▁feast	-10.9775
▁yields	-10.9776
▁desirable	-10.9776
▁Vaishyas	-10.9778
▁Dvaipayana	-10.9778
isha	-10.9778
▁Mother	-10.9779
▁Human	-10.9785
▁se	-10.9788
▁slider	-10.9789
▁principles	-10.979
giri	-10.979
demo	-10.9792
wara	-10.9797
eval	-10.9798
▁lords	-10.98
rink	-10.9808
▁useless	-10.9808
▁accomplishment	-10.9808
shva	-10.9811
▁pearls	-10.9811
▁spots	-10.9817
▁Gal	-10.9827
▁prop	-10.9832
other	-10.9849
▁Area	-10.9851
▁brow	-10.9851
▁medi	-10.9853
No	-10.9854
▁wielders	-10.9854
▁Narayan	-10.9855
""""	-10.9856
century	-10.9859
▁devices	-10.9862
▁decline	-10.9863
▁Set	-10.9864
▁Mac	-10.9865
▁den	-10.9869
▁OK	-10.987
▁sorrowful	-10.9872
cap	-10.9878
▁Yamuna	-10.9879
▁communities	-10.9879
▁liquid	-10.9879
▁transcend	-10.9879
▁alphabet	-10.9879
▁organisation	-10.9879
▁verily	-10.9879
▁external	-10.9879
▁Development	-10.9879
▁1977	-10.9879
▁1964	-10.9879
▁1975	-10.988
▁solid	-10.988
▁plight	-10.988
▁prescribed	-10.9881
▁destiny	-10.9883
▁Director	-10.9887
▁ka	-10.9887
▁Rock	-10.9887
▁sheep	-10.989
▁uplifted	-10.9891
▁Ur	-10.9897
rani	-10.9899
▁agricultural	-10.9901
bel	-10.9902
▁Range	-10.9906
▁ritual	-10.9911
ties	-10.9921
▁dies	-10.9922
▁showered	-10.9923
▁Amba	-10.9927
▁OS	-10.9935
struct	-10.9937
▁appoint	-10.9946
rim	-10.9946
Bhishma	-10.9964
▁decrease	-10.9968
▁critics	-10.9971
▁newly	-10.9977
▁minded	-10.9978
▁Egypt	-10.998
▁satisfaction	-10.9984
▁swallow	-10.9984
▁splendid	-10.9984
▁unfair	-10.9984
▁1976	-10.9984
ference	-10.9985
▁easier	-10.9985
▁planned	-10.9985
▁Shveta	-10.9986
▁java	-10.9987
▁comfortable	-10.9988
▁reform	-10.9988
▁childhood	-10.9988
▁Shuka	-10.9988
▁Kun	-10.999
br	-10.9993
▁fun	-10.9994
▁patients	-10.9995
▁Mā	-10.9997
sum	-11.0005
▁reflect	-11.0005
bul	-11.0007
eastern	-11.001
▁crush	-11.0014
▁Ap	-11.0015
▁Yaksha	-11.0019
▁performer	-11.0025
▁Produc	-11.0033
▁hanging	-11.0034
▁shines	-11.0035
US	-11.0037
▁flags	-11.0045
chu	-11.005
▁Mughals	-11.0051
▁retain	-11.0058
▁preach	-11.006
tā	-11.0066
▁breaking	-11.0066
▁curve	-11.0068
liness	-11.007
▁listening	-11.0074
▁calls	-11.0082
▁Brazil	-11.0089
▁bulls	-11.009
▁bamboo	-11.009
▁drove	-11.009
▁penalty	-11.009
▁vigour	-11.009
▁Possess	-11.009
▁Gupta	-11.0091
▁Kapila	-11.0091
▁producing	-11.0093
▁trunks	-11.0093
▁justice	-11.0094
▁supposed	-11.0096
▁Likewise	-11.0096
▁passage	-11.0098
▁enters	-11.0101
▁2006.	-11.0103
viz	-11.0106
▁offence	-11.0107
▁Dutt	-11.0108
▁defined	-11.011
star	-11.0114
▁Mind	-11.0114
▁Kanka	-11.0116
mble	-11.0116
▁Dhar	-11.0117
ati	-11.0118
▁laughing	-11.0129
▁Sta	-11.0133
▁angel	-11.0137
shu	-11.014
▁Observe	-11.0144
pura	-11.0148
▁accord	-11.0149
▁Ash	-11.0159
bhi	-11.016
hill	-11.0162
▁renown	-11.0166
▁Mat	-11.0171
▁industrial	-11.018
▁conducted	-11.0185
▁mon	-11.0187
▁container	-11.019
▁fasting	-11.0194
▁Nepal	-11.0194
These	-11.0195
pre	-11.0197
▁competitions	-11.0197
]	-11.0198
▁Satavahana	-11.0198
▁university	-11.0198
▁cousin	-11.0198
Wherefore	-11.0198
▁discount	-11.0198
▁Buddha	-11.0199
▁technology	-11.0199
▁racing	-11.0199
▁weekend	-11.0199
▁Order	-11.0201
▁dangerous	-11.0201
▁Deep	-11.0201
▁glass	-11.0202
▁heels	-11.0204
▁gates	-11.0206
col	-11.0206
▁likewise	-11.0207
▁Hy	-11.0208
▁craft	-11.0209
▁wedding	-11.021
▁rapidly	-11.0211
▁Sand	-11.0215
not	-11.0216
▁Chitra	-11.0216
▁begun	-11.022
▁wherever	-11.0222
▁pages	-11.0223
▁seal	-11.0224
▁anyone	-11.0229
room	-11.0234
▁cards	-11.0236
46	-11.0238
rti	-11.0253
▁Chera	-11.0257
▁crop	-11.0263
Re	-11.0266
▁qu	-11.0266
ori	-11.0266
ane	-11.0268
▁node	-11.0269
▁punish	-11.027
▁relax	-11.0272
ose	-11.0274
▁Item	-11.0281
ort	-11.0282
▁attempts	-11.0286
vir	-11.0289
▁schedule	-11.0291
▁Dal	-11.0298
▁exhibit	-11.0298
▁lock	-11.0304
▁plains	-11.0304
▁scholars	-11.0305
▁afflict	-11.0306
▁Spanish	-11.0307
▁Vaidehī	-11.0307
▁curiosity	-11.0307
▁fragrance	-11.0307
▁kilometers	-11.0307
▁struggle	-11.0307
▁session	-11.0307
▁weather	-11.0307
▁Maheshvara	-11.0307
▁Protect	-11.0307
▁garments	-11.0307
▁representative	-11.0307
▁bride	-11.0307
part	-11.0307
▁attendants	-11.0308
▁stress	-11.0308
▁echo	-11.0308
▁recording	-11.0309
▁trace	-11.0309
▁defect	-11.0309
▁urine	-11.0311
▁horsemen	-11.0311
lap	-11.0312
▁bitter	-11.0313
▁cent	-11.0313
▁modesty	-11.0313
▁worm	-11.0314
▁manliness	-11.0314
▁crest	-11.0315
14	-11.0315
▁noose	-11.0315
▁Instead	-11.0317
▁existed	-11.0318
▁Art	-11.0318
▁pan	-11.0321
▁Game	-11.0323
▁frightened	-11.0326
▁commandment	-11.0329
!"	-11.0332
town	-11.034
▁instrument	-11.0341
▁throat	-11.0344
▁contents	-11.0346
▁moral	-11.0347
▁hymn	-11.0349
▁vulture	-11.0349
▁Jai	-11.0353
▁hips	-11.0355
gy	-11.0359
eri	-11.0363
hin	-11.0367
▁Due	-11.0368
hor	-11.0372
▁sail	-11.0373
▁Us	-11.0378
▁vegetables	-11.0379
▁relation	-11.0381
ware	-11.0382
▁wretched	-11.0384
eng	-11.0386
▁resemble	-11.0393
▁holes	-11.0404
▁Korea	-11.0404
▁clan	-11.0406
▁chose	-11.0408
▁peaceful	-11.0411
▁rises	-11.0411
▁ft	-11.0413
mod	-11.0414
@	-11.0417
▁Akshauhini	-11.0417
▁Civil	-11.0417
▁Marathi	-11.0417
▁Prahasta	-11.0417
▁Soviet	-11.0417
▁creepers	-11.0417
▁hurricane	-11.0417
▁impetuosity	-11.0417
▁revenue	-11.0417
▁saluting	-11.0417
▁ticket	-11.0417
▁traffic	-11.0417
▁Chandragupta	-11.0417
▁gospel	-11.0417
▁Gandhara	-11.0417
▁Stadium	-11.0417
▁gambling	-11.0417
▁Balhika	-11.0417
▁lawyer	-11.0417
▁falsehood	-11.0418
▁Life	-11.0418
▁Ghost	-11.0418
▁impure	-11.0418
▁bigger	-11.0418
▁Times	-11.0419
▁Jahan	-11.042
▁Vayu	-11.042
lai	-11.0423
▁waterfall	-11.0423
dana	-11.0424
▁shaken	-11.0425
▁Four	-11.0425
▁Path	-11.0429
▁youngest	-11.043
▁recommended	-11.0434
tara	-11.0438
▁coursing	-11.0438
▁ape	-11.0438
win	-11.0439
śa	-11.044
dhya	-11.0445
▁normally	-11.045
य	-11.045
del	-11.0451
▁speakers	-11.0457
▁herd	-11.0458
▁versions	-11.0458
▁client	-11.046
▁newspaper	-11.046
▁temperatures	-11.0462
▁escaped	-11.0464
▁lamentations	-11.0464
▁ornamented	-11.0466
▁bra	-11.0467
▁Cur	-11.0468
▁ve	-11.047
▁comforted	-11.0472
▁cranes	-11.0478
ture	-11.0478
▁Sum	-11.0481
▁leap	-11.0481
▁consequences	-11.0482
▁rescued	-11.0483
ksa	-11.0484
▁hymns	-11.0485
▁prayer	-11.0487
▁visiting	-11.0488
▁Mand	-11.0491
▁push	-11.0495
▁doesn	-11.0496
▁Pin	-11.0497
▁Nam	-11.0497
▁raged	-11.0504
him	-11.0506
ement	-11.0507
▁surprise	-11.0512
▁stations	-11.0516
▁pupil	-11.0528
▁Mahabharata	-11.0528
▁Pulakeshin	-11.0528
▁Vasistha	-11.0528
▁XAMPP	-11.0528
▁albeit	-11.0528
▁conquest	-11.0528
▁illegal	-11.0528
▁maximum	-11.0528
▁romantic	-11.0528
▁velocity	-11.0528
▁kitchen	-11.0528
▁composition	-11.0528
▁Eternal	-11.0529
▁Democratic	-11.0529
▁Nagaland	-11.0529
▁classified	-11.053
place	-11.0531
▁Year	-11.0534
▁lest	-11.0538
96	-11.0542
▁emerged	-11.0543
▁searching	-11.0547
▁counsels	-11.055
▁resulted	-11.0554
▁fasts	-11.0557
▁religions	-11.0557
▁grade	-11.0557
▁pleasures	-11.0558
▁matchless	-11.0558
▁attribute	-11.0559
▁arguments	-11.0567
▁gr	-11.057
▁Vijay	-11.0571
▁hopes	-11.0573
▁residents	-11.0573
▁Rākṣasa	-11.0574
▁officially	-11.0575
▁Force	-11.0586
rava	-11.0602
▁summits	-11.0603
mount	-11.061
coming	-11.0619
▁remembered	-11.0619
ident	-11.062
Karna	-11.062
Ka	-11.0621
▁similarly	-11.0634
▁suggest	-11.0636
▁selling	-11.064
▁accents	-11.064
▁candidate	-11.064
▁expensive	-11.064
▁homage	-11.064
▁soundtrack	-11.064
▁cotton	-11.064
▁swear	-11.0641
▁motor	-11.0641
▁Christmas	-11.0642
▁crew	-11.0642
▁pack	-11.0643
▁Mysore	-11.0644
▁Kumbh	-11.0644
oda	-11.0644
▁organised	-11.0644
▁enquired	-11.065
▁shade	-11.0651
had	-11.0652
▁Sales	-11.0655
▁fa	-11.0665
▁tender	-11.0667
▁""""	-11.0674
▁gather	-11.0674
▁provid	-11.068
▁damsels	-11.0684
▁fee	-11.0688
▁adult	-11.0689
▁describes	-11.0692
▁jar	-11.0694
▁incomparable	-11.0699
▁Push	-11.07
made	-11.0707
▁camera	-11.0713
▁requested	-11.0717
▁sustain	-11.0721
▁reins	-11.0727
▁Sher	-11.0729
Shiva	-11.0734
▁Ak	-11.0736
▁strengthen	-11.0736
▁boar	-11.0744
▁forsake	-11.0745
ography	-11.075
▁Chhattisgarh	-11.0754
▁Committee	-11.0754
▁Dakshina	-11.0754
▁Usually	-11.0754
▁abdomen	-11.0754
▁everlasting	-11.0754
▁expansive	-11.0754
▁pristin	-11.0754
▁ambrosia	-11.0754
▁planning	-11.0754
▁Vrishasena	-11.0754
▁Matali	-11.0754
▁1974	-11.0754
▁Work	-11.0754
▁hungry	-11.0754
▁Tipu	-11.0754
▁infant	-11.0754
▁smite	-11.0754
▁username	-11.0755
▁countless	-11.0757
▁rail	-11.0758
▁Nanda	-11.0759
▁heavenly	-11.0761
▁perish	-11.0761
tel	-11.0763
▁thine	-11.0765
▁consoled	-11.0772
▁wound	-11.0774
▁conf	-11.0774
▁Gri	-11.0775
hir	-11.0779
▁suit	-11.078
▁damaged	-11.0785
.*	-11.0785
lav	-11.0788
▁felled	-11.0788
▁Ven	-11.0801
pan	-11.0803
▁lit	-11.0807
▁Ah	-11.0815
asana	-11.0819
▁studio	-11.0819
▁ward	-11.0822
▁allies	-11.0828
uous	-11.0834
fit	-11.084
▁Kap	-11.084
▁angle	-11.0846
▁tourists	-11.0848
▁disguise	-11.0852
▁Age	-11.0853
▁Atri	-11.0854
▁Bhaga	-11.0859
▁dame	-11.0863
47	-11.0868
▁Abraham	-11.0869
▁Arkansas	-11.0869
▁Lakshmi	-11.0869
▁apprehend	-11.0869
▁confusion	-11.0869
▁smooth	-11.0869
▁ruling	-11.0869
▁tired	-11.0869
▁scoring	-11.0869
▁integer	-11.0869
▁historian	-11.0869
▁interview	-11.0869
▁void	-11.0869
▁practiced	-11.087
▁deaths	-11.0871
▁wishing	-11.0873
print	-11.0874
▁engagement	-11.0875
▁narrated	-11.0881
▁churches	-11.0881
▁slightly	-11.089
hen	-11.0891
▁deserves	-11.0903
▁supports	-11.0907
▁employees	-11.0913
▁dressed	-11.0915
▁Hal	-11.0919
dhan	-11.0919
▁mortal	-11.0922
▁topics	-11.0928
▁Kai	-11.0933
▁Sura	-11.0941
▁Alt	-11.0942
inda	-11.0942
ome	-11.0945
▁tusks	-11.0947
▁convey	-11.0952
75	-11.0953
▁peaks	-11.0954
▁prayed	-11.0955
▁Sy	-11.0957
iding	-11.0975
iff	-11.098
▁tournaments	-11.0982
gent	-11.0983
▁Narmada	-11.0985
▁chamber	-11.0985
▁doctrine	-11.0985
▁glorious	-11.0985
▁harvest	-11.0985
▁politician	-11.0985
▁rebellion	-11.0985
▁reservoir	-11.0985
▁wilderness	-11.0985
▁innocent	-11.0985
▁Blue	-11.0985
▁Maruts	-11.0985
▁Besides	-11.0985
▁disagreeable	-11.0985
▁envy	-11.0985
▁1973	-11.0985
▁alms	-11.0986
▁shaking	-11.0986
▁steel	-11.0986
▁Wales	-11.0987
▁communication	-11.0987
▁jackals	-11.0988
▁eminent	-11.0991
▁Rome	-11.0993
▁represents	-11.0993
▁85	-11.0993
▁seventy	-11.0993
▁Arab	-11.0996
▁participated	-11.0997
▁500	-11.0997
holder	-11.0999
▁tower	-11.0999
▁wooden	-11.1002
▁tear	-11.1004
nor	-11.101
▁।	-11.1011
▁proved	-11.1012
aji	-11.102
▁partake	-11.1022
giving	-11.1031
▁actors	-11.1032
▁hunter	-11.1033
▁watching	-11.1033
▁bathe	-11.1035
ack	-11.1039
ites	-11.104
▁stayed	-11.1041
▁entertained	-11.1043
▁Sid	-11.1043
▁thigh	-11.1044
▁parent	-11.1045
▁shared	-11.1048
▁wounds	-11.105
▁Räkşasas	-11.105
▁tongues	-11.1051
▁abandoning	-11.1053
▁prayers	-11.1064
!'	-11.1078
▁bonds	-11.1079
▁topic	-11.1081
▁fold	-11.1081
▁32	-11.1081
▁roared	-11.1083
▁settings	-11.1083
▁forget	-11.1084
▁Pun	-11.1084
▁replace	-11.1085
▁rows	-11.1096
▁Laks	-11.11
▁Sil	-11.11
ș	-11.1101
▁seas	-11.1101
▁Chyavana	-11.1103
▁Gentiles	-11.1103
▁Haasan	-11.1103
▁Kaikeya	-11.1103
▁Maithili	-11.1103
▁Vibhisana	-11.1103
▁abstention	-11.1103
▁cupidity	-11.1103
▁fifteen	-11.1103
▁magazine	-11.1103
▁recipient	-11.1103
▁syndrome	-11.1103
▁wroth	-11.1103
chieving	-11.1103
▁worse	-11.1103
itude	-11.1103
▁Yogin	-11.1103
▁Premier	-11.1103
▁Winter	-11.1103
▁subtle	-11.1103
▁Trans	-11.1104
▁Vinata	-11.1105
uv	-11.1106
▁Patel	-11.1107
▁Team	-11.1109
kot	-11.1111
▁bells	-11.1112
▁=	-11.1113
▁instructed	-11.1123
gad	-11.1125
▁fears	-11.1126
▁sur	-11.1136
▁suggested	-11.1136
▁coin	-11.1138
▁Sit	-11.1139
▁regularly	-11.1143
▁Arch	-11.1144
ele	-11.1145
▁indicate	-11.1147
▁featured	-11.1148
dam	-11.1155
shta	-11.1156
▁crushing	-11.1156
▁checking	-11.1165
▁achievements	-11.1167
▁certificates	-11.117
▁attract	-11.1173
avas	-11.1176
uli	-11.119
ST	-11.1199
▁weep	-11.1199
language	-11.1202
▁flood	-11.1203
▁dates	-11.1216
usha	-11.1221
▁Belgian	-11.1222
▁Heritage	-11.1222
▁Kentucky	-11.1222
▁Prithviraj	-11.1222
▁Religion	-11.1222
▁experiment	-11.1222
▁extraordinary	-11.1222
▁fifty	-11.1222
▁keyword	-11.1222
▁philosophy	-11.1222
▁proposed	-11.1222
▁silence	-11.1222
▁Indonesia	-11.1222
▁Pallava	-11.1222
▁Victoria	-11.1222
▁ancestr	-11.1222
▁burst	-11.1222
▁federal	-11.1222
▁overpowered	-11.1222
▁strict	-11.1222
▁depict	-11.1222
▁joining	-11.1222
▁interval	-11.1223
▁poem	-11.1224
▁Q	-11.1224
▁blameless	-11.1224
▁sanctified	-11.1224
▁discipline	-11.1225
▁hospitality	-11.1225
▁stable	-11.1226
▁alter	-11.1228
▁resembles	-11.1229
▁repressor	-11.123
hel	-11.1231
)?	-11.1233
▁contribution	-11.1235
▁reality	-11.1238
cep	-11.1239
▁axes	-11.1243
▁Dil	-11.1248
▁pursue	-11.1251
▁summoned	-11.1254
▁Cal	-11.1255
▁spreading	-11.1256
▁Code	-11.1259
▁rating	-11.126
▁inscriptions	-11.126
▁sighing	-11.1264
61	-11.1265
AR	-11.1266
kā	-11.1269
▁websites	-11.1269
▁medicines	-11.1269
▁IP	-11.1272
ook	-11.1272
▁Main	-11.1273
vā	-11.1273
▁prophets	-11.1274
pul	-11.1274
fire	-11.128
▁street	-11.1285
▁fragments	-11.1288
app	-11.1288
▁workers	-11.1289
atory	-11.129
lal	-11.1297
▁angels	-11.13
▁haste	-11.1307
▁summon	-11.131
Spoken	-11.1322
▁ser	-11.1324
vari	-11.1326
▁speaks	-11.1326
▁opponents	-11.1329
▁rob	-11.1334
gram	-11.1338
98	-11.1341
▁drain	-11.1341
▁Commonwealth	-11.1342
▁magnanimous	-11.1342
▁nostril	-11.1342
▁parallel	-11.1342
▁syphilis	-11.1342
▁gratify	-11.1342
▁amazed	-11.1342
▁picturesque	-11.1342
▁behest	-11.1342
lov	-11.1342
▁1948	-11.1343
▁southwest	-11.1343
▁foul	-11.1343
▁Golden	-11.1346
don	-11.1346
ox	-11.1346
▁inclined	-11.1347
▁bold	-11.1349
▁outcome	-11.1349
▁earthly	-11.1349
▁factors	-11.1354
▁weakened	-11.1355
▁secondary	-11.1361
mukha	-11.1364
nate	-11.1366
▁friendly	-11.1369
ua	-11.1377
ways	-11.1378
▁FC	-11.1381
▁300	-11.1392
▁usage	-11.1394
▁streets	-11.14
rom	-11.1401
▁Kin	-11.1405
▁Bab	-11.1406
▁y	-11.1414
aksha	-11.1415
▁Any	-11.1416
▁instruction	-11.1417
mail	-11.142
▁belonged	-11.1423
▁recover	-11.1424
▁specially	-11.1425
under	-11.1432
ette	-11.1433
▁Bell	-11.1434
ood	-11.1434
▁pet	-11.1437
▁attach	-11.144
▁funds	-11.1444
First	-11.1444
▁(19	-11.1446
▁preserve	-11.1448
▁transgress	-11.1452
▁tenth	-11.1452
cia	-11.1455
▁shake	-11.1456
▁patron	-11.1463
्र	-11.1463
▁Research	-11.1464
▁Secretary	-11.1464
▁narrative	-11.1464
▁prevail	-11.1464
▁buried	-11.1464
▁Periyar	-11.1464
▁narrow	-11.1464
▁Renunciation	-11.1464
▁1965	-11.1465
▁authorities	-11.1465
▁Shukra	-11.1469
▁merge	-11.147
hava	-11.147
▁Bandy	-11.1471
▁divorced	-11.1471
▁opt	-11.1472
▁sections	-11.1473
bat	-11.1474
▁Shankara	-11.1475
▁diagnosed	-11.1477
▁nice	-11.1477
▁attainment	-11.1477
▁contribut	-11.1478
▁heroism	-11.1483
▁southeast	-11.1485
▁challenged	-11.1489
turn	-11.1491
▁possesses	-11.1494
▁telling	-11.1496
°	-11.1499
▁disorders	-11.1499
▁promoted	-11.1501
▁Pay	-11.1505
▁Rani	-11.1508
▁Shor	-11.1514
udra	-11.1514
▁supporter	-11.1514
▁Sm	-11.1521
cher	-11.1523
eal	-11.153
sara	-11.1531
▁immortal	-11.1532
self	-11.1532
yr	-11.1532
▁prophet	-11.1533
▁muscle	-11.1534
▁?	-11.1538
▁heap	-11.1539
non	-11.1539
▁Bai	-11.1541
ui	-11.1544
▁Rich	-11.1547
obs	-11.1547
▁documents	-11.1548
▁2022.	-11.1549
▁males	-11.155
▁ratio	-11.1552
▁attacking	-11.1554
▁inhabit	-11.1555
▁arrest	-11.1555
▁artist	-11.1561
ace	-11.1562
going	-11.1562
rated	-11.1563
Drona	-11.1568
▁Office	-11.157
How	-11.1571
▁resolve	-11.1571
rao	-11.1575
▁Shan	-11.1576
▁quivers	-11.1577
95	-11.1578
▁thirteen	-11.158
▁aspects	-11.1581
nan	-11.1583
▁pur	-11.1587
ñ	-11.1587
▁Alexander	-11.1587
▁Census	-11.1587
▁Humayun	-11.1587
▁Instacart	-11.1587
▁Kamboja	-11.1587
▁Scotland	-11.1587
▁completion	-11.1587
▁destructive	-11.1587
▁facilities	-11.1587
▁familiar	-11.1587
▁leather	-11.1587
▁perhaps	-11.1587
▁procedure	-11.1587
▁remnant	-11.1587
▁therapy	-11.1587
▁survey	-11.1587
▁Sthiti	-11.1587
▁behavior	-11.1587
▁crash	-11.1587
▁talent	-11.1588
▁copies	-11.1588
▁75	-11.1589
▁missing	-11.159
▁Blessed	-11.1593
chan	-11.1593
▁skies	-11.1593
▁frightful	-11.1595
▁Simon	-11.1595
▁composer	-11.1598
▁petals	-11.1598
▁peacocks	-11.1599
▁arena	-11.1603
poli	-11.1606
iti	-11.1609
▁payments	-11.1612
▁Pharisees	-11.1613
▁reaches	-11.1614
▁formal	-11.1615
▁Ze	-11.1616
▁unless	-11.162
▁pole	-11.1625
Co	-11.1626
87	-11.1632
▁64	-11.1644
▁Kill	-11.1645
▁Ghats	-11.1649
▁Yogi	-11.1649
ranger	-11.1657
▁Brāhmaṇa	-11.166
body	-11.1668
after	-11.1669
take	-11.1673
▁suffers	-11.1674
▁bat	-11.1674
▁Ask	-11.1676
▁obstruct	-11.168
▁ki	-11.1683
sight	-11.1684
▁behoves	-11.1684
ux	-11.1685
Under	-11.1694
class	-11.1694
▁Rudras	-11.1694
IT	-11.1699
▁compete	-11.1699
bil	-11.1701
▁colors	-11.1701
▁wag	-11.1703
uni	-11.1706
rika	-11.1709
▁joint	-11.1712
▁Ikşvāku	-11.1712
▁Kolkata	-11.1712
▁Takshaka	-11.1712
▁Vasiştha	-11.1712
▁dialect	-11.1712
▁ethnic	-11.1712
▁nephew	-11.1712
▁rectangle	-11.1712
▁Bachchan	-11.1712
▁Czech	-11.1712
▁1968	-11.1712
▁attitude	-11.1713
▁betray	-11.1713
▁dragging	-11.1713
▁separation	-11.1714
▁fluid	-11.1714
▁Sultanate	-11.1715
▁nomination	-11.1716
▁Mandara	-11.1716
▁Right	-11.1717
▁anywhere	-11.1718
cries	-11.1718
▁Dandaka	-11.172
▁differences	-11.1723
▁discussion	-11.1727
▁plane	-11.1728
▁Constitution	-11.1729
yard	-11.173
▁Shakti	-11.1737
▁perceived	-11.1743
▁Bring	-11.1744
▁gladly	-11.1749
ured	-11.175
▁borders	-11.1762
ode	-11.1767
▁insulted	-11.177
khan	-11.1779
▁lamenting	-11.1779
▁poorly	-11.1782
▁Big	-11.1783
▁crore	-11.179
▁Kara	-11.1793
▁endure	-11.1804
▁gains	-11.1804
▁goat	-11.1806
hr	-11.181
while	-11.1819
PA	-11.182
▁goodness	-11.1821
▁witnessed	-11.1821
▁Log	-11.1824
▁Kir	-11.1824
▁conquering	-11.1824
▁USA	-11.1827
far	-11.1827
four	-11.1829
mini	-11.1831
▁Sau	-11.1836
▁http	-11.1839
possibly	-11.1839
▁Dhaumya	-11.1839
▁extension	-11.1839
▁fashion	-11.1839
▁ghee	-11.1839
▁inaccessible	-11.1839
▁physician	-11.1839
▁Rajasuya	-11.1839
▁tirtha	-11.1839
▁Shastras	-11.1839
▁surpass	-11.1839
▁Bathing	-11.1839
▁Command	-11.1839
▁relief	-11.1839
▁1952	-11.184
▁phase	-11.184
▁fortnight	-11.184
▁align	-11.184
▁pursuit	-11.184
▁excessive	-11.1841
tent	-11.1843
▁Pal	-11.1843
▁chair	-11.1843
06	-11.1845
▁brown	-11.1851
▁Gita	-11.1851
▁sanctioned	-11.1853
▁thinks	-11.1855
▁habits	-11.1856
een	-11.186
▁employ	-11.186
99	-11.186
▁Bat	-11.1862
▁descending	-11.1867
▁projects	-11.1867
▁distinguished	-11.187
▁blossoms	-11.187
▁emotion	-11.1871
km	-11.1873
▁Ly	-11.1876
mati	-11.1881
▁mango	-11.1885
▁lungs	-11.1888
▁interested	-11.1892
▁Manes	-11.1893
▁businesses	-11.1893
▁Karan	-11.1902
▁faster	-11.1905
▁souled	-11.1907
jit	-11.191
▁operator	-11.1918
▁employee	-11.1918
▁largely	-11.1919
▁posture	-11.192
▁Zo	-11.1925
▁strokes	-11.1926
suing	-11.1927
▁lung	-11.193
▁Shudras	-11.1934
load	-11.194
▁Gh	-11.1941
▁Ag	-11.1942
▁Gro	-11.1946
▁breathe	-11.1947
Click	-11.1947
Z	-11.1947
▁divide	-11.195
▁flights	-11.1952
▁rapid	-11.1952
▁eggs	-11.1954
▁closely	-11.196
cry	-11.1961
▁evils	-11.1962
▁45	-11.1965
pel	-11.1965
▁uphold	-11.1967
ु	-11.1967
▁Dasharha	-11.1967
▁Vindhya	-11.1967
▁administrator	-11.1967
▁endeavour	-11.1967
▁parentheses	-11.1967
▁perception	-11.1967
▁qualified	-11.1967
▁genre	-11.1967
▁Text	-11.1967
▁subsist	-11.1967
▁Kurukshetra	-11.1968
▁tribal	-11.1968
▁1967	-11.1968
▁Moses	-11.1968
▁Somakas	-11.1969
▁Mission	-11.197
▁admin	-11.197
▁Persons	-11.1971
asmuch	-11.1974
▁masters	-11.1975
▁drivers	-11.1977
▁dresses	-11.1978
▁generated	-11.198
▁paths	-11.1991
▁burns	-11.1993
▁III	-11.1993
▁commits	-11.1996
▁establish	-11.2013
▁Bad	-11.2014
▁desir	-11.2029
5,000	-11.203
97	-11.2032
My	-11.2038
▁Part	-11.2043
▁shops	-11.2046
more	-11.2051
▁components	-11.2053
▁earning	-11.2057
▁Within	-11.2065
▁charges	-11.2069
▁leagues	-11.2075
▁stronger	-11.2075
▁yoke	-11.2081
oka	-11.2081
▁Sav	-11.2083
▁liberal	-11.2095
▁horizon	-11.2096
▁Hidimba	-11.2097
▁Malaysia	-11.2097
▁Sringeri	-11.2097
▁adjust	-11.2097
▁alternative	-11.2097
▁coffee	-11.2097
▁virulent	-11.2097
▁Power	-11.2097
▁crystal	-11.2097
▁Goddess	-11.2097
▁vertical	-11.2097
▁criminal	-11.2097
▁colonial	-11.2098
▁Auto	-11.21
▁vanity	-11.21
▁Choose	-11.2102
▁Hinduism	-11.2103
dhara	-11.2105
RA	-11.2106
▁poll	-11.2108
▁civilian	-11.2108
▁compare	-11.2112
▁relatively	-11.2113
five	-11.2113
▁rejoiced	-11.2117
tory	-11.2122
▁charioteers	-11.2122
▁fatigued	-11.2127
62	-11.2128
▁Pune	-11.2131
wards	-11.2132
jana	-11.2133
▁rescu	-11.2137
stone	-11.2141
▁jump	-11.2149
▁invested	-11.2152
▁reflecting	-11.2156
▁theory	-11.2158
▁Representatives	-11.216
▁gang	-11.2175
pana	-11.2182
▁argument	-11.2183
cover	-11.2183
▁discover	-11.2187
▁strings	-11.2193
▁launch	-11.2196
▁withdraw	-11.22
tical	-11.2201
dhar	-11.2203
▁renam	-11.2203
pada	-11.2203
style	-11.2206
▁arrangements	-11.2208
•	-11.2209
▁infuriate	-11.2213
▁tough	-11.2214
lord	-11.2216
▁define	-11.2218
▁Count	-11.222
▁tasks	-11.222
tial	-11.2224
▁exterminat	-11.2226
iga	-11.2226
▁Satrughna	-11.2229
▁fabric	-11.2229
▁license	-11.2229
▁motive	-11.2229
▁nails	-11.2229
▁hawk	-11.2229
▁plateau	-11.2229
▁hostility	-11.2229
▁renunciation	-11.2229
▁infected	-11.223
▁1966	-11.223
▁1940	-11.223
▁Joseph	-11.223
▁barley	-11.2231
▁stolen	-11.2232
▁outbreak	-11.2234
▁consistent	-11.2234
▁downwards	-11.2237
▁blossoming	-11.2237
▁Vishva	-11.2238
▁Law	-11.2242
▁Inc	-11.2242
▁login	-11.2242
▁voices	-11.2244
▁calculated	-11.2245
▁Sala	-11.225
▁Vrisha	-11.225
▁Did	-11.2256
▁expectation	-11.2257
▁busy	-11.2257
▁swelling	-11.2258
▁Show	-11.2261
▁laughed	-11.2261
▁sticks	-11.2263
▁map	-11.2264
▁slaves	-11.2264
fr	-11.2268
▁Actor	-11.2275
▁laugh	-11.2281
▁pairs	-11.2289
▁knots	-11.229
▁Tha	-11.229
69	-11.2294
35	-11.2296
▁feeding	-11.2301
▁relative	-11.2304
▁perfumes	-11.2305
lder	-11.2305
rai	-11.2313
▁fees	-11.2314
ough	-11.2319
▁lift	-11.233
22	-11.2338
▁Chu	-11.234
▁scan	-11.234
▁User	-11.2343
gate	-11.2345
▁blaze	-11.2346
▁survive	-11.2346
▁Sanjay	-11.2347
▁troubles	-11.2352
▁ranges	-11.2353
▁recollect	-11.2355
▁regaining	-11.2356
▁flash	-11.2357
▁differ	-11.236
▁Caves	-11.236
paternal	-11.2361
▁Kabaddi	-11.2362
▁Kinnaras	-11.2362
▁bronze	-11.2362
▁delusion	-11.2362
▁smitten	-11.2362
▁terrace	-11.2362
▁finance	-11.2362
▁Member	-11.2362
▁1963	-11.2363
▁meteor	-11.2363
▁Pierc	-11.2363
▁successor	-11.2364
▁1930	-11.2364
▁grim	-11.2364
bodied	-11.2364
▁Common	-11.2364
▁sprinkled	-11.2365
▁rebel	-11.2365
▁awareness	-11.2366
▁assistant	-11.2368
▁regulation	-11.2368
▁Shini	-11.2368
▁carwarrior	-11.2372
▁unclean	-11.2374
▁despatched	-11.2374
mbi	-11.2375
▁indicated	-11.238
cri	-11.2381
▁oceans	-11.2383
▁briefly	-11.2383
All	-11.2383
▁registered	-11.2388
▁Rajas	-11.2389
▁medals	-11.239
gr	-11.2394
▁swa	-11.2396
▁guided	-11.2399
▁Puranas	-11.2402
▁layers	-11.2403
▁Land	-11.2409
viv	-11.2411
▁Wil	-11.2412
▁Sad	-11.2422
▁Endu	-11.2423
▁rangers	-11.2426
▁bands	-11.2426
▁Hol	-11.2427
▁sigh	-11.2433
tail	-11.2444
tell	-11.2444
▁400	-11.2444
natha	-11.2445
▁Asanas	-11.2447
▁trained	-11.2448
▁Gha	-11.2454
▁musicians	-11.2454
▁attempted	-11.2456
▁frog	-11.2458
used	-11.246
▁merchants	-11.2461
▁strange	-11.2464
▁commission	-11.2465
▁distinguish	-11.2465
▁requirements	-11.2469
▁smiles	-11.2473
▁sheet	-11.2473
▁Vir	-11.2474
friend	-11.2477
Jesus	-11.2477
03	-11.2481
▁36	-11.2482
active	-11.2482
pot	-11.2485
bility	-11.249
lain	-11.2494
▁covet	-11.2496
://	-11.2497
▁calamities	-11.2497
▁cognizant	-11.2497
▁indestructible	-11.2497
▁pollution	-11.2497
▁pregnancy	-11.2497
▁slept	-11.2497
▁timid	-11.2497
▁vaccine	-11.2497
▁Control	-11.2497
▁visual	-11.2497
▁Surround	-11.2497
▁meditate	-11.2498
▁flew	-11.2498
▁sample	-11.2498
▁rattle	-11.2498
▁Chopra	-11.2498
▁DNA	-11.2499
▁Light	-11.2499
▁chairman	-11.25
▁designated	-11.25
▁Ever	-11.25
▁1920	-11.2501
▁Saint	-11.2501
▁flora	-11.2502
▁airs	-11.2504
▁truthfulness	-11.2505
▁Nishada	-11.2505
▁CEO	-11.2508
▁Miss	-11.2508
▁Put	-11.2509
▁Kur	-11.2513
grade	-11.2515
▁organizations	-11.2517
▁bewailed	-11.2517
▁coastal	-11.2518
71	-11.252
▁greatness	-11.2528
▁overall	-11.2528
▁Cast	-11.2546
post	-11.2546
▁jumping	-11.2547
▁Cro	-11.2548
▁Bla	-11.255
bas	-11.2552
▁explains	-11.2552
▁Pho	-11.2554
lab	-11.2555
nov	-11.2565
▁palaces	-11.2565
lum	-11.2565
▁periods	-11.2568
▁Tar	-11.2568
ific	-11.2574
hika	-11.2575
▁institutions	-11.258
▁Web	-11.2587
dharma	-11.2593
▁dominion	-11.2593
▁Purana	-11.2597
esirous	-11.26
hold	-11.2602
While	-11.2614
▁violent	-11.2622
▁Cu	-11.2623
gri	-11.2628
▁titles	-11.2633
▁pul	-11.2633
▁occupation	-11.2634
▁Marutta	-11.2634
▁Museum	-11.2634
▁Ontario	-11.2634
▁Switch	-11.2634
▁qualification	-11.2634
▁vitamin	-11.2634
▁smear	-11.2634
▁straw	-11.2634
▁valour	-11.2634
▁mandate	-11.2634
▁Draw	-11.2634
▁shook	-11.2635
65	-11.2635
▁Express	-11.2635
▁demonstration	-11.2636
▁Food	-11.2637
▁Ksh	-11.2638
▁solution	-11.2639
▁(2	-11.264
▁clasped	-11.2644
▁associate	-11.2645
▁Around	-11.2645
▁subsequently	-11.2646
khi	-11.2647
▁quiz	-11.2649
▁medium	-11.2649
▁spine	-11.265
▁2003.	-11.2652
jaya	-11.2652
riya	-11.2653
▁verses	-11.2655
▁gray	-11.2656
▁pipe	-11.2657
▁gem	-11.2658
▁resounding	-11.266
▁electronic	-11.2662
▁skins	-11.2664
▁troubled	-11.2665
▁constituted	-11.2667
▁jumped	-11.2668
▁grains	-11.2668
pad	-11.2674
▁Dhan	-11.2674
▁welcomed	-11.2675
▁Latin	-11.2675
▁bolt	-11.2684
keeper	-11.2686
▁painted	-11.2689
▁Tara	-11.2689
ilt	-11.2704
▁Site	-11.2706
▁washing	-11.2707
▁Mur	-11.2708
▁constitution	-11.2709
ington	-11.2712
▁adults	-11.2712
▁rolling	-11.2715
Lo	-11.2716
▁accordingly	-11.2717
āla	-11.2717
▁Alam	-11.2718
▁arrive	-11.2718
▁possessions	-11.2722
▁lighted	-11.2723
tty	-11.2725
bound	-11.2725
ulation	-11.2737
▁Matsyas	-11.2737
▁Brahmin	-11.2739
▁2002.	-11.2743
yā	-11.2749
space	-11.2757
great	-11.2757
▁continuous	-11.2758
▁Maurya	-11.276
▁injur	-11.2761
▁herds	-11.2762
▁Def	-11.277
▁Shraddhas	-11.277
▁prefer	-11.2772
▁Massachusetts	-11.2773
▁Unmanifest	-11.2773
▁museum	-11.2773
▁wheat	-11.2773
▁Ashvins	-11.2773
▁mysteries	-11.2773
▁tortoise	-11.2773
▁upraised	-11.2773
▁premier	-11.2773
▁Consider	-11.2773
▁Budget	-11.2773
▁maintenance	-11.2773
▁lunar	-11.2773
▁deserving	-11.2773
▁assault	-11.2774
▁Richard	-11.2774
▁Falls	-11.2774
▁portray	-11.2774
▁Series	-11.2775
▁Ashvathama	-11.2775
▁Krita	-11.2776
▁controls	-11.2777
▁avoided	-11.2777
▁entertainment	-11.2777
ivity	-11.2778
▁dishes	-11.2778
▁Town	-11.2778
tz	-11.2779
very	-11.278
▁invoked	-11.2782
24	-11.2782
▁planet	-11.2785
▁Christians	-11.2786
▁scorcher	-11.2786
▁dispatched	-11.2789
▁edition	-11.2789
▁lowest	-11.279
▁dismissed	-11.2793
▁scheduled	-11.2794
▁Vikram	-11.2799
having	-11.2799
bow	-11.28
▁Adityas	-11.2802
▁wept	-11.2808
▁si	-11.2813
▁Page	-11.2814
▁Bharat	-11.2817
▁purchased	-11.2821
▁blocks	-11.2823
▁dash	-11.2824
▁devoured	-11.2829
▁structures	-11.283
▁Forest	-11.2832
▁Sharma	-11.2832
▁errors	-11.2836
▁graphic	-11.2849
▁patterns	-11.2849
▁ending	-11.2851
▁fatal	-11.2853
▁disk	-11.2857
▁stem	-11.2858
versed	-11.2868
Himalayan	-11.2877
▁propitiat	-11.2882
human	-11.2889
▁courts	-11.29
gger	-11.2901
▁pond	-11.2901
OS	-11.2904
▁threat	-11.2907
▁Das	-11.2909
table	-11.291
TA	-11.2914
ț	-11.2914
▁Ancient	-11.2914
▁GIMP	-11.2914
▁Kailasa	-11.2914
▁Tokyo	-11.2914
▁Vibhatsu	-11.2914
▁entrance	-11.2914
▁inconceivable	-11.2914
▁policies	-11.2914
▁tributary	-11.2914
▁trumpet	-11.2914
▁sesame	-11.2914
▁Bangalore	-11.2914
▁Social	-11.2914
▁Mountain	-11.2914
▁Pranayama	-11.2914
▁Philip	-11.2914
▁famine	-11.2914
▁1957	-11.2915
▁shipping	-11.2915
▁1962	-11.2915
▁Prize	-11.2915
▁strew	-11.2915
▁Hrishikesha	-11.2915
▁tourism	-11.2916
▁estate	-11.2916
▁acute	-11.2917
range	-11.2918
▁Maruta	-11.2919
▁relat	-11.2919
▁Mitra	-11.2919
▁dimension	-11.2919
▁rewards	-11.2925
abad	-11.293
▁attraction	-11.2931
▁Desire	-11.2934
▁subjection	-11.2935
▁concerned	-11.2939
▁Meet	-11.2943
oz	-11.2947
type	-11.2947
▁react	-11.2948
▁listened	-11.2949
85	-11.2954
▁infections	-11.2956
▁preached	-11.2957
▁Vik	-11.2963
▁fails	-11.2969
▁temper	-11.298
own	-11.298
64	-11.2985
uti	-11.2986
▁Yogins	-11.2986
amba	-11.2989
matic	-11.299
33	-11.2991
▁adopting	-11.2992
▁fo	-11.2995
▁id	-11.2995
▁suggests	-11.2996
▁dearer	-11.2996
▁ref	-11.2999
94	-11.3006
▁deals	-11.3011
▁continu	-11.3019
▁Agra	-11.3023
▁reveal	-11.3024
▁poet	-11.3026
▁plate	-11.3028
▁devotee	-11.3032
▁grain	-11.3036
▁decades	-11.3037
▁Shrutis	-11.3038
▁talked	-11.3038
▁Lal	-11.3038
▁Vo	-11.3042
Alas	-11.3045
▁colon	-11.3046
sky	-11.3054
hari	-11.3057
▁Alambusha	-11.3057
▁Devayani	-11.3057
▁Pulastya	-11.3057
▁Sambhaji	-11.3057
▁Susharma	-11.3057
▁artificial	-11.3057
▁cuisine	-11.3057
▁currency	-11.3057
▁earthquake	-11.3057
▁elbow	-11.3057
▁hostilities	-11.3057
▁imperial	-11.3057
▁lacrosse	-11.3057
▁neutral	-11.3057
▁poverty	-11.3057
▁precepts	-11.3057
▁shadow	-11.3057
▁solitary	-11.3057
▁uncertain	-11.3057
▁reddened	-11.3057
▁Nizam	-11.3057
▁thieves	-11.3057
▁Depend	-11.3057
▁consent	-11.3057
▁Thomas	-11.3057
▁indigenous	-11.3057
▁robbed	-11.3057
▁prize	-11.3057
▁Righteousness	-11.3057
▁executive	-11.3057
▁Profit	-11.3057
▁random	-11.3058
▁Robert	-11.3058
▁Vasuki	-11.3058
▁immortality	-11.3059
▁genetic	-11.3059
▁ski	-11.306
▁Often	-11.306
▁belt	-11.306
▁clash	-11.306
▁Rafi	-11.3061
▁Daksha	-11.3061
▁farmers	-11.3062
▁acknowledg	-11.3063
▁Drive	-11.3064
▁Thank	-11.3064
▁Parvata	-11.3066
▁instrumental	-11.3067
▁piteously	-11.3067
▁confounded	-11.3069
also	-11.3069
▁Mahi	-11.3075
▁whatsoever	-11.3075
fu	-11.3076
▁encouraged	-11.308
▁Om	-11.3081
▁channels	-11.3083
▁stu	-11.3084
▁Din	-11.3084
▁claims	-11.3091
▁signal	-11.3094
▁exercised	-11.3096
▁Guha	-11.3099
▁punished	-11.31
▁Siva	-11.3109
▁operators	-11.3112
▁drops	-11.3113
▁epic	-11.3122
▁speeches	-11.3125
night	-11.3128
andha	-11.3129
▁balls	-11.3138
rah	-11.3141
▁apartments	-11.3144
▁slide	-11.3149
ained	-11.3153
than	-11.3155
▁Nar	-11.3168
▁legend	-11.3169
▁IN	-11.3171
▁fruitless	-11.3176
stream	-11.318
which	-11.3182
Mo	-11.3184
▁fro	-11.3193
▁printer	-11.3194
▁applications	-11.3196
▁lamp	-11.3198
▁permit	-11.3201
▁Dun	-11.3201
▁Hockey	-11.3202
▁Kumbhakarņa	-11.3202
▁MHRD	-11.3202
▁Nawab	-11.3202
▁Prahlada	-11.3202
▁Public	-11.3202
▁Răma	-11.3202
▁Vişnu	-11.3202
▁diamond	-11.3202
▁gigantic	-11.3202
▁medicinal	-11.3202
▁minimum	-11.3202
▁tempest	-11.3202
▁vehemence	-11.3202
▁vocal	-11.3202
▁unsuccessful	-11.3202
▁Computer	-11.3202
▁overseas	-11.3202
▁pledge	-11.3202
▁adapt	-11.3202
▁suburb	-11.3202
▁thumb	-11.3202
▁intercourse	-11.3202
▁Records	-11.3202
▁sloka	-11.3202
▁Andaman	-11.3202
▁wore	-11.3202
▁Gangā	-11.3203
▁expiration	-11.3203
▁electricity	-11.3203
▁urge	-11.3204
▁Christianity	-11.3204
▁precede	-11.3204
▁Breathing	-11.3205
▁consultation	-11.3207
aki	-11.3208
▁conceived	-11.3209
ground	-11.321
▁deem	-11.3215
▁Sacrifices	-11.3215
▁latest	-11.3223
▁opera	-11.3223
hat	-11.3223
▁ingredients	-11.323
▁parameters	-11.3232
▁cleaning	-11.3232
there	-11.3233
▁150	-11.3235
▁swan	-11.3239
▁Artha	-11.3242
▁treaty	-11.325
92	-11.3258
ius	-11.3258
▁Pakistani	-11.3261
▁requires	-11.3273
▁Americans	-11.328
▁debuted	-11.3286
list	-11.3289
▁rid	-11.3291
23	-11.33
net	-11.3302
tika	-11.3302
▁Remember	-11.3308
▁emotional	-11.3312
▁programme	-11.3316
▁column	-11.3318
▁parameter	-11.3319
▁expression	-11.3322
▁beg	-11.3323
▁Aditya	-11.3324
▁adding	-11.3327
▁kite	-11.3328
▁Kul	-11.3335
▁portions	-11.3337
cker	-11.3341
▁watched	-11.3343
▁immun	-11.3347
▁Desktop	-11.3349
О	-11.3349
▁Arghya	-11.3349
▁Missouri	-11.3349
▁Scroll	-11.3349
▁Srinivas	-11.3349
▁atmosphere	-11.3349
▁defensive	-11.3349
▁despair	-11.3349
▁evident	-11.3349
▁illustrat	-11.3349
▁inexhaustible	-11.3349
▁necessity	-11.3349
▁nervous	-11.3349
▁respond	-11.3349
▁revolt	-11.3349
▁unmanifest	-11.3349
▁Nishadhas	-11.3349
▁aquatic	-11.3349
▁mendicant	-11.3349
▁ravish	-11.3349
▁clever	-11.3349
▁Everything	-11.3349
▁Front	-11.3349
▁surname	-11.3349
▁1949	-11.3349
▁Health	-11.335
▁accordance	-11.335
▁brick	-11.335
▁Night	-11.3352
▁minus	-11.3354
▁settle	-11.3356
▁accepting	-11.3358
ought	-11.3359
apa	-11.3361
▁reaction	-11.3363
▁guards	-11.3368
▁pose	-11.337
▁Mun	-11.3373
▁sharpness	-11.3374
vy	-11.3377
boat	-11.3378
east	-11.3382
wheels	-11.3387
▁annually	-11.3387
▁attracted	-11.3389
cious	-11.3394
▁alike	-11.3394
▁whirling	-11.3395
▁poly	-11.34
▁Nan	-11.3405
▁Anna	-11.3406
▁postures	-11.3406
▁bin	-11.3407
▁doors	-11.3408
▁Mai	-11.3413
▁sow	-11.3413
▁forgiving	-11.3414
rab	-11.3415
▁roam	-11.3421
▁jobs	-11.3433
▁naturally	-11.3434
ional	-11.3442
▁fixing	-11.3445
▁slaughtering	-11.3445
point	-11.3449
▁cultures	-11.345
▁Bru	-11.3453
▁expecting	-11.3457
▁implement	-11.3458
▁fare	-11.347
▁Sva	-11.3472
▁characteristic	-11.3473
Which	-11.3478
▁narrate	-11.3482
▁participate	-11.3482
▁shortly	-11.3485
fight	-11.3485
▁Fal	-11.3487
▁coats	-11.3487
tle	-11.349
west	-11.349
loom	-11.3494
▁covetous	-11.3497
▁Play	-11.3497
▁Carnatic	-11.3498
▁Gandhamadana	-11.3498
▁Support	-11.3498
▁adversary	-11.3498
▁astonished	-11.3498
▁breeze	-11.3498
▁crooked	-11.3498
▁emancipation	-11.3498
▁grateful	-11.3498
▁humbly	-11.3498
▁obedience	-11.3498
▁pigeon	-11.3498
▁scimitar	-11.3498
▁substitute	-11.3498
▁swine	-11.3498
▁unconscious	-11.3498
ह	-11.3498
▁invaded	-11.3498
▁Ashvamedha	-11.3498
▁prostrate	-11.3498
▁remote	-11.3498
▁admir	-11.3498
▁Region	-11.3498
▁Satyavati	-11.3498
▁contemplation	-11.3499
▁navel	-11.3499
▁1961	-11.3499
▁tread	-11.3499
▁parish	-11.35
▁percentage	-11.35
▁1000	-11.3501
▁unrighteousness	-11.3501
▁jail	-11.3502
▁wa	-11.3502
hini	-11.3502
▁suck	-11.3503
▁Jack	-11.3505
▁Hello	-11.3508
▁Vā	-11.351
▁recognised	-11.3517
▁scattering	-11.3523
▁absorbed	-11.3523
▁Rs	-11.3525
▁gall	-11.3526
rey	-11.3527
▁Ken	-11.3534
▁Mont	-11.3541
▁33	-11.3548
▁Read	-11.355
▁CD	-11.3552
oke	-11.3552
▁amounts	-11.3554
▁asses	-11.3555
▁coal	-11.3556
▁guarded	-11.3557
▁Move	-11.3561
▁ranger	-11.3563
▁heaps	-11.3567
ike	-11.3572
ket	-11.3579
MA	-11.3579
▁dances	-11.3602
56	-11.3605
gene	-11.3607
bala	-11.3608
nut	-11.3628
Q	-11.363
▁undergo	-11.3633
▁immediate	-11.3634
chari	-11.3636
book	-11.3636
▁Santa	-11.3641
▁compris	-11.3643
ologist	-11.3643
▁consisted	-11.3646
▁plum	-11.3648
▁Entertainment	-11.365
▁Lahore	-11.365
▁Tendulkar	-11.365
▁guitar	-11.365
▁liberation	-11.365
▁miseries	-11.365
▁opposition	-11.365
▁reproach	-11.365
▁utmost	-11.365
▁widespread	-11.365
▁institute	-11.365
▁leaf	-11.365
▁measuring	-11.365
▁Course	-11.365
▁depth	-11.365
▁behoof	-11.365
▁churn	-11.365
▁descent	-11.365
▁drank	-11.365
▁Economic	-11.365
▁massacre	-11.365
▁ashamed	-11.365
▁debate	-11.3652
▁Jainism	-11.3656
▁Polo	-11.3658
▁overtaken	-11.3658
rupa	-11.3659
▁logo	-11.3661
▁instantly	-11.3662
och	-11.3663
▁axe	-11.3664
▁complaint	-11.3664
▁Stand	-11.3665
▁Martin	-11.3669
▁originat	-11.367
position	-11.3676
▁distinction	-11.3676
▁Along	-11.3676
▁72	-11.3676
38	-11.3679
▁fulfill	-11.368
uru	-11.3683
▁pity	-11.3685
▁torrents	-11.369
vala	-11.3691
ssisted	-11.3697
▁boats	-11.37
▁Gaya	-11.37
▁freely	-11.3706
▁Key	-11.3709
bhadra	-11.3709
▁maker	-11.3712
uz	-11.3712
ona	-11.3713
37	-11.3717
loma	-11.3721
▁contained	-11.3728
26	-11.3731
akshi	-11.3732
vil	-11.3734
gged	-11.374
▁Jag	-11.3745
▁conc	-11.3748
▁fairly	-11.3752
▁Ek	-11.3754
▁frequent	-11.3755
▁whirl	-11.3755
▁thence	-11.3756
An	-11.3761
tsu	-11.3762
▁wave	-11.3763
karma	-11.3765
ould	-11.3777
▁pin	-11.3779
▁victims	-11.3779
▁preparations	-11.3779
▁Chalukya	-11.378
▁principle	-11.378
ifying	-11.3781
midst	-11.3785
▁verse	-11.3785
guard	-11.3788
get	-11.3791
mann	-11.3794
▁flee	-11.3798
▁Ashvatthama	-11.3799
▁conscious	-11.3801
uddin	-11.3801
▁prior	-11.3802
▁Afflicted	-11.3803
▁Amazon	-11.3803
▁Columbia	-11.3803
▁Pennsylvania	-11.3803
▁Singapore	-11.3803
▁URL	-11.3803
▁bleeding	-11.3803
▁livelihood	-11.3803
▁sculpture	-11.3803
▁tranquillity	-11.3803
▁worried	-11.3803
▁yesterday	-11.3803
▁sponsor	-11.3803
▁stitch	-11.3803
▁synagogue	-11.3803
▁trading	-11.3803
▁Thousand	-11.3803
▁variant	-11.3803
▁mourn	-11.3803
▁gently	-11.3803
▁omens	-11.3804
▁archery	-11.3804
▁1958	-11.3804
▁favorite	-11.3804
▁banana	-11.3804
▁innings	-11.3804
▁Chandala	-11.3805
▁Edward	-11.3806
▁Practice	-11.3806
▁disposed	-11.3807
▁cruelty	-11.3807
▁Aditi	-11.3808
▁membership	-11.381
▁thoroughly	-11.381
host	-11.381
▁blast	-11.3813
▁royalty	-11.3814
▁models	-11.3814
▁mingl	-11.3817
▁birthday	-11.3822
▁Nir	-11.3824
▁blown	-11.3827
▁Ball	-11.3827
▁bio	-11.3828
Man	-11.383
▁concealed	-11.383
chen	-11.3831
rata	-11.3835
▁promotion	-11.3839
▁begged	-11.3839
▁coward	-11.384
▁trembled	-11.384
▁cable	-11.3842
come	-11.3844
tak	-11.3848
▁sooth	-11.3848
▁floating	-11.3849
▁Peshwa	-11.3849
▁Hara	-11.3849
ich	-11.3856
duct	-11.3856
▁gathering	-11.3869
ett	-11.3869
▁historic	-11.3878
▁longest	-11.388
plication	-11.3887
▁wet	-11.3889
eb	-11.3893
▁Oking	-11.3901
▁linked	-11.3909
्य	-11.3912
▁habit	-11.3922
▁Em	-11.3925
arrow	-11.3927
mma	-11.3929
55	-11.394
▁soldier	-11.3942
▁Gau	-11.3947
▁intend	-11.395
▁beach	-11.3957
▁continent	-11.3958
▁Galilee	-11.396
▁Sanctuary	-11.396
▁choked	-11.396
▁defence	-11.396
▁dwelt	-11.396
▁expansion	-11.396
▁gradient	-11.396
▁horror	-11.396
▁predominant	-11.396
▁revenge	-11.396
▁scribes	-11.396
▁tributaries	-11.396
▁unconquerable	-11.396
▁width	-11.396
▁₹1	-11.396
▁identity	-11.396
▁Legislati	-11.396
▁consort	-11.396
▁graduated	-11.396
▁mutual	-11.396
▁zero	-11.396
▁inauspicious	-11.396
▁adoring	-11.396
▁Louis	-11.396
▁confused	-11.396
▁compelled	-11.396
▁Himself	-11.396
▁bottle	-11.396
▁34	-11.396
▁dying	-11.396
▁Mirza	-11.396
▁1945	-11.396
▁Justice	-11.396
▁actuat	-11.3961
▁gladden	-11.3961
▁referee	-11.3963
▁bowstring	-11.3967
▁[	-11.3969
21	-11.3969
▁perpetrated	-11.3975
▁Den	-11.3976
▁continuously	-11.3978
▁Korean	-11.3978
▁administered	-11.3979
▁habitation	-11.3979
▁objective	-11.3982
▁accused	-11.3982
▁recovered	-11.4001
▁neighbouring	-11.4005
ille	-11.401
ided	-11.401
▁Fate	-11.4011
▁ox	-11.4013
▁Nord	-11.4013
59	-11.402
rush	-11.4022
▁Young	-11.4025
▁cherished	-11.4027
▁chains	-11.4027
▁clo	-11.4029
▁fishing	-11.403
bri	-11.4032
▁searched	-11.4035
▁Action	-11.4039
▁championships	-11.4042
▁Operat	-11.4046
▁fighters	-11.4046
▁Jana	-11.4053
lessness	-11.4069
▁ju	-11.4071
▁Tamas	-11.4078
▁blowing	-11.4085
▁suspect	-11.4086
▁blades	-11.409
▁debts	-11.4092
race	-11.4093
▁Dash	-11.4095
gross	-11.4098
ston	-11.4099
▁ghost	-11.41
▁proportion	-11.4102
▁locate	-11.4102
Rama	-11.4103
▁loses	-11.4104
▁defi	-11.4106
HA	-11.4107
NE	-11.4112
duced	-11.4115
▁Ashtavakra	-11.4118
▁Calcutta	-11.4118
▁Explain	-11.4118
▁Jahangir	-11.4118
▁Journal	-11.4118
▁Michigan	-11.4118
▁abundant	-11.4118
▁eclipse	-11.4118
▁Additional	-11.4118
▁abstract	-11.4118
▁plough	-11.4118
▁thief	-11.4118
▁Berlin	-11.4118
▁Airlines	-11.4118
▁blare	-11.4118
▁avarice	-11.4118
▁partition	-11.4118
▁agency	-11.4118
▁pervade	-11.4118
▁Indira	-11.4118
▁Sattva	-11.4119
▁trident	-11.4119
▁carnage	-11.4119
▁deviate	-11.4119
▁unexpected	-11.4119
▁Display	-11.4119
▁Brahmanicide	-11.4119
▁reverend	-11.4119
▁northwest	-11.4119
▁1955	-11.4119
▁transferred	-11.4119
▁feedback	-11.4119
▁carrier	-11.4119
▁Getting	-11.4119
▁determination	-11.412
▁Tiger	-11.412
▁canoe	-11.4121
▁Early	-11.4122
▁strive	-11.4123
▁Liber	-11.4124
▁Nur	-11.4128
45	-11.4129
▁thin	-11.4131
▁Near	-11.4134
▁lineage	-11.4136
▁Durga	-11.4136
▁blazed	-11.4138
▁survived	-11.4138
▁surprised	-11.4141
case	-11.4143
▁ID	-11.4145
stead	-11.4146
▁vitals	-11.4147
▁Kartik	-11.4151
▁columns	-11.4151
▁succession	-11.4153
▁lamps	-11.4153
▁bowl	-11.4154
▁commissioned	-11.4157
▁participants	-11.4163
▁questioned	-11.4165
▁der	-11.4169
▁measured	-11.417
▁Makara	-11.4176
▁athletes	-11.4178
kta	-11.4178
term	-11.4185
lways	-11.4188
▁Rush	-11.42
▁pun	-11.4202
▁Jal	-11.4204
ense	-11.4211
▁scientists	-11.4219
▁Cow	-11.4221
DA	-11.4237
▁Kalingas	-11.425
bert	-11.4254
▁Kro	-11.4258
related	-11.4259
▁grows	-11.4261
▁lighting	-11.4263
peak	-11.4263
▁companion	-11.4264
▁peacock	-11.4264
▁invite	-11.4264
91	-11.4266
▁resource	-11.4266
▁fans	-11.4266
▁restore	-11.4266
here	-11.4267
ın	-11.4269
▁blows	-11.4269
▁interpret	-11.427
▁anchor	-11.4277
▁audio	-11.4277
ākṣa	-11.428
▁Alabama	-11.428
▁Jaratkaru	-11.428
▁Suparna	-11.428
▁bewildered	-11.428
▁kidney	-11.428
▁legislati	-11.428
▁modification	-11.428
▁revolve	-11.428
▁salutation	-11.428
▁scientific	-11.428
▁swoon	-11.428
▁universities	-11.428
▁annuity	-11.428
▁formidable	-11.428
▁multiply	-11.428
▁decay	-11.428
▁Mahodara	-11.428
▁Formula	-11.428
▁Network	-11.428
▁predict	-11.428
▁truck	-11.428
▁confident	-11.428
▁1954	-11.428
▁Space	-11.428
▁Jewish	-11.428
▁faint	-11.428
▁chastisement	-11.428
▁elsewhere	-11.4281
▁permitted	-11.4281
▁Watch	-11.4281
▁unworthy	-11.4281
itz	-11.4281
▁dropping	-11.4281
▁Bhadra	-11.4282
▁wail	-11.4282
▁evolved	-11.4283
▁Devaki	-11.4283
▁zoom	-11.4283
▁Players	-11.4283
▁exclaimed	-11.4284
▁ultimately	-11.4286
▁Making	-11.4286
▁Nandi	-11.4286
▁minerals	-11.4287
▁Slay	-11.4287
▁dirty	-11.4287
▁exam	-11.4288
▁withdrawal	-11.4289
bai	-11.4289
hero	-11.4291
▁cure	-11.4299
▁infuriated	-11.4299
▁shoes	-11.4301
hira	-11.4301
▁nest	-11.4303
▁rejected	-11.4306
vik	-11.4309
thus	-11.4313
▁Nav	-11.4316
▁pace	-11.4321
▁exiled	-11.4332
▁mentally	-11.4335
▁marketing	-11.4347
▁encourage	-11.4351
axe	-11.4362
wari	-11.4363
▁Shak	-11.4364
▁Kansas	-11.4364
aught	-11.4366
▁Sai	-11.4373
▁intentions	-11.4373
▁dated	-11.4375
emia	-11.4383
▁sped	-11.4392
▁eyed	-11.4394
▁float	-11.4396
▁committ	-11.4405
yar	-11.4405
▁Sā	-11.4406
▁fists	-11.4411
▁doctors	-11.4413
▁recites	-11.4418
ancy	-11.4423
Behold	-11.4424
Where	-11.4424
However	-11.4425
▁derive	-11.4429
mond	-11.4429
▁mill	-11.4436
▁sixteen	-11.4436
▁singers	-11.4438
person	-11.4439
▁concerns	-11.444
▁factor	-11.4441
▁favor	-11.4443
▁Bhi	-11.4443
▁Carolina	-11.4444
▁Dynasty	-11.4444
▁Foundation	-11.4444
▁Hridika	-11.4444
▁Pacific	-11.4444
▁Package	-11.4444
▁Swedish	-11.4444
▁adjacent	-11.4444
▁comprehend	-11.4444
▁inclination	-11.4444
▁intoxicated	-11.4444
▁invented	-11.4444
▁luxury	-11.4444
▁unfortunate	-11.4444
▁nurse	-11.4444
▁spoil	-11.4444
▁Charanas	-11.4444
▁animation	-11.4444
▁Mongol	-11.4444
▁gear	-11.4444
▁regret	-11.4444
▁oath	-11.4444
▁introduction	-11.4444
▁forbidden	-11.4444
▁refresh	-11.4444
▁serial	-11.4445
▁1946	-11.4445
▁overtake	-11.4445
▁Palace	-11.4447
▁emaciated	-11.4448
▁highway	-11.4448
▁Astika	-11.4449
▁Fear	-11.445
▁Revolution	-11.4451
▁translated	-11.4451
▁drives	-11.4452
▁climb	-11.4454
▁rely	-11.4455
▁respectfully	-11.4457
▁Malik	-11.4458
▁Talk	-11.4458
▁updated	-11.446
▁Apart	-11.4462
▁Whose	-11.4462
▁Sunday	-11.4463
84	-11.4464
▁bills	-11.4464
▁Lee	-11.4464
loc	-11.4465
▁til	-11.4472
▁trains	-11.4473
▁sorely	-11.4473
▁thanks	-11.4474
▁helpful	-11.4477
▁oppose	-11.448
▁enable	-11.4483
▁Pictures	-11.4484
▁ste	-11.4484
▁arrives	-11.449
▁wandered	-11.45
▁Mayor	-11.4506
▁cru	-11.4508
ON	-11.4511
▁Post	-11.4524
▁Sham	-11.4525
veda	-11.4535
▁experiences	-11.4542
▁locations	-11.4544
▁realise	-11.4546
▁monuments	-11.4548
▁deceit	-11.4561
▁neighbour	-11.4562
▁agitat	-11.4575
▁Gan	-11.4576
▁register	-11.4578
▁Desi	-11.4578
▁extends	-11.4583
▁presentation	-11.4586
▁thank	-11.459
MS	-11.4591
▁revive	-11.4594
▁update	-11.4594
▁generate	-11.4595
▁dreams	-11.4597
▁technique	-11.4601
tress	-11.4601
▁therein	-11.461
ी	-11.461
▁Bahadur	-11.461
▁Utanka	-11.461
▁baptized	-11.461
▁contemporar	-11.461
▁experiencing	-11.461
▁proposal	-11.461
▁rejoicing	-11.461
▁reputation	-11.461
▁smote	-11.461
▁subsidiary	-11.461
▁technical	-11.461
▁Vikartana	-11.461
▁sincerity	-11.461
▁Kumbhakarna	-11.461
▁tactic	-11.461
▁hatred	-11.4611
▁generous	-11.4611
▁provision	-11.4611
▁Thailand	-11.4611
▁cultivation	-11.4612
▁Naracha	-11.4612
▁export	-11.4612
▁expiation	-11.4613
dale	-11.4613
▁arising	-11.4613
▁spinal	-11.4614
▁Arabian	-11.4616
▁Nations	-11.4616
▁batter	-11.4616
pus	-11.4618
▁Angirasa	-11.4619
▁Bull	-11.4619
▁absolutely	-11.4619
▁proof	-11.462
43	-11.4621
▁Fair	-11.4623
▁banished	-11.4623
verse	-11.4624
▁Box	-11.4626
▁Diti	-11.4627
▁Priya	-11.4627
01	-11.4628
▁Six	-11.4628
▁comma	-11.4628
▁existent	-11.463
▁coppery	-11.463
▁blessing	-11.4631
▁appearances	-11.4631
▁centres	-11.4634
▁viruses	-11.4637
mitra	-11.4637
▁Vish	-11.4637
▁Shopper	-11.4637
▁alas	-11.4638
NC	-11.4638
▁Color	-11.4639
▁Devala	-11.464
▁witnesses	-11.4641
▁sed	-11.4643
▁mansions	-11.4644
▁Malaya	-11.4645
▁propitiated	-11.4649
▁obstructed	-11.4654
▁reli	-11.4654
▁End	-11.4656
▁subjugat	-11.4658
▁Cam	-11.466
▁spectators	-11.4664
▁Khu	-11.4665
▁orbit	-11.4665
▁rove	-11.4665
Ha	-11.4668
▁Was	-11.467
▁sounded	-11.4673
▁/	-11.4674
▁therewith	-11.4678
▁Deb	-11.468
▁num	-11.4681
▁picked	-11.4682
▁ports	-11.4682
▁rat	-11.4683
pher	-11.4692
▁consult	-11.4693
▁Pancha	-11.4699
▁bludgeons	-11.4701
▁Kritavarma	-11.4703
rip	-11.4712
▁enhance	-11.4715
▁55	-11.4716
▁Fie	-11.4717
▁Adam	-11.4719
▁44	-11.4723
cumbe	-11.4732
▁generations	-11.4732
▁Five	-11.4732
▁Cap	-11.4733
▁ranking	-11.4733
▁disregarded	-11.4736
jna	-11.4756
▁locally	-11.4756
▁Commission	-11.4757
birth	-11.4758
▁Pali	-11.4762
▁estimate	-11.4764
▁ships	-11.4764
▁attire	-11.4765
▁Live	-11.4767
▁chart	-11.4769
▁realize	-11.4771
roll	-11.4774
▁mineral	-11.4775
▁Shankar	-11.4776
▁basket	-11.478
▁Bhagiratha	-11.478
▁Greece	-11.478
▁Renounc	-11.478
▁Yuyutsu	-11.478
▁adorable	-11.478
▁contrast	-11.478
▁controversial	-11.478
▁elegant	-11.478
▁eloquent	-11.478
▁embodiment	-11.478
▁energies	-11.478
▁gratification	-11.478
▁nuclear	-11.478
▁plastic	-11.478
▁professor	-11.478
▁responsibility	-11.478
▁Archaeological	-11.478
▁accurate	-11.478
▁examination	-11.478
▁satiated	-11.478
▁distant	-11.478
▁Ushanas	-11.478
▁afternoon	-11.478
▁Kosala	-11.478
▁devastat	-11.478
▁Uluka	-11.478
▁dispirited	-11.478
▁rotate	-11.478
▁steep	-11.478
▁Sky	-11.478
▁Except	-11.478
▁Rohini	-11.4781
▁impious	-11.4781
▁Az	-11.4781
▁glance	-11.4782
▁praising	-11.4782
dot	-11.4785
▁contentment	-11.4785
▁corporation	-11.4786
▁Alb	-11.4788
▁Person	-11.4789
▁Herod	-11.4792
▁tables	-11.4793
▁operated	-11.4794
▁प	-11.4799
pass	-11.48
▁Manipuri	-11.48
▁electrical	-11.48
Us	-11.4801
shire	-11.4809
puram	-11.481
called	-11.4819
▁poets	-11.4822
▁Arya	-11.4825
▁jaw	-11.4826
▁pra	-11.4829
▁Bow	-11.4842
▁Carl	-11.4848
lumin	-11.4858
▁ke	-11.4859
▁core	-11.4861
63	-11.4862
cot	-11.4864
▁mortals	-11.4871
ó	-11.4881
▁Dec	-11.4889
mbling	-11.4892
wishers	-11.4898
▁injunctions	-11.49
▁oppress	-11.4908
şa	-11.4917
▁Hot	-11.4918
▁encompass	-11.492
▁ordain	-11.492
81	-11.4924
▁filed	-11.493
▁mood	-11.4932
▁engines	-11.4932
क	-11.4932
प	-11.4932
Indrajit	-11.4933
▁Rob	-11.4935
staff	-11.4936
▁salute	-11.4937
▁rough	-11.4937
▁divers	-11.4938
▁Angiras	-11.4943
▁repress	-11.4944
▁thorns	-11.4947
▁jackal	-11.4948
▁Puri	-11.495
trop	-11.4951
श	-11.4952
▁Michael	-11.4952
▁Scientists	-11.4952
▁occupy	-11.4952
▁practicing	-11.4952
▁respirator	-11.4952
▁BBC	-11.4952
▁Snake	-11.4952
▁Parashara	-11.4952
▁Animal	-11.4952
▁eliminat	-11.4952
▁Smith	-11.4952
▁paddy	-11.4952
▁swarm	-11.4953
▁bidding	-11.4953
▁preferred	-11.4953
▁Gayatri	-11.4953
▁Little	-11.4953
▁mining	-11.4953
▁Perform	-11.4953
▁eighteen	-11.4953
▁Ohio	-11.4954
▁scholar	-11.4955
▁raft	-11.4955
▁specifically	-11.4956
▁shopper	-11.4956
▁poisonous	-11.4957
▁raw	-11.4957
▁judgement	-11.4958
▁stages	-11.4959
▁Shala	-11.496
▁Form	-11.496
▁bone	-11.4962
▁hid	-11.4964
▁forsaken	-11.4966
▁Much	-11.4968
▁acceptable	-11.4969
▁references	-11.4971
▁gateway	-11.4974
▁preserved	-11.4975
▁reasonable	-11.4976
▁declined	-11.4979
▁humanity	-11.4979
▁perfection	-11.4982
volving	-11.4983
taking	-11.4984
▁inflicted	-11.4984
▁engineering	-11.4985
SA	-11.4987
script	-11.4988
▁carries	-11.499
▁roamed	-11.499
kumar	-11.4991
▁legends	-11.4991
rick	-11.4998
▁corners	-11.5
▁triple	-11.5002
mbu	-11.5002
ulate	-11.5008
burn	-11.5014
▁battlefield	-11.5025
Pro	-11.5028
▁oppos	-11.5038
▁starring	-11.504
▁Kushan	-11.5055
▁clients	-11.5058
▁newspapers	-11.5058
▁credited	-11.506
▁Gur	-11.5069
▁Ari	-11.5073
▁spare	-11.5074
▁Kine	-11.5083
▁Rid	-11.5088
NA	-11.5088
▁detailed	-11.509
▁tar	-11.5091
▁trick	-11.5093
▁borrow	-11.5095
▁grind	-11.5099
hearted	-11.5104
▁canton	-11.5104
Ravana	-11.5108
▁enquire	-11.5112
▁approve	-11.5112
▁Vel	-11.5115
free	-11.512
▁digest	-11.5123
any	-11.5125
▁crows	-11.5126
▁tranquil	-11.5126
▁garment	-11.5127
š	-11.5128
▁16.04	-11.5128
▁Different	-11.5128
▁Manchester	-11.5128
▁Pishachas	-11.5128
▁exposure	-11.5128
▁fertile	-11.5128
▁immutable	-11.5128
▁infrastructure	-11.5128
▁investigation	-11.5128
▁withdrew	-11.5128
▁Traditional	-11.5128
▁disgrace	-11.5128
▁impetuous	-11.5128
▁powder	-11.5128
▁Finland	-11.5128
▁wicket	-11.5128
▁valid	-11.5128
▁Build	-11.5128
▁judici	-11.5128
▁pardon	-11.5128
▁duration	-11.5128
▁Various	-11.5128
▁Galava	-11.5129
▁thyself	-11.5129
▁Pilate	-11.5129
▁Local	-11.5129
▁recount	-11.513
▁declaration	-11.5131
▁Metro	-11.5131
pin	-11.5132
▁Asoka	-11.5134
▁personality	-11.5135
▁Full	-11.5135
▁Lower	-11.5135
▁healed	-11.5136
▁rash	-11.5136
▁bite	-11.5136
▁advised	-11.5136
ternal	-11.5139
▁Editor	-11.5143
▁attired	-11.5144
pointed	-11.5146
▁sits	-11.515
▁Tom	-11.515
▁chase	-11.5151
▁enhancer	-11.5151
▁Spring	-11.5154
order	-11.5155
▁rein	-11.5156
▁umbrellas	-11.5157
action	-11.5158
▁hire	-11.5159
▁consulted	-11.5161
▁String	-11.5162
IA	-11.5165
▁networks	-11.5168
▁Gor	-11.5178
▁65	-11.5178
▁Ashva	-11.5178
▁pushed	-11.5179
▁slap	-11.518
hued	-11.5184
▁boxes	-11.5209
▁Tour	-11.5215
▁severely	-11.5215
▁incidents	-11.5218
▁downloaded	-11.522
▁scenes	-11.5224
▁titled	-11.5224
See	-11.5227
▁fig	-11.5229
▁limits	-11.5232
▁Jat	-11.5241
▁mal	-11.5245
where	-11.525
▁dealing	-11.5256
▁lac	-11.5262
nanda	-11.5262
▁protests	-11.5267
▁confirm	-11.5271
▁inflict	-11.5274
▁beating	-11.5278
▁Cat	-11.5284
coloured	-11.5286
weight	-11.5288
▁Kalpa	-11.529
▁subsequent	-11.529
flow	-11.5294
▁calculate	-11.5296
dium	-11.5296
▁imagin	-11.5299
▁torment	-11.53
▁Chakra	-11.53
▁submit	-11.5305
check	-11.5306
▁Ayodhya	-11.5306
▁Consciousness	-11.5306
▁FIFA	-11.5306
▁Intelligence	-11.5306
▁Netbeans	-11.5306
▁Number	-11.5306
▁Professor	-11.5306
▁Tārā	-11.5306
▁bridegroom	-11.5306
▁context	-11.5306
▁convention	-11.5306
▁equivalent	-11.5306
▁esteem	-11.5306
▁immovable	-11.5306
▁mirror	-11.5306
▁offensive	-11.5306
▁skeleton	-11.5306
▁storage	-11.5306
▁wreath	-11.5306
▁activist	-11.5306
▁sweat	-11.5306
▁Android	-11.5306
▁owl	-11.5306
▁Kishore	-11.5306
▁transaction	-11.5306
Suppose	-11.5307
02	-11.5307
rashtra	-11.5307
▁dawn	-11.5307
▁Pradyumna	-11.5307
▁Rajendra	-11.5307
▁aircraft	-11.5307
▁stuck	-11.5308
▁Urdu	-11.5308
▁raging	-11.5308
▁Zika	-11.5308
▁assert	-11.5311
▁pictures	-11.5312
▁forthwith	-11.5314
▁Assum	-11.5316
27	-11.532
▁pound	-11.532
▁solve	-11.5321
▁initiated	-11.5322
studded	-11.5324
▁Tax	-11.5324
▁Mantra	-11.5325
▁roller	-11.5329
▁suggestion	-11.5337
▁Sikhs	-11.5339
36	-11.5342
▁Anti	-11.5344
kala	-11.5349
▁Meh	-11.5351
▁corpse	-11.5352
▁74	-11.5352
▁bestower	-11.5356
urnished	-11.5362
▁Vina	-11.5363
▁Cave	-11.5365
dorned	-11.5366
▁scared	-11.5367
▁significantly	-11.5368
▁Paka	-11.5369
▁Back	-11.5369
air	-11.5372
▁52	-11.5372
▁lovely	-11.5374
▁Kong	-11.5377
▁Shin	-11.5384
▁castle	-11.5384
▁wing	-11.5385
meter	-11.5387
▁Leav	-11.5394
ule	-11.5408
inent	-11.5408
ppa	-11.5409
lore	-11.541
plat	-11.5412
▁concern	-11.5412
▁Dia	-11.5419
vision	-11.542
▁crags	-11.5423
▁prisoners	-11.5427
▁apple	-11.543
pā	-11.5431
zh	-11.544
67	-11.5441
▁fewer	-11.5441
▁symbols	-11.5452
▁Nagar	-11.5454
▁assign	-11.5455
▁frighten	-11.5459
49	-11.5464
▁Born	-11.5466
Saying	-11.5468
▁passengers	-11.5469
▁42	-11.547
▁स	-11.547
▁embrace	-11.5472
73	-11.5474
▁Suka	-11.5478
fort	-11.5481
lute	-11.5484
▁Tam	-11.5486
Once	-11.5486
▁venom	-11.5487
▁avail	-11.5487
▁exercises	-11.5487
▁Paralympic	-11.5488
▁Argentina	-11.5488
▁Brahmaputra	-11.5488
▁Kartikeya	-11.5488
▁Nicobar	-11.5488
▁QUESTIONS	-11.5488
▁arriving	-11.5488
▁councillors	-11.5488
▁excellence	-11.5488
▁expedition	-11.5488
▁identical	-11.5488
▁satellite	-11.5488
▁substantial	-11.5488
▁syntax	-11.5488
▁unpleasant	-11.5488
▁Survey	-11.5488
▁dissipat	-11.5488
▁fetters	-11.5488
▁filter	-11.5488
▁pluck	-11.5488
▁recruit	-11.5488
▁uniform	-11.5488
▁havoc	-11.5488
▁housing	-11.5488
▁courtiers	-11.5488
▁myriad	-11.5488
▁confluence	-11.5488
▁farewell	-11.5488
▁Henry	-11.5488
▁Field	-11.5488
▁Pushkara	-11.5489
▁tennis	-11.5489
▁1959	-11.5489
▁diversity	-11.549
▁inhaling	-11.5491
▁wire	-11.5491
such	-11.5491
▁Help	-11.5491
▁dung	-11.5492
▁jewel	-11.5492
ographic	-11.5492
▁thorn	-11.5493
▁chip	-11.5494
▁recognize	-11.5494
▁persecuted	-11.5494
▁transportation	-11.5494
▁Danava	-11.5496
▁embellished	-11.5496
▁thriller	-11.5496
▁applauded	-11.5499
▁fearless	-11.5499
▁degrees	-11.55
held	-11.5503
▁Pandyas	-11.5505
▁Bou	-11.5505
▁resigned	-11.5505
▁ban	-11.5506
▁Get	-11.5506
▁transformed	-11.5509
▁concluded	-11.5511
▁Down	-11.5512
▁Arm	-11.5519
▁sup	-11.5527
▁kites	-11.553
your	-11.5532
▁lifted	-11.5532
▁exertions	-11.5533
▁Flo	-11.5534
▁heated	-11.5543
!”	-11.5544
▁frogs	-11.5546
▁processes	-11.5546
▁hunt	-11.555
ņ	-11.5554
▁await	-11.5556
▁establishing	-11.5556
▁crowded	-11.5561
▁apostles	-11.5562
▁liver	-11.5567
▁afflicting	-11.5569
▁prompted	-11.5599
▁Kim	-11.5605
▁climber	-11.5607
52	-11.5619
▁Homa	-11.562
▁hy	-11.5628
▁Tim	-11.563
▁profession	-11.5633
ān	-11.5637
took	-11.564
▁conceal	-11.5641
oor	-11.5644
ridge	-11.565
▁investments	-11.5653
Greek	-11.5653
Name	-11.5657
shaped	-11.5657
▁arrange	-11.5663
▁molecules	-11.5667
▁inherit	-11.5672
▁knock	-11.5672
krishna	-11.5673
▁Ambedkar	-11.5673
▁Atlantic	-11.5673
▁Dasharatha	-11.5673
▁Deprived	-11.5673
▁Parikshit	-11.5673
▁Tennessee	-11.5673
▁Toronto	-11.5673
▁Vichitravirya	-11.5673
▁YouTube	-11.5673
▁annoyed	-11.5673
▁apprehension	-11.5673
▁contrary	-11.5673
▁describing	-11.5673
▁explanation	-11.5673
▁literacy	-11.5673
▁monitor	-11.5673
▁supplies	-11.5673
▁exhaling	-11.5673
▁wondrous	-11.5673
▁Centre	-11.5673
▁Iraq	-11.5673
▁supplied	-11.5673
▁Clean	-11.5673
▁Vyayama	-11.5673
▁plot	-11.5673
▁greed	-11.5673
▁varied	-11.5673
▁Mizo	-11.5674
▁cursor	-11.5674
▁Pratap	-11.5674
ति	-11.5674
▁Maharaja	-11.5674
▁poetry	-11.5675
▁teem	-11.5675
▁meantime	-11.5675
▁Balaji	-11.5676
▁befallen	-11.5676
▁incessantly	-11.5677
▁clay	-11.5677
▁classification	-11.5677
57	-11.5678
▁discontinued	-11.5678
▁establishment	-11.5679
▁earnest	-11.5679
▁reflection	-11.5682
58	-11.5683
▁anybody	-11.5684
▁interpretation	-11.5684
▁Excellent	-11.5685
oba	-11.5686
lika	-11.5686
▁molecule	-11.5686
▁successive	-11.5696
graha	-11.57
▁$2	-11.57
▁threatened	-11.5701
▁peril	-11.5703
▁Very	-11.5704
▁respectable	-11.5705
amine	-11.5708
care	-11.5714
mbo	-11.5719
▁upset	-11.5721
▁rode	-11.5727
▁dominions	-11.5729
▁deadly	-11.573
▁180	-11.5731
▁Non	-11.5731
mmed	-11.5733
▁focused	-11.5747
28	-11.5747
▁Nee	-11.575
ketu	-11.5757
▁rap	-11.576
▁Gul	-11.5763
▁floods	-11.5764
▁packages	-11.5772
▁dive	-11.5773
city	-11.5775
▁personally	-11.5785
▁conferr	-11.5787
▁Lau	-11.5788
74	-11.5795
▁recall	-11.58
rich	-11.5806
para	-11.5814
stein	-11.5815
▁wax	-11.5817
SR	-11.5818
▁48	-11.5824
▁indulg	-11.5824
▁chant	-11.5826
▁paintings	-11.5828
▁Tal	-11.5828
Pra	-11.5832
▁forty	-11.5833
new	-11.5833
view	-11.5839
minute	-11.5842
▁tracts	-11.5845
▁nigh	-11.5848
▁Savyasachi	-11.5853
▁dread	-11.586
▁Chekitana	-11.5862
▁advertise	-11.5862
▁1951	-11.5862
▁Ambrosia	-11.5862
▁Philippines	-11.5862
▁Tughlaq	-11.5862
▁Varuņa	-11.5862
▁buttocks	-11.5862
▁captive	-11.5862
▁crimson	-11.5862
▁crisis	-11.5862
▁defense	-11.5862
▁delicious	-11.5862
▁gloves	-11.5862
▁incarnation	-11.5862
▁influenza	-11.5862
▁javelin	-11.5862
▁modified	-11.5862
▁navigation	-11.5862
▁tumult	-11.5862
▁ungrateful	-11.5862
▁unusual	-11.5862
▁Śatrughna	-11.5862
▁crescent	-11.5862
▁inaugura	-11.5862
▁abroad	-11.5862
▁Samvarta	-11.5862
▁Brahina	-11.5862
▁Nothing	-11.5862
▁warning	-11.5863
▁submitted	-11.5863
▁Word	-11.5864
▁Shift	-11.5864
▁lakh	-11.5864
77	-11.5865
▁corruption	-11.5865
▁wholly	-11.5865
▁Euro	-11.5866
▁pocket	-11.5866
▁Native	-11.5867
▁outdoor	-11.5868
▁Puja	-11.5869
▁hail	-11.5869
TC	-11.587
▁massive	-11.5871
▁nobody	-11.5874
▁Nazi	-11.5876
▁revived	-11.588
▁Basic	-11.5882
▁alarmed	-11.5884
▁highways	-11.5884
jur	-11.5887
num	-11.5889
▁attributed	-11.5889
▁bike	-11.5891
▁disturbed	-11.5891
▁rhythmic	-11.5901
gun	-11.5901
▁Station	-11.5901
▁nutrients	-11.5902
▁expressions	-11.5902
▁stranger	-11.5909
▁sew	-11.5914
▁Tre	-11.592
▁seller	-11.5927
▁illuminat	-11.5929
▁Himalaya	-11.5933
▁Kuk	-11.5937
07	-11.5942
▁var	-11.5944
▁leaping	-11.5944
▁Daitya	-11.5948
▁lawful	-11.5955
-19	-11.596
▁testing	-11.5961
ature	-11.5963
▁Sinha	-11.5972
▁Yet	-11.5973
▁Pil	-11.5974
▁lover	-11.5976
▁vanquishing	-11.5976
▁ideal	-11.5979
darsh	-11.5985
▁mayor	-11.5989
Par	-11.5992
▁Manda	-11.5993
▁experts	-11.5993
▁badly	-11.6003
▁Kang	-11.6008
▁stain	-11.6009
▁elect	-11.601
▁Anglo	-11.6011
▁stat	-11.6011
▁mall	-11.602
▁absorb	-11.6022
▁adorn	-11.6022
▁flowed	-11.6023
met	-11.6025
▁span	-11.6026
tern	-11.6026
▁operates	-11.6028
▁Arts	-11.6029
▁bounded	-11.6033
Nakula	-11.6034
Thus	-11.6035
number	-11.6035
count	-11.6035
▁nerves	-11.6038
▁revolution	-11.6041
▁Afghan	-11.6054
▁Allahabad	-11.6054
▁Example	-11.6054
▁Jersey	-11.6054
▁Jharkhand	-11.6054
▁Jishnu	-11.6054
▁Special	-11.6054
▁Sydney	-11.6054
▁Territory	-11.6054
▁Trophy	-11.6054
▁UNESCO	-11.6054
▁circular	-11.6054
▁dejected	-11.6054
▁sabbath	-11.6054
▁varieties	-11.6054
▁Adhiratha	-11.6054
▁Gwalior	-11.6054
▁Rahman	-11.6054
▁Vipula	-11.6054
▁accumulat	-11.6054
▁exploit	-11.6054
▁sensation	-11.6054
▁snatch	-11.6054
▁sullied	-11.6054
▁Shrutayu	-11.6054
▁entities	-11.6054
▁Proceed	-11.6054
▁Caesar	-11.6054
▁harass	-11.6054
▁Present	-11.6054
▁Import	-11.6054
▁forsaking	-11.6054
▁wildlife	-11.6054
▁espi	-11.6055
▁gloom	-11.6055
▁denied	-11.6055
▁Image	-11.6055
▁Peace	-11.6055
▁Meitei	-11.6055
▁Visnu	-11.6055
▁Durmukha	-11.6056
▁frustrated	-11.6057
▁bookmark	-11.6057
▁agitation	-11.6057
▁belly	-11.6058
scriptural	-11.6058
▁atoms	-11.6059
▁Afterwards	-11.6059
▁fondness	-11.6059
▁riven	-11.606
▁alert	-11.606
▁println	-11.606
▁Kochi	-11.6061
▁Prix	-11.6061
▁char	-11.6061
▁somewhere	-11.6061
▁Mahā	-11.6062
▁instructor	-11.6065
▁Never	-11.6069
▁chapter	-11.607
▁nerve	-11.607
▁quiver	-11.6071
▁rite	-11.6073
▁Sound	-11.6074
Ar	-11.6075
▁ghosts	-11.6077
▁Hell	-11.6077
yaka	-11.6077
▁Chin	-11.6077
ique	-11.6079
▁defend	-11.608
▁instruct	-11.6081
▁Shiv	-11.6091
▁seriously	-11.6091
▁Top	-11.6094
CP	-11.6096
tina	-11.6098
▁chanting	-11.6103
▁sam	-11.6106
▁suited	-11.6109
azi	-11.6111
▁shouted	-11.6115
kam	-11.6122
▁tract	-11.6124
lessly	-11.6128
gni	-11.613
▁Chak	-11.613
▁Wall	-11.6134
looking	-11.6135
79	-11.6137
▁Kamal	-11.614
▁hum	-11.6147
▁Stay	-11.6152
▁indoor	-11.6153
▁publish	-11.6165
▁farming	-11.6166
▁dancers	-11.6172
▁solo	-11.6172
select	-11.6176
▁cm	-11.6177
▁killer	-11.6184
▁bha	-11.6184
▁dish	-11.6188
mov	-11.6189
ficial	-11.6197
▁disappears	-11.6198
▁fie	-11.6207
▁ls	-11.6212
▁37	-11.6213
servant	-11.6221
▁watery	-11.6221
▁electric	-11.6225
what	-11.6227
▁Aja	-11.6227
craft	-11.6229
complete	-11.623
skilled	-11.6231
▁combine	-11.6234
▁reduc	-11.6238
▁Kumara	-11.6246
Give	-11.6249
▁Administration	-11.625
▁Currently	-11.625
▁Elephant	-11.625
▁Lakshadweep	-11.625
▁Ronnie	-11.625
▁Struck	-11.625
▁Upanishad	-11.625
▁Virochana	-11.625
▁bicycle	-11.625
▁drought	-11.625
▁entitled	-11.625
▁iPhone	-11.625
▁impressed	-11.625
▁iniquity	-11.625
▁literary	-11.625
▁significance	-11.625
▁Limited	-11.625
▁envoy	-11.625
▁maddened	-11.625
▁shloka	-11.625
▁venue	-11.625
▁Finish	-11.625
▁Radio	-11.625
▁Sepak	-11.625
▁Third	-11.625
▁beseech	-11.625
▁crack	-11.625
▁mosque	-11.625
▁Jacob	-11.625
▁Install	-11.625
▁Avanti	-11.625
▁loving	-11.625
▁confess	-11.625
▁transmitted	-11.6251
▁Malabar	-11.6251
▁municipalities	-11.6251
▁Satyavana	-11.6251
▁Quick	-11.6251
ásana	-11.6252
▁dialogue	-11.6252
▁feud	-11.6252
▁tight	-11.6253
▁relaxation	-11.6254
▁harmful	-11.6254
▁calculation	-11.6254
▁Motor	-11.6254
▁Chatur	-11.6254
▁Cross	-11.6255
▁Alex	-11.6255
▁roof	-11.6255
▁traders	-11.6257
▁productive	-11.6257
▁boundary	-11.6257
OW	-11.6257
▁toilet	-11.6258
▁sec	-11.6262
bor	-11.6263
▁Terr	-11.6264
▁coloured	-11.6264
▁Mauryan	-11.6269
▁journalist	-11.6269
▁passenger	-11.627
▁egg	-11.6271
▁cit	-11.6272
▁regulated	-11.6275
▁Addressing	-11.6276
▁MP	-11.6277
▁auspiciousness	-11.6278
▁afflicter	-11.6281
▁Tur	-11.6286
▁encompassed	-11.6287
PS	-11.6289
▁eagerly	-11.6294
▁hurling	-11.6296
rtha	-11.6297
▁bind	-11.6297
▁Medi	-11.6307
▁Mohan	-11.631
▁adher	-11.6314
▁Remembering	-11.6315
▁Call	-11.6317
▁Trigartas	-11.6321
▁rocket	-11.6325
▁Tap	-11.6328
krit	-11.6331
▁fan	-11.6352
round	-11.6354
OT	-11.6357
game	-11.6362
▁Plant	-11.6364
▁focusing	-11.6365
▁conduc	-11.637
▁groves	-11.6371
opa	-11.6373
▁wealthy	-11.6378
Me	-11.6379
▁39	-11.638
lived	-11.6381
▁careless	-11.6384
▁rituals	-11.6389
▁dh	-11.6393
▁Sarva	-11.6395
▁Bho	-11.6396
▁penn	-11.6396
▁digit	-11.64
▁spears	-11.6404
▁edges	-11.6407
anu	-11.6415
▁announc	-11.6418
▁reject	-11.6418
▁—	-11.6425
again	-11.6427
▁remind	-11.6429
dev	-11.6431
▁distribute	-11.6434
▁instant	-11.6436
▁demonstrate	-11.6442
▁Tibet	-11.6446
▁humiliat	-11.6446
▁extinct	-11.6447
▁offend	-11.6447
▁attending	-11.645
▁Agnihotra	-11.645
▁Punishment	-11.645
▁Sairandhri	-11.645
▁Tadasana	-11.645
▁cluster	-11.645
▁consecutive	-11.645
▁exposed	-11.645
▁felicity	-11.645
▁strategy	-11.645
▁stupefaction	-11.645
▁yojanas	-11.645
▁Reserve	-11.645
▁embryo	-11.645
▁Melbourne	-11.645
▁Admin	-11.645
▁heritage	-11.645
▁bosom	-11.645
▁Brahmacharin	-11.645
▁pyre	-11.645
▁violate	-11.645
▁swimming	-11.645
▁Business	-11.645
▁Medical	-11.6451
▁Kumbha	-11.6451
▁sphere	-11.6451
▁banned	-11.6451
▁Irish	-11.6451
▁Disney	-11.6451
▁marrow	-11.6451
▁Boston	-11.6451
▁peerless	-11.6451
▁Pinaka	-11.6451
▁loosened	-11.6452
▁Layer	-11.6452
▁Sire	-11.6452
▁Norway	-11.6452
▁conform	-11.6452
▁undergone	-11.6453
▁Coast	-11.6453
▁Deput	-11.6453
▁resistance	-11.6454
▁torture	-11.6454
▁Hindustani	-11.6455
▁Tibetan	-11.6455
▁cream	-11.6455
Some	-11.6455
▁giant	-11.6456
▁Egyptian	-11.6458
▁Employee	-11.6458
▁devote	-11.6458
▁Long	-11.6459
▁Thai	-11.646
▁Truly	-11.6461
▁1,000	-11.6461
▁deceived	-11.6462
▁beaten	-11.6463
▁Yo	-11.6463
▁villagers	-11.6463
▁advancement	-11.6464
mple	-11.6465
▁restricted	-11.6468
▁ether	-11.6469
▁fu	-11.6474
umb	-11.6477
karna	-11.648
Your	-11.6481
▁parliament	-11.6483
▁Sab	-11.649
sey	-11.6491
▁Sindh	-11.6493
48	-11.6495
rest	-11.6497
each	-11.6498
▁Raga	-11.6498
▁binding	-11.6499
▁Muk	-11.65
▁PC	-11.6502
▁Bus	-11.6507
82	-11.6509
▁endless	-11.6512
▁ruined	-11.6516
▁discussed	-11.6516
▁critic	-11.6526
▁Studios	-11.6526
▁Kor	-11.6528
RE	-11.6535
▁Southeast	-11.6544
▁erected	-11.6544
▁Fran	-11.6547
eliance	-11.655
▁counted	-11.6557
▁stealing	-11.6563
▁curds	-11.6571
▁contracted	-11.6571
▁Nat	-11.6573
onia	-11.6581
▁illumin	-11.6584
▁catching	-11.6585
▁variations	-11.6585
▁Steve	-11.6594
76	-11.6596
▁Bhatt	-11.6601
▁Learn	-11.6606
▁construct	-11.6612
onic	-11.6614
rik	-11.662
worth	-11.6624
▁Bhojas	-11.6626
▁stag	-11.6626
file	-11.6628
▁sanct	-11.6636
▁cop	-11.6638
▁Brahm	-11.6638
▁Nag	-11.6638
▁Kut	-11.6642
▁quit	-11.6647
▁fiercely	-11.665
▁Democrat	-11.6651
▁pulling	-11.6654
▁Khandava	-11.6654
▁Cambridge	-11.6654
▁LaTeX	-11.6654
▁NFL	-11.6654
▁Räma	-11.6654
▁Răvaņa	-11.6654
▁Sthanu	-11.6654
▁Takraw	-11.6654
▁Vişņu	-11.6654
▁Vālmīki	-11.6654
▁altitude	-11.6654
▁demerit	-11.6654
▁geographical	-11.6654
▁hormone	-11.6654
▁impression	-11.6654
▁manufacturing	-11.6654
▁plague	-11.6654
▁receipt	-11.6654
▁recognition	-11.6654
▁reptiles	-11.6654
▁residue	-11.6654
▁undeteriorating	-11.6654
▁volume	-11.6654
▁dividing	-11.6654
▁draft	-11.6654
▁qualify	-11.6654
▁nourish	-11.6654
▁rude	-11.6654
▁Nigeria	-11.6654
▁Andrew	-11.6654
▁recognise	-11.6654
▁worshippers	-11.6655
▁neighborhood	-11.6655
▁retail	-11.6655
▁kettle	-11.6655
▁flank	-11.6655
▁exhale	-11.6655
▁midnight	-11.6655
▁committee	-11.6655
▁curious	-11.6655
▁Element	-11.6655
▁diagnosis	-11.6655
▁varies	-11.6656
▁Locate	-11.6656
▁circulation	-11.6657
▁Mahavir	-11.6657
▁Describ	-11.6658
▁Step	-11.6659
▁literally	-11.6659
▁hump	-11.6659
▁Poland	-11.666
▁Hatha	-11.6661
▁fleetness	-11.6661
▁specified	-11.6663
▁Return	-11.6664
▁Gana	-11.6665
स्	-11.6668
▁operate	-11.6669
▁asanas	-11.6674
▁accus	-11.6675
▁rental	-11.6677
▁superiority	-11.6682
▁decade	-11.6683
▁Kavi	-11.6684
▁Shruti	-11.6688
▁Khanna	-11.6689
▁Classic	-11.6689
▁Bhoja	-11.6692
brows	-11.6695
▁hir	-11.6697
▁Love	-11.6699
▁idle	-11.67
▁slides	-11.6701
▁plates	-11.6705
▁environmental	-11.6705
▁exit	-11.6705
▁Mall	-11.6706
▁safely	-11.6707
mmer	-11.6711
AF	-11.6722
kill	-11.6723
▁Users	-11.673
▁goad	-11.6733
▁crores	-11.6739
▁mightyarmed	-11.6744
▁Hard	-11.6749
mel	-11.675
▁Plan	-11.675
▁honored	-11.6751
▁medications	-11.6758
▁preferences	-11.6758
▁poster	-11.6764
▁Excel	-11.6764
▁burned	-11.6776
laya	-11.6777
▁procession	-11.678
▁hurl	-11.6782
▁editing	-11.6788
▁delightedly	-11.6791
▁Prem	-11.6793
owned	-11.6794
high	-11.6796
▁91	-11.6801
▁tap	-11.6801
▁Bil	-11.6804
न्	-11.6808
▁82	-11.682
▁recommend	-11.682
▁pile	-11.6824
▁Dance	-11.6828
hani	-11.6829
▁disturb	-11.6829
▁uproot	-11.683
ista	-11.6833
▁sq	-11.6838
therefore	-11.6843
▁retire	-11.6845
▁Song	-11.6847
when	-11.6847
link	-11.6851
▁photograph	-11.6852
mont	-11.6853
▁converse	-11.6855
deep	-11.6855
▁Chat	-11.6858
è	-11.6863
भ	-11.6863
▁Belgium	-11.6863
▁Certain	-11.6863
▁Dānavas	-11.6863
▁HTML	-11.6863
▁Manekshaw	-11.6863
▁Mozilla	-11.6863
▁Pleasure	-11.6863
▁Vijayanagara	-11.6863
▁analysis	-11.6863
▁completing	-11.6863
▁elevated	-11.6863
▁globe	-11.6863
▁incantation	-11.6863
▁lagoon	-11.6863
▁margin	-11.6863
▁transmission	-11.6863
▁underneath	-11.6863
▁undoubtedly	-11.6863
▁abilities	-11.6863
▁fowler	-11.6863
▁leopard	-11.6863
▁CPU	-11.6863
▁indicating	-11.6863
▁shirt	-11.6863
▁accompany	-11.6863
▁Serial	-11.6863
▁calves	-11.6863
▁Bhopal	-11.6863
▁pigs	-11.6863
▁mixture	-11.6863
▁gender	-11.6863
▁Kushika	-11.6863
▁domain	-11.6863
▁Divine	-11.6863
▁Costco	-11.6863
▁whither	-11.6863
▁fetch	-11.6863
▁laptop	-11.6863
▁Baladeva	-11.6864
▁fauna	-11.6864
▁1928	-11.6864
▁1936	-11.6864
▁horizontal	-11.6864
▁Prayag	-11.6864
▁lick	-11.6865
▁Bridge	-11.6865
▁rebirth	-11.6866
▁travelled	-11.6866
▁Setup	-11.6866
▁Treta	-11.6866
▁Print	-11.6867
▁motionless	-11.6868
▁Feel	-11.6868
▁wip	-11.6868
▁Pope	-11.6868
getting	-11.6868
▁trend	-11.6869
ntin	-11.6869
▁Rahu	-11.687
▁dating	-11.687
▁jealousy	-11.6871
▁superb	-11.6871
▁Demo	-11.6871
cited	-11.6872
▁NMEICT	-11.6875
▁highlight	-11.6876
▁joyfully	-11.6877
▁melt	-11.6878
▁mor	-11.6883
▁fur	-11.6884
▁proportions	-11.6885
▁dispelled	-11.6888
went	-11.689
▁disappointed	-11.6892
▁tempted	-11.6893
▁considerable	-11.6894
▁victim	-11.6896
▁grinder	-11.6897
▁arrangement	-11.6897
▁preparation	-11.6898
▁defended	-11.6898
▁scripture	-11.6899
▁vomiting	-11.6901
unda	-11.6902
faced	-11.6908
▁oneself	-11.6908
▁organism	-11.6909
ulated	-11.6918
▁improved	-11.6919
▁integr	-11.692
▁Brahmins	-11.6922
▁Mil	-11.693
▁possessor	-11.6932
▁mire	-11.6932
▁Head	-11.6936
page	-11.6939
▁Samaj	-11.6943
▁spec	-11.6948
encies	-11.695
wick	-11.6952
stricken	-11.6952
EC	-11.6954
▁pilgrims	-11.6957
tland	-11.6963
▁Uda	-11.6969
gmail	-11.697
▁Lava	-11.697
AL	-11.6974
▁Abhi	-11.6976
▁cach	-11.6989
▁corrupt	-11.699
uta	-11.6996
▁Hand	-11.6998
▁gap	-11.7001
jar	-11.7005
wise	-11.701
▁Settings	-11.7023
▁shrines	-11.703
▁swell	-11.7031
▁Chha	-11.7033
▁baffl	-11.7043
▁Find	-11.7046
000	-11.7049
▁provinc	-11.7056
build	-11.7056
SE	-11.7065
▁overthrow	-11.7066
shin	-11.7072
▁smart	-11.7075
TEXT	-11.7075
▁Ambika	-11.7075
▁Amritsar	-11.7075
▁Bhagirathi	-11.7075
▁Caribbean	-11.7075
▁Explorer	-11.7075
▁Facebook	-11.7075
▁Falguni	-11.7075
▁Hospital	-11.7075
▁Hurricane	-11.7075
▁Lacrosse	-11.7075
▁Universe	-11.7075
▁beautified	-11.7075
▁clatter	-11.7075
▁controversy	-11.7075
▁devout	-11.7075
▁dissension	-11.7075
▁elevation	-11.7075
▁jurisdiction	-11.7075
▁mammals	-11.7075
▁panchayat	-11.7075
▁plenty	-11.7075
▁sequel	-11.7075
▁wolves	-11.7075
▁Kausalya	-11.7075
▁Swiss	-11.7075
▁forgotten	-11.7075
▁increment	-11.7075
▁routine	-11.7075
▁ninth	-11.7075
▁siege	-11.7075
▁angrily	-11.7075
▁Sahib	-11.7075
▁riot	-11.7075
▁Girl	-11.7076
▁Lakşmana	-11.7076
▁Netball	-11.7076
▁Göt	-11.7076
▁hydrogen	-11.7076
▁Still	-11.7076
▁trigger	-11.7076
stad	-11.7076
▁profile	-11.7076
▁Francisco	-11.7076
▁persist	-11.7076
▁alleged	-11.7076
▁grep	-11.7076
▁victories	-11.7076
▁spark	-11.7076
▁Armenia	-11.7076
▁exhaustion	-11.7077
▁assured	-11.7077
▁spell	-11.7077
▁Iranian	-11.7079
▁orange	-11.7079
▁carelessness	-11.7079
▁Albert	-11.708
▁Compile	-11.708
▁Creation	-11.708
▁Samans	-11.7081
▁insert	-11.7084
▁Wow	-11.7086
▁dissolved	-11.7087
▁neuro	-11.7088
▁relieved	-11.7088
▁68	-11.7089
edged	-11.7091
▁aiming	-11.7093
▁vanished	-11.7093
▁mallet	-11.7095
▁Leh	-11.7095
▁abdominal	-11.7099
iyar	-11.7099
▁Eu	-11.7105
▁ensued	-11.7106
▁Chalukyas	-11.7108
▁uprooted	-11.7109
▁Dad	-11.7109
▁blade	-11.7113
▁effectively	-11.7117
▁Mel	-11.7118
▁vest	-11.712
▁characteris	-11.7123
▁Bhurishravas	-11.7124
▁insect	-11.7125
▁Say	-11.7126
▁openly	-11.7129
▁Dara	-11.7131
▁retained	-11.7141
finite	-11.7143
▁crocodiles	-11.716
▁Jew	-11.7161
▁pixels	-11.7164
▁grieved	-11.7172
▁Becom	-11.7178
▁Gun	-11.719
ayi	-11.7202
▁backwards	-11.7203
▁pillars	-11.7207
▁descend	-11.7211
ella	-11.7215
▁Further	-11.723
lang	-11.7239
bur	-11.724
undi	-11.7241
▁Mahal	-11.7247
rgy	-11.7247
▁gi	-11.7248
▁Chap	-11.7249
▁Past	-11.7252
▁chin	-11.7252
hang	-11.726
78	-11.7266
▁threaten	-11.7271
▁77	-11.7271
▁organize	-11.7272
mouth	-11.7273
awk	-11.7273
▁chapters	-11.7275
Why	-11.7276
▁piteous	-11.7277
▁Maj	-11.728
phone	-11.7285
▁Mala	-11.7286
▁annihilat	-11.7289
▁admit	-11.7292
▁Approaching	-11.7293
▁Category	-11.7293
▁Hollywood	-11.7293
▁Nintendo	-11.7293
▁Portugal	-11.7293
▁Society	-11.7293
▁affluence	-11.7293
▁artillery	-11.7293
▁competitive	-11.7293
▁deception	-11.7293
▁deliberate	-11.7293
▁dominant	-11.7293
▁indomitable	-11.7293
▁practical	-11.7293
▁purchasing	-11.7293
▁simplicity	-11.7293
▁steadily	-11.7293
▁terribly	-11.7293
▁thrice	-11.7293
▁undecaying	-11.7293
▁venerable	-11.7293
▁vicinity	-11.7293
adequate	-11.7293
▁1942	-11.7293
▁Channel	-11.7293
▁Entry	-11.7293
▁Räksasa	-11.7293
▁antibiotic	-11.7293
▁athletic	-11.7293
▁authentic	-11.7293
▁collaborat	-11.7293
▁encampment	-11.7293
▁stamp	-11.7293
▁entries	-11.7293
▁polite	-11.7293
▁pacify	-11.7293
▁confined	-11.7293
▁guidelines	-11.7293
▁Design	-11.7293
▁superhuman	-11.7293
▁brook	-11.7293
▁scroll	-11.7293
▁abounded	-11.7293
▁magic	-11.7294
▁besought	-11.7294
▁Dhoni	-11.7294
▁quest	-11.7294
▁awakened	-11.7294
TV	-11.7294
▁sharing	-11.7295
▁repentance	-11.7295
▁Continue	-11.7296
▁glow	-11.7296
Record	-11.7296
▁flowering	-11.7297
▁ripe	-11.7297
▁abduct	-11.7297
▁attendance	-11.7297
▁basically	-11.7298
▁Ananta	-11.7298
▁Touch	-11.73
▁Ramayana	-11.73
▁extract	-11.73
▁Moreover	-11.7301
▁convinced	-11.7301
▁tele	-11.7302
▁thirteenth	-11.7306
▁withdrawn	-11.7308
▁promot	-11.7309
▁Jim	-11.7311
▁cock	-11.7312
▁recovery	-11.7312
▁imagine	-11.7314
▁indifferent	-11.7319
▁manifestation	-11.7319
▁subdue	-11.7323
▁buses	-11.7324
▁Win	-11.7329
▁handling	-11.7331
▁Danda	-11.7332
▁Roy	-11.7339
▁smallest	-11.7343
▁txt	-11.7344
▁Learning	-11.7344
yama	-11.7349
▁Kacha	-11.7353
their	-11.7358
▁800	-11.7367
▁consumer	-11.7378
▁hat	-11.7379
ón	-11.7383
▁cleanse	-11.7398
100	-11.7399
iest	-11.7405
▁danced	-11.7407
▁yell	-11.7409
Among	-11.7415
▁sect	-11.7416
▁determin	-11.7416
▁yog	-11.7423
▁prepar	-11.7432
▁bewail	-11.7435
▁Vala	-11.7454
▁sinners	-11.7468
▁refuses	-11.7468
▁Tho	-11.7471
▁yells	-11.7472
▁tempt	-11.7478
present	-11.7493
pleased	-11.7494
=	-11.7495
Again	-11.7495
Before	-11.7495
destroying	-11.7495
protect	-11.7495
front	-11.7497
▁clock	-11.7501
▁ensu	-11.7504
▁Sukh	-11.7505
▁fiction	-11.7508
▁Sel	-11.7509
force	-11.7514
▁loyal	-11.7514
▁Kunda	-11.7515
ज	-11.7515
▁Blood	-11.7515
▁Dvapara	-11.7515
▁HIV	-11.7515
▁Jajali	-11.7515
▁Janasthāna	-11.7515
▁Macedonia	-11.7515
▁Patriarch	-11.7515
▁Puducherry	-11.7515
▁Rakşasas	-11.7515
▁abundance	-11.7515
▁acclaim	-11.7515
▁algorithm	-11.7515
▁assemblage	-11.7515
▁beauteous	-11.7515
▁besmeared	-11.7515
▁competitor	-11.7515
▁conversion	-11.7515
▁definition	-11.7515
▁delicate	-11.7515
▁dishonour	-11.7515
▁impenetrable	-11.7515
▁junior	-11.7515
▁liquor	-11.7515
▁sojourn	-11.7515
▁syllable	-11.7515
▁vegetation	-11.7515
▁vendor	-11.7515
▁Chamber	-11.7515
▁Source	-11.7515
▁remake	-11.7515
▁wedded	-11.7515
▁Shree	-11.7515
▁bulk	-11.7515
▁solemn	-11.7515
▁interior	-11.7515
dorf	-11.7515
▁Download	-11.7515
▁Plateau	-11.7515
▁Future	-11.7515
▁incense	-11.7515
▁Sholay	-11.7516
▁criticized	-11.7516
▁Trump	-11.7516
▁admitted	-11.7516
▁intellectual	-11.7516
▁lunch	-11.7516
▁disturbance	-11.7516
▁baseball	-11.7516
▁dinner	-11.7516
▁garb	-11.7517
▁wight	-11.7517
▁Alpha	-11.7517
▁cavern	-11.7517
▁Bana	-11.7518
▁Sangam	-11.7519
▁1900	-11.752
▁Mudra	-11.752
▁visitors	-11.752
▁resume	-11.7521
▁travelling	-11.7521
▁undertaken	-11.7522
▁dealt	-11.7524
▁Devot	-11.7525
▁Panel	-11.7526
▁dealer	-11.7529
▁extinguished	-11.753
▁Covered	-11.7534
▁Gang	-11.7535
▁43	-11.7537
▁Bag	-11.754
▁Saha	-11.754
▁conches	-11.7545
▁Shall	-11.7545
śva	-11.7546
▁refuse	-11.7546
▁Ul	-11.7548
▁Creat	-11.7549
▁unlike	-11.755
▁Salim	-11.7551
▁stained	-11.7553
▁Madraka	-11.7554
▁Turk	-11.7557
▁Anger	-11.756
▁shrine	-11.7562
▁Rā	-11.7563
amous	-11.7564
▁Hum	-11.7564
▁quote	-11.7565
▁tube	-11.7565
gel	-11.7567
▁requirement	-11.7567
▁moderate	-11.7574
▁sinner	-11.7576
▁fist	-11.758
▁thereat	-11.758
ghat	-11.7589
▁strip	-11.7595
93	-11.7598
▁asunder	-11.7601
▁spik	-11.7604
▁imported	-11.7604
▁spices	-11.7607
▁chronic	-11.7608
▁befall	-11.7611
muni	-11.7613
▁whi	-11.7614
▁obstacles	-11.7616
▁Satan	-11.7621
▁Yadavas	-11.7626
▁49	-11.7635
▁73	-11.7639
NG	-11.7641
▁Turn	-11.7649
▁comic	-11.7656
moon	-11.7661
▁Andhakas	-11.7665
God	-11.7668
▁Amen	-11.7674
▁delayed	-11.7676
quality	-11.7678
▁Lind	-11.7684
▁shaped	-11.7684
IC	-11.7685
▁Kush	-11.7688
▁trusted	-11.769
▁Think	-11.7694
▁accountant	-11.7707
▁condemn	-11.771
▁dismiss	-11.771
▁Freed	-11.7711
▁Pā	-11.7721
Sacrifice	-11.7722
through	-11.7722
petals	-11.7723
riders	-11.7723
▁fright	-11.7727
writer	-11.7729
▁thrill	-11.7732
▁migrat	-11.7733
array	-11.7734
▁kindly	-11.7734
▁dirt	-11.7735
▁habitat	-11.7739
rong	-11.7739
▁affectionate	-11.7741
▁eater	-11.7742
▁Accept	-11.7742
▁Hundred	-11.7742
▁Independence	-11.7742
▁MARC	-11.7742
▁Maintain	-11.7742
▁Muvattupuzha	-11.7742
▁MySQL	-11.7742
▁Saturday	-11.7742
▁bishop	-11.7742
▁comparison	-11.7742
▁denizens	-11.7742
▁desktop	-11.7742
▁diabetes	-11.7742
▁dynasties	-11.7742
▁exhalation	-11.7742
▁expenditure	-11.7742
▁glorified	-11.7742
▁immeasurably	-11.7742
▁populous	-11.7742
▁predecessor	-11.7742
▁skull	-11.7742
▁triangle	-11.7742
ो	-11.7742
▁Kadamba	-11.7742
▁cannibal	-11.7742
▁enlighten	-11.7742
▁fishermen	-11.7742
▁Hiranya	-11.7742
▁orchestra	-11.7742
▁prodigi	-11.7742
▁smash	-11.7742
▁translation	-11.7742
▁unwilling	-11.7742
▁Rși	-11.7742
▁raiment	-11.7742
▁Smriti	-11.7742
▁absent	-11.7742
▁mankind	-11.7742
▁residing	-11.7742
▁hiin	-11.7742
▁Application	-11.7743
▁Insert	-11.7743
▁Thiru	-11.7743
▁wrestler	-11.7743
▁restrictions	-11.7743
▁refund	-11.7743
▁neighbourhood	-11.7743
▁goalkeeper	-11.7743
▁intense	-11.7743
▁Content	-11.7744
▁hypo	-11.7744
▁iOS	-11.7744
▁Srinagar	-11.7744
▁Indraprastha	-11.7744
▁patronage	-11.7744
▁Wood	-11.7746
▁Monday	-11.7746
▁Rising	-11.7747
▁temptation	-11.7747
▁cough	-11.7748
▁buffaloes	-11.7748
▁fitting	-11.7749
▁fictional	-11.775
▁selfcontrol	-11.775
▁kiss	-11.775
▁Fox	-11.775
▁Ratan	-11.7751
▁Cook	-11.7751
▁Sena	-11.7751
▁Eight	-11.7752
▁Ep	-11.7756
▁initialized	-11.7758
▁conclude	-11.7759
▁drenched	-11.776
▁drowned	-11.7761
kali	-11.7768
▁violently	-11.7769
▁lauded	-11.777
▁shocked	-11.7773
▁condemned	-11.7775
▁decreased	-11.7777
stirring	-11.7779
ender	-11.7781
▁Bhurisravas	-11.7786
▁profusely	-11.779
▁blamed	-11.779
▁Finding	-11.7794
▁enhanced	-11.7794
▁spear	-11.7795
!"""	-11.7802
▁cleared	-11.7803
▁drum	-11.7811
▁fortress	-11.7813
ank	-11.7817
▁Bandi	-11.7831
▁stud	-11.7831
▁mini	-11.7832
zu	-11.7837
▁Tree	-11.7852
▁Gada	-11.7856
án	-11.7864
▁Vol	-11.7869
▁Romania	-11.787
▁fulfil	-11.7873
▁Vega	-11.7873
▁investing	-11.7885
▁seasonal	-11.7888
▁interact	-11.7892
▁lend	-11.7896
Oh	-11.7896
▁Leave	-11.7898
▁Vya	-11.7901
kund	-11.7905
▁deprive	-11.7913
wala	-11.7924
cell	-11.7925
▁fre	-11.7929
▁planted	-11.7937
▁Shata	-11.7937
uro	-11.7939
▁Mill	-11.794
▁disappoint	-11.7942
change	-11.7944
▁sir	-11.7946
54	-11.7947
▁bearer	-11.795
bury	-11.7951
▁journal	-11.7952
▁Rule	-11.7952
▁restless	-11.7954
largest	-11.7955
them	-11.7955
three	-11.7956
▁reader	-11.7959
▁Speak	-11.7966
▁municipal	-11.7973
▁Dhrishtaketu	-11.7975
▁Imperial	-11.7975
▁KTouch	-11.7975
▁Professional	-11.7975
▁Purnima	-11.7975
▁Sharadvata	-11.7975
▁Software	-11.7975
▁assurance	-11.7975
▁cylinder	-11.7975
▁dispersed	-11.7975
▁fountain	-11.7975
▁franchise	-11.7975
▁lecture	-11.7975
▁module	-11.7975
▁pencil	-11.7975
▁progeny	-11.7975
▁prohibit	-11.7975
▁reluctant	-11.7975
▁sepoys	-11.7975
▁temporary	-11.7975
▁treadmill	-11.7975
▁vapour	-11.7975
▁architectural	-11.7975
▁complications	-11.7975
▁reconcil	-11.7975
▁rotation	-11.7975
▁shroud	-11.7975
▁striving	-11.7975
▁Bijapur	-11.7975
▁refrain	-11.7975
▁fowls	-11.7975
▁11.10	-11.7975
▁Vidya	-11.7975
▁contend	-11.7975
▁Wealth	-11.7975
▁festivities	-11.7975
▁dagger	-11.7975
▁Turkey	-11.7975
▁bribe	-11.7975
▁1953	-11.7976
▁Transport	-11.7976
▁floorball	-11.7976
▁discern	-11.7976
▁Champa	-11.7976
▁companionship	-11.7976
▁Small	-11.7976
▁font	-11.7976
▁hoping	-11.7976
▁Jackson	-11.7976
▁conciliation	-11.7976
▁fiber	-11.7977
▁Ashtaka	-11.7977
▁tranquility	-11.7977
dyumna	-11.7978
▁consonan	-11.7978
▁Victory	-11.7981
▁tested	-11.7981
▁Mainda	-11.7982
▁parable	-11.7982
scale	-11.7982
▁Johnson	-11.7982
▁fence	-11.7983
▁Parvati	-11.7985
▁exclaiming	-11.7985
▁lifestyle	-11.7985
▁overflow	-11.7985
▁vigorously	-11.7985
▁Hong	-11.7985
▁comprises	-11.7986
▁Chile	-11.7988
▁brass	-11.7988
▁mice	-11.7988
▁posted	-11.7989
▁Finally	-11.7993
▁53	-11.7996
▁Male	-11.7997
▁adviser	-11.7999
▁partial	-11.8
face	-11.8001
plus	-11.8005
▁arisen	-11.8009
▁dominate	-11.801
▁Rio	-11.8013
▁thirsty	-11.8018
▁autonomous	-11.8021
▁wickedness	-11.8025
▁Corn	-11.8029
▁modest	-11.803
▁"""""""	-11.803
▁Yash	-11.8031
▁defending	-11.8033
▁Setting	-11.8036
300	-11.8037
▁Math	-11.8037
▁NA	-11.8038
▁sustained	-11.8042
▁therefrom	-11.8043
▁dip	-11.8044
▁judged	-11.8044
TE	-11.8049
▁Lamb	-11.805
gina	-11.805
▁Qa	-11.8051
▁mm	-11.8053
chandra	-11.8058
Inside	-11.8061
uster	-11.8068
▁flooding	-11.8069
▁Rana	-11.807
rank	-11.8071
▁murdered	-11.8072
त्	-11.8077
▁Kekayas	-11.808
▁outline	-11.8082
▁grasped	-11.8082
▁defender	-11.8083
▁hilly	-11.8084
ccompanied	-11.8088
▁Tro	-11.8107
▁Observ	-11.8111
▁integrat	-11.8148
▁scorch	-11.8158
▁Tony	-11.8161
▁Rajya	-11.8161
▁rhythm	-11.8164
▁purify	-11.8165
shot	-11.8169
▁Band	-11.8171
▁totally	-11.8174
”."	-11.8175
▁procur	-11.8184
break	-11.8184
▁Burma	-11.8186
apparent	-11.8193
breath	-11.8193
Similarly	-11.8193
elephant	-11.8193
Dhritarashtra	-11.8193
Even	-11.8193
mountain	-11.8193
▁seiz	-11.8194
▁160	-11.8202
▁cheap	-11.8203
▁App	-11.8204
FF	-11.8205
quar	-11.8207
ã	-11.8208
▁Tor	-11.8209
ग	-11.8213
ृ	-11.8213
▁1939	-11.8213
▁Agriculture	-11.8213
▁Devavrata	-11.8213
▁Judaea	-11.8213
▁Lucknow	-11.8213
▁Management	-11.8213
▁Object	-11.8213
▁Orthodox	-11.8213
▁Terminal	-11.8213
▁Twitter	-11.8213
▁Vaishravana	-11.8213
▁cabinet	-11.8213
▁challenging	-11.8213
▁disrespect	-11.8213
▁eligible	-11.8213
▁eunuch	-11.8213
▁furniture	-11.8213
▁haughty	-11.8213
▁hectares	-11.8213
▁infested	-11.8213
▁intermediate	-11.8213
▁proficient	-11.8213
▁rupee	-11.8213
▁temporal	-11.8213
▁unfading	-11.8213
▁unguents	-11.8213
च	-11.8213
▁Street	-11.8213
▁competing	-11.8213
▁seventeen	-11.8213
▁Relax	-11.8213
▁helmet	-11.8213
▁stalk	-11.8213
▁null	-11.8213
▁Geeta	-11.8213
▁dwarf	-11.8213
▁agencies	-11.8213
puzha	-11.8213
▁Prithu	-11.8213
▁amateur	-11.8213
▁costume	-11.8213
▁Modern	-11.8213
▁Tropic	-11.8213
▁ICT	-11.8213
▁exclamation	-11.8213
▁managing	-11.8213
▁Delete	-11.8213
▁dozen	-11.8213
▁labor	-11.8213
▁Boeing	-11.8214
▁carving	-11.8214
▁creative	-11.8214
▁1938	-11.8214
▁repay	-11.8214
▁prospect	-11.8214
▁Kirata	-11.8214
▁monster	-11.8214
▁Ratna	-11.8215
▁lesion	-11.8215
▁Jaipur	-11.8215
▁ownership	-11.8216
▁Senator	-11.8216
▁missed	-11.8216
▁foam	-11.8216
▁conference	-11.8217
▁efficient	-11.8218
▁Gulf	-11.8218
▁Sachi	-11.8219
▁57	-11.8221
▁trailer	-11.8221
▁somewhat	-11.8221
heim	-11.8222
▁cheerfulness	-11.8223
▁Doctor	-11.8224
▁flashes	-11.8225
easing	-11.8229
▁golf	-11.8235
card	-11.8236
▁atheist	-11.8237
▁Kā	-11.8238
▁forgiven	-11.8239
▁Wait	-11.824
▁क	-11.8241
▁Commissioner	-11.8245
▁feathered	-11.8247
▁hare	-11.8254
▁Holding	-11.8255
Data	-11.8258
▁setup	-11.8258
▁Said	-11.8258
▁Stop	-11.8259
▁cancel	-11.826
ED	-11.8267
▁slopes	-11.8268
▁Alaska	-11.8268
▁merchant	-11.8277
▁rarely	-11.8277
▁expense	-11.8278
▁horn	-11.8281
▁edifices	-11.8286
▁correctly	-11.8286
▁Pleased	-11.8288
▁roaming	-11.8291
▁curl	-11.8292
▁darker	-11.8302
▁79	-11.8307
▁Whence	-11.8311
▁broker	-11.8316
▁Sony	-11.8321
▁Bush	-11.8321
▁Ether	-11.8332
▁Bio	-11.8341
Com	-11.8344
ault	-11.8345
▁Zu	-11.8345
▁tro	-11.8367
kti	-11.8367
▁83	-11.8368
kuta	-11.8371
paka	-11.8372
▁sinking	-11.8374
▁separat	-11.8376
▁Vice	-11.8376
▁cal	-11.8379
▁51	-11.8383
▁Kon	-11.8385
▁mounting	-11.8385
wind	-11.8399
gaon	-11.84
▁proto	-11.8413
vu	-11.8423
▁84	-11.8423
▁confront	-11.8425
tree	-11.8426
▁shock	-11.8429
▁76	-11.8434
restraint	-11.8437
Shakuni	-11.8437
sacrificial	-11.8437
rmal	-11.844
aland	-11.844
▁Jha	-11.8451
▁Ranji	-11.8453
▁Champion	-11.8456
▁Multi	-11.8457
▁Assignment	-11.8457
▁Brihannala	-11.8457
▁Capital	-11.8457
▁FIDE	-11.8457
▁Placing	-11.8457
▁Remove	-11.8457
▁Samsaptakas	-11.8457
▁ambassador	-11.8457
▁brilliance	-11.8457
▁cliff	-11.8457
▁coconut	-11.8457
▁cycling	-11.8457
▁definitely	-11.8457
▁dioxide	-11.8457
▁insensible	-11.8457
▁sacrificing	-11.8457
▁sensitive	-11.8457
▁testimony	-11.8457
▁Method	-11.8457
▁Vidharbha	-11.8457
▁anticipat	-11.8457
▁apparel	-11.8457
▁aversion	-11.8457
▁vagina	-11.8457
ण	-11.8457
▁exhort	-11.8457
▁parrot	-11.8457
▁potato	-11.8457
▁Kaveri	-11.8457
▁enlarge	-11.8457
▁lonely	-11.8457
▁indicator	-11.8457
▁sunrise	-11.8457
▁Yavanas	-11.8457
▁dutiful	-11.8457
▁sundered	-11.8457
▁abiding	-11.8457
▁Maharsi	-11.8457
▁Madurai	-11.8457
▁volleyball	-11.8457
▁barrier	-11.8457
▁Yajnasena	-11.8457
▁inhalation	-11.8457
▁copious	-11.8457
▁Valhika	-11.8457
▁pennons	-11.8457
▁marine	-11.8458
▁Brown	-11.8458
▁cancelled	-11.8458
▁1944	-11.8458
▁agreeably	-11.8458
▁stuff	-11.8458
▁haunt	-11.8458
▁Sakti	-11.8458
▁skate	-11.8458
▁venomous	-11.8458
▁fortitude	-11.8458
▁headache	-11.8459
▁impell	-11.8459
▁earrings	-11.8459
▁Jambu	-11.8459
▁Myself	-11.8459
▁renew	-11.846
▁laden	-11.846
▁Stock	-11.846
▁denote	-11.8461
▁Kiritin	-11.8461
▁enhanc	-11.8462
▁minority	-11.8463
lmost	-11.8464
▁suspended	-11.8465
▁Ruru	-11.8466
▁penis	-11.8467
▁cheaper	-11.8468
▁acceptance	-11.8468
▁selves	-11.8469
▁mock	-11.8469
▁excel	-11.847
▁Iravat	-11.847
▁manufacturer	-11.847
▁Bible	-11.8471
▁colony	-11.8475
▁enrolled	-11.8477
hitting	-11.8478
▁thereafter	-11.8482
▁Maria	-11.8483
fish	-11.8484
▁Sanat	-11.8487
▁000	-11.8489
▁Asita	-11.849
▁Burning	-11.8494
▁gland	-11.8494
▁classic	-11.8497
▁offended	-11.8497
āna	-11.8497
▁suspected	-11.8507
▁losses	-11.8516
bank	-11.8518
Maha	-11.8518
▁Gujarati	-11.8519
maya	-11.8526
▁hiding	-11.8526
▁consulting	-11.8527
▁seize	-11.853
minated	-11.853
▁deserved	-11.8531
▁secretly	-11.8536
▁Bhim	-11.8544
hag	-11.8546
▁withdrawing	-11.8547
▁Last	-11.8552
▁closer	-11.8553
▁handled	-11.8553
national	-11.8556
▁Tang	-11.8561
▁notably	-11.8567
army	-11.8567
dara	-11.8567
▁steed	-11.8576
visaged	-11.8577
final	-11.8579
zon	-11.8586
▁Karam	-11.8586
eptic	-11.8586
ttered	-11.8593
▁outward	-11.8595
▁Rest	-11.86
▁Hay	-11.8602
▁78	-11.861
▁Bowl	-11.8611
▁Upa	-11.8613
▁pursu	-11.8617
▁Bun	-11.8623
▁resound	-11.8626
tified	-11.8637
▁sho	-11.8637
▁lin	-11.8639
vine	-11.864
▁wend	-11.8654
kula	-11.8663
▁Arriv	-11.8676
stick	-11.8676
Yudhisthira	-11.8687
foot	-11.8687
general	-11.8688
▁invoke	-11.8691
▁chastise	-11.8695
maker	-11.8696
▁Bol	-11.87
herds	-11.8703
▁ere	-11.8706
▁architect	-11.8706
dhvaja	-11.8707
▁Bhargava	-11.8707
▁Elizabeth	-11.8707
▁Jordan	-11.8707
▁Kozhikode	-11.8707
▁Minnesota	-11.8707
▁PlayStation	-11.8707
▁altogether	-11.8707
▁archaeological	-11.8707
▁circumcision	-11.8707
▁educated	-11.8707
▁gravity	-11.8707
▁imprisoned	-11.8707
▁struggling	-11.8707
▁transparent	-11.8707
▁unhappy	-11.8707
▁Khurram	-11.8707
▁Tuesday	-11.8707
▁Vajpayee	-11.8707
▁Werkudara	-11.8707
▁Desert	-11.8707
▁incarnate	-11.8707
▁phrase	-11.8707
▁modify	-11.8707
▁Penances	-11.8707
▁stability	-11.8707
▁unstable	-11.8707
▁Kamyaka	-11.8707
▁sentiment	-11.8707
▁avenge	-11.8707
▁copied	-11.8707
discriminat	-11.8707
▁stature	-11.8708
▁Turkish	-11.8708
▁meanwhile	-11.8708
▁1937	-11.8708
▁Patron	-11.8708
▁recourse	-11.8709
▁aerial	-11.8709
▁Daily	-11.871
▁salary	-11.871
▁bards	-11.871
▁rally	-11.8711
▁duck	-11.8712
▁Khasi	-11.8712
▁gait	-11.8712
▁tension	-11.8713
▁leak	-11.8713
स	-11.8714
▁dull	-11.8714
▁Cut	-11.8716
▁replacement	-11.8716
▁tiny	-11.8717
▁Bond	-11.8718
▁resonan	-11.8718
▁implementation	-11.872
▁flies	-11.872
▁brake	-11.8721
▁dug	-11.8721
ASANA	-11.8722
▁fitness	-11.8723
▁certainty	-11.8724
▁healing	-11.8724
▁recreational	-11.8726
achi	-11.8726
▁guru	-11.8727
▁tolerate	-11.8729
devi	-11.873
▁Tele	-11.8734
▁proclaimed	-11.8738
ducted	-11.8741
haka	-11.8745
▁educational	-11.8748
▁candle	-11.8749
fanned	-11.8757
▁Siddh	-11.876
▁Tala	-11.8761
▁terrorist	-11.8765
▁improvement	-11.8767
▁Schw	-11.8771
▁silently	-11.8772
ggle	-11.8774
▁injunction	-11.8783
▁limb	-11.8785
▁soothing	-11.8785
lung	-11.8789
▁engineer	-11.8791
▁citizen	-11.8793
▁elderly	-11.88
▁Joe	-11.8806
▁250	-11.8806
▁onwards	-11.8814
have	-11.8815
▁sailing	-11.8818
▁reared	-11.8822
▁demanded	-11.8828
▁Abu	-11.8831
jsp	-11.8833
May	-11.8834
▁Py	-11.884
fix	-11.8866
▁Cuba	-11.8866
▁Syria	-11.8898
▁Rail	-11.8905
▁Net	-11.8921
▁Vena	-11.8922
▁administer	-11.8931
▁overwhelm	-11.8931
▁Camp	-11.8942
>	-11.8943
Since	-11.8943
knowing	-11.8943
joint	-11.8945
III	-11.8947
▁argue	-11.8947
▁Nadi	-11.895
▁Bhai	-11.8956
▁prosper	-11.8961
▁Achyuta	-11.8963
▁Airavata	-11.8963
▁Aniruddha	-11.8963
▁Calculus	-11.8963
▁Disregard	-11.8963
▁Global	-11.8963
▁Ikshvaku	-11.8963
▁Kuntibhoja	-11.8963
▁Moscow	-11.8963
▁Sudakshina	-11.8963
▁Varanasi	-11.8963
▁Vietnam	-11.8963
▁Wildlife	-11.8963
▁affiliate	-11.8963
▁complicated	-11.8963
▁conservative	-11.8963
▁dissuade	-11.8963
▁fickle	-11.8963
▁influential	-11.8963
▁obliged	-11.8963
▁obsequi	-11.8963
▁pandemic	-11.8963
▁polished	-11.8963
▁possibility	-11.8963
▁remembrance	-11.8963
▁resolute	-11.8963
▁resurrection	-11.8963
▁worry	-11.8963
▁Badami	-11.8963
▁dauntless	-11.8963
▁lofty	-11.8963
▁plunder	-11.8963
▁twain	-11.8963
▁Begum	-11.8963
▁Initially	-11.8963
▁Yaksas	-11.8963
▁Oxford	-11.8963
▁Slowly	-11.8963
▁shortcomings	-11.8963
▁SCI	-11.8963
▁elated	-11.8963
▁>>	-11.8963
▁Server	-11.8963
▁Ahmad	-11.8963
▁deficiency	-11.8963
▁protocol	-11.8963
▁dispens	-11.8963
▁benedictions	-11.8964
▁Chittor	-11.8964
▁twinkl	-11.8964
▁Mathura	-11.8964
▁Crown	-11.8964
▁excitement	-11.8964
▁1934	-11.8964
▁Otherwise	-11.8964
▁reduction	-11.8965
▁Receiv	-11.8965
▁inheritance	-11.8965
▁marsh	-11.8965
▁taluk	-11.8965
▁1935	-11.8965
ilitary	-11.8965
google	-11.8965
▁specify	-11.8966
▁initiation	-11.8966
▁stopping	-11.8966
▁conflagration	-11.8966
▁accessible	-11.8967
▁sudo	-11.8967
▁cheat	-11.8967
▁Point	-11.8967
▁Nagpur	-11.8967
▁dropdown	-11.8968
▁Wiki	-11.8968
▁History	-11.8968
▁Wound	-11.8968
▁Taraka	-11.8969
▁multiplied	-11.8969
▁Clive	-11.8969
▁thyroid	-11.8971
▁respectful	-11.8972
▁alcoholic	-11.8973
▁controller	-11.8974
puri	-11.8976
▁Ratha	-11.8976
▁Kid	-11.8978
▁Speaker	-11.898
▁stainless	-11.8981
yuta	-11.8981
▁mainland	-11.8981
▁thronged	-11.8982
▁Bose	-11.8985
▁roughly	-11.8987
▁passive	-11.8989
▁flourished	-11.8993
▁lifetime	-11.8994
▁greeted	-11.8995
▁Nandana	-11.8999
▁Vara	-11.9
▁Gent	-11.9001
▁wretches	-11.9003
▁smiled	-11.9006
ddy	-11.9007
plane	-11.9007
▁Poll	-11.9008
▁addresses	-11.9009
ņi	-11.9011
▁Row	-11.9015
▁implemented	-11.902
▁behaved	-11.902
00,000	-11.9022
angled	-11.9036
▁despise	-11.904
▁oblation	-11.9047
▁Apsara	-11.9048
▁tusk	-11.9049
▁sce	-11.905
▁headless	-11.905
▁undergoing	-11.9056
▁Taj	-11.9057
▁Vani	-11.9068
▁cro	-11.9076
▁93	-11.9079
IM	-11.908
nny	-11.9085
▁Mau	-11.9098
▁Ganesha	-11.9101
▁subdu	-11.9105
uja	-11.9106
▁Nisha	-11.9107
53	-11.9113
▁shorter	-11.9121
verge	-11.9135
▁Kris	-11.9144
▁processor	-11.9146
29	-11.9146
FC	-11.9147
▁skip	-11.9163
▁bless	-11.9169
look	-11.9169
▁Gopal	-11.917
▁vomit	-11.9178
▁exceed	-11.9179
▁cultivat	-11.9191
▁greet	-11.9193
▁proclaim	-11.9194
▁dedicat	-11.92
before	-11.9207
▁Direct	-11.9208
▁initialize	-11.9212
▁Väst	-11.9215
▁Arjun	-11.9216
▁jealous	-11.9216
▁Gautam	-11.9217
food	-11.9217
▁buffalo	-11.9219
▁Dip	-11.9223
▁grocer	-11.9225
those	-11.9226
▁Kshetra	-11.9226
▁Arundhati	-11.9226
▁Captain	-11.9226
▁Chitrangada	-11.9226
▁Convention	-11.9226
▁Energy	-11.9226
▁Originally	-11.9226
▁Rishyashringa	-11.9226
▁Råma	-11.9226
▁Rākşasī	-11.9226
▁Stanley	-11.9226
▁Synaptic	-11.9226
▁Technology	-11.9226
▁Yudhamanyu	-11.9226
▁addiction	-11.9226
▁bandwidth	-11.9226
▁benevolence	-11.9226
▁chicken	-11.9226
▁clephant	-11.9226
▁deceased	-11.9226
▁duplicate	-11.9226
▁excavated	-11.9226
▁gesture	-11.9226
▁imprecated	-11.9226
▁jungle	-11.9226
▁lieutenant	-11.9226
▁opportunities	-11.9226
▁scabies	-11.9226
▁veteran	-11.9226
â	-11.9226
▁degraded	-11.9226
▁mysterious	-11.9226
▁Either	-11.9226
▁Subsequent	-11.9226
▁abolish	-11.9226
▁clerk	-11.9226
▁genus	-11.9226
▁piano	-11.9226
▁Arthur	-11.9226
▁ignore	-11.9226
▁wrist	-11.9226
▁Sadhyas	-11.9226
▁bashful	-11.9226
▁diplomat	-11.9226
▁Kshetrajna	-11.9227
▁Browse	-11.9227
▁OPAC	-11.9227
▁Ministry	-11.9227
▁Lewis	-11.9227
▁populated	-11.9227
▁blend	-11.9227
▁Indies	-11.9227
▁Scottish	-11.9227
▁initiative	-11.9228
▁hastily	-11.9228
▁banian	-11.9228
▁colonies	-11.9229
▁spite	-11.9229
▁Garden	-11.9229
▁अ	-11.9229
▁Provide	-11.9229
▁spectacle	-11.9229
▁courageous	-11.923
▁straightway	-11.923
▁blog	-11.923
▁treatise	-11.923
dham	-11.9232
▁Malwa	-11.9232
making	-11.9232
▁Stretch	-11.9232
▁offense	-11.9232
▁Ishana	-11.9232
▁utterance	-11.9232
▁animated	-11.9234
▁kindred	-11.9235
▁vehemently	-11.9236
▁incorporated	-11.9236
▁rib	-11.9236
▁everybody	-11.9237
▁Bend	-11.9237
▁Beach	-11.9238
▁Seven	-11.9238
▁bravery	-11.9238
▁profitable	-11.9238
▁Cycl	-11.924
angetic	-11.9241
▁Media	-11.9242
▁blissful	-11.9242
▁clip	-11.9243
▁partially	-11.9245
▁Jean	-11.9245
▁Raya	-11.9252
▁Operation	-11.9257
▁Had	-11.9261
▁scorched	-11.9263
▁extracted	-11.9266
▁blessedness	-11.9268
scribed	-11.9272
▁chanted	-11.9272
▁patiently	-11.9277
guru	-11.9278
▁Lim	-11.9298
.........	-11.9298
▁tale	-11.9313
dala	-11.9313
34	-11.9315
pho	-11.9316
▁variation	-11.9317
▁component	-11.9317
▁vegetable	-11.9317
▁Chedi	-11.9318
▁Andhaka	-11.9331
▁rolled	-11.9333
▁ascertained	-11.9335
▁musician	-11.9336
▁Modi	-11.9344
Indian	-11.9351
▁VI	-11.9356
▁rend	-11.9359
▁mastery	-11.9374
▁pause	-11.9377
▁mono	-11.9385
▁Kite	-11.9388
ranga	-11.939
life	-11.9397
▁Havi	-11.9412
▁emerge	-11.9415
▁dispell	-11.9416
44	-11.9422
cpp	-11.943
▁donation	-11.9438
▁compar	-11.9438
▁Raju	-11.9439
▁forbid	-11.9448
600	-11.9461
▁laud	-11.947
speeched	-11.9471
existent	-11.9477
Please	-11.9477
cloud	-11.9477
speaking	-11.9478
Add	-11.9479
Agni	-11.948
▁collapse	-11.948
▁relieve	-11.9486
▁Sage	-11.9495
▁Scott	-11.9496
wani	-11.9496
▁irregular	-11.9497
▁Affairs	-11.9497
▁Bhansali	-11.9497
▁Darjeeling	-11.9497
▁Dvivida	-11.9497
▁Eventually	-11.9497
▁Executive	-11.9497
▁Jönköping	-11.9497
▁Lieutenant	-11.9497
▁Presidency	-11.9497
▁Sushena	-11.9497
▁Universal	-11.9497
▁Urvashi	-11.9497
▁Vishvedevas	-11.9497
▁commemorat	-11.9497
▁commerce	-11.9497
▁consumption	-11.9497
▁cymbals	-11.9497
▁enormous	-11.9497
▁expanse	-11.9497
▁exquisite	-11.9497
▁hesitation	-11.9497
▁lawsuit	-11.9497
▁legislature	-11.9497
▁liberty	-11.9497
▁magnificent	-11.9497
▁necklace	-11.9497
▁negotiate	-11.9497
▁profusion	-11.9497
▁strategic	-11.9497
▁virtual	-11.9497
Servlet	-11.9497
▁Atiratha	-11.9497
▁blasphem	-11.9497
▁kickboxing	-11.9497
▁pepper	-11.9497
▁pioneer	-11.9497
▁rumble	-11.9497
▁shrub	-11.9497
▁Double	-11.9497
▁Nokia	-11.9497
▁Witness	-11.9497
▁lilies	-11.9497
▁segment	-11.9497
▁termination	-11.9497
▁roving	-11.9497
▁Yakşas	-11.9497
▁scheme	-11.9497
▁Kadru	-11.9497
▁telephone	-11.9497
▁immers	-11.9497
▁humid	-11.9497
Nevertheless	-11.9497
▁Sapta	-11.9497
▁Collect	-11.9497
▁Brahmă	-11.9497
▁Atharva	-11.9497
▁slough	-11.9497
▁redoubtable	-11.9497
▁Rāks	-11.9497
▁Matanga	-11.9497
▁adventure	-11.9497
▁Daruka	-11.9497
▁Khalji	-11.9497
▁kids	-11.9497
▁1929	-11.9498
▁Standard	-11.9498
illusive	-11.9498
▁Program	-11.9498
▁toxic	-11.9498
▁Honor	-11.9498
▁derby	-11.9499
▁Marichi	-11.9499
▁Walk	-11.9499
▁dumb	-11.9499
▁drainage	-11.9499
▁disappearance	-11.9499
▁Davis	-11.9499
▁maņa	-11.9499
▁Bhutan	-11.9499
▁cyclone	-11.95
▁Level	-11.95
▁coral	-11.9501
▁Swami	-11.9501
▁extinction	-11.9502
▁Timur	-11.9502
▁conviction	-11.9503
▁Arabic	-11.9504
▁verify	-11.9504
▁hub	-11.9505
▁organic	-11.9505
▁59	-11.9505
▁Inhale	-11.9505
havi	-11.9506
▁Report	-11.9506
▁Fight	-11.9506
▁migration	-11.9507
▁rub	-11.951
▁blindness	-11.9512
▁Khal	-11.9512
▁Shura	-11.9513
▁Jiva	-11.9515
–19	-11.9515
▁printf	-11.9518
pathy	-11.9518
▁discovery	-11.9519
▁surge	-11.952
▁stunn	-11.952
▁10,000	-11.9521
▁favourable	-11.9522
▁consolidated	-11.9524
▁scarce	-11.9526
KF	-11.9527
▁Max	-11.953
▁ridge	-11.9532
▁confronted	-11.9533
▁Treat	-11.9538
▁Nepali	-11.9538
▁undo	-11.9539
▁Poor	-11.954
▁Eye	-11.9541
▁approaches	-11.9545
▁Chan	-11.9547
▁destin	-11.9549
▁wider	-11.9551
▁Customer	-11.9553
▁Palm	-11.9555
▁thc	-11.9557
▁Babur	-11.9557
▁bullet	-11.9557
RT	-11.9561
▁sul	-11.9563
-“	-11.9568
▁Vaish	-11.9568
▁flooded	-11.9571
▁tin	-11.9576
▁expire	-11.9576
▁touches	-11.9578
▁lore	-11.9578
▁Bob	-11.9582
OU	-11.9593
▁believeth	-11.9593
▁Baka	-11.9594
▁Menu	-11.9594
▁solicited	-11.9599
▁crag	-11.9601
▁Hold	-11.9612
▁Kusa	-11.9614
▁penetrate	-11.9621
▁Lie	-11.9621
▁pea	-11.9625
mino	-11.9627
▁Late	-11.9636
▁trauma	-11.964
▁120	-11.9644
tempered	-11.9645
▁Amit	-11.9651
▁employer	-11.9652
gcc	-11.9663
▁Milk	-11.9664
▁USD	-11.9665
“	-11.9682
▁Guna	-11.9712
▁alternate	-11.9715
still	-11.9728
▁transform	-11.9735
▁sever	-11.9735
▁encircl	-11.9742
▁uplift	-11.9742
▁flourish	-11.9743
Kubera	-11.9754
Also	-11.9755
world	-11.9755
Kunti	-11.9755
appear	-11.9756
monkey	-11.9756
▁deceive	-11.9758
▁concentrate	-11.9758
▁inspire	-11.9759
▁Patt	-11.976
patti	-11.9767
Tell	-11.9767
▁assassin	-11.9774
ō	-11.9774
▁Bharadvāja	-11.9774
▁Colombia	-11.9774
▁Federal	-11.9774
▁Mexican	-11.9774
▁Organization	-11.9774
▁Philadelphia	-11.9774
▁Python	-11.9774
▁Stroke	-11.9774
▁Swaminathan	-11.9774
▁Vaisravana	-11.9774
▁Vashishtha	-11.9774
▁Vibhishana	-11.9774
▁Wisconsin	-11.9774
▁Yavakrit	-11.9774
▁ablaze	-11.9774
▁assemblies	-11.9774
▁attorney	-11.9774
▁conjunction	-11.9774
▁conversing	-11.9774
▁digging	-11.9774
▁henceforth	-11.9774
▁impartially	-11.9774
▁inevitable	-11.9774
▁luminous	-11.9774
▁marvellous	-11.9774
▁ministry	-11.9774
▁participation	-11.9774
▁psychological	-11.9774
▁reception	-11.9774
▁rugby	-11.9774
▁tawny	-11.9774
▁trappings	-11.9774
▁virgin	-11.9774
ल	-11.9774
▁Montreal	-11.9774
▁Purchase	-11.9774
▁extoll	-11.9774
▁kidnap	-11.9774
▁marble	-11.9774
▁sibling	-11.9774
▁twist	-11.9774
olithic	-11.9774
▁Family	-11.9774
▁Godavari	-11.9774
▁Honour	-11.9774
▁Paurava	-11.9774
▁ulcer	-11.9774
▁AND	-11.9774
▁Article	-11.9774
▁affright	-11.9774
▁filth	-11.9775
▁Oregon	-11.9775
▁tumor	-11.9775
▁fried	-11.9775
Script	-11.9775
▁Desai	-11.9775
▁histories	-11.9775
dvipa	-11.9775
▁preserving	-11.9775
▁adverse	-11.9775
▁Konkan	-11.9775
▁begging	-11.9775
Author	-11.9775
▁swim	-11.9775
▁Shankha	-11.9775
▁acres	-11.9776
▁agony	-11.9776
▁dubb	-11.9776
▁compel	-11.9776
▁grey	-11.9776
▁Lohri	-11.9777
▁Brother	-11.9777
▁whils	-11.9777
▁1916	-11.9777
▁dump	-11.9777
▁flock	-11.9778
▁discard	-11.9778
▁Kaushika	-11.9779
▁Roger	-11.978
▁wholesome	-11.978
▁anchorite	-11.9781
▁pink	-11.9782
▁Market	-11.9783
▁Vinda	-11.9784
▁surgeon	-11.9785
▁boot	-11.9785
▁rebuked	-11.9786
master	-11.9787
▁froth	-11.9789
▁Conduct	-11.9789
drop	-11.9791
▁argued	-11.9792
▁67	-11.9792
▁exhibition	-11.9796
viral	-11.9798
▁palat	-11.98
▁Sign	-11.98
▁spotless	-11.9806
▁ponder	-11.9807
▁Arrived	-11.9811
▁defile	-11.9818
▁enabled	-11.9821
▁Pada	-11.9824
▁sown	-11.9826
came	-11.9827
▁Sunda	-11.9828
▁receiver	-11.9837
▁Ajit	-11.9837
▁Salt	-11.9842
itch	-11.9855
▁relaxed	-11.9859
▁formula	-11.9863
▁knoweth	-11.9871
▁scientist	-11.988
▁monument	-11.988
▁Era	-11.9882
▁emit	-11.9883
yogic	-11.9883
▁Qua	-11.9883
▁Unit	-11.9886
▁Whom	-11.9891
▁inhale	-11.9893
▁Sometime	-11.9896
▁designer	-11.9901
▁Vana	-11.991
▁Saka	-11.9912
▁prisoner	-11.9917
cross	-11.9917
▁Prati	-11.9936
▁Dhyan	-11.9942
▁Karwa	-11.9949
morph	-11.9949
mination	-11.9957
▁conduce	-11.9966
▁overlook	-11.9969
▁introduce	-11.9969
▁scatter	-11.998
▁Tapa	-11.999
▁Chang	-12.0008
▁dispatch	-12.0028
▁Asana	-12.0032
▁Magha	-12.0035
possess	-12.004
blue	-12.004
Take	-12.004
grown	-12.0041
division	-12.0043
flying	-12.0043
brother	-12.0043
▁dissolve	-12.0044
▁divorce	-12.0044
Know	-12.0044
think	-12.0048
brand	-12.0049
▁Nava	-12.0049
▁hung	-12.0051
▁Anuvinda	-12.006
▁Athletic	-12.006
▁Avogadro	-12.006
▁BJP	-12.006
▁Dasharna	-12.006
▁Detroit	-12.006
▁Jalaluddin	-12.006
▁Memorial	-12.006
▁Mississippi	-12.006
▁Mukherjee	-12.006
▁Prativindhya	-12.006
▁Saumitri	-12.006
▁Taiwan	-12.006
▁Uragas	-12.006
▁Vamadeva	-12.006
▁advocate	-12.006
▁approval	-12.006
▁celerity	-12.006
▁chocolate	-12.006
▁circum	-12.006
▁consoling	-12.006
▁cremation	-12.006
▁diagram	-12.006
▁emphasiz	-12.006
▁endangered	-12.006
▁explosion	-12.006
▁flexibility	-12.006
▁helicopter	-12.006
▁khyal	-12.006
▁rumbling	-12.006
▁sepulchre	-12.006
▁submerged	-12.006
▁summary	-12.006
▁terrify	-12.006
▁unbearable	-12.006
▁grammar	-12.006
▁smelt	-12.006
▁supervisor	-12.006
▁undaunted	-12.006
▁Polish	-12.006
▁Yakshagana	-12.006
▁endurance	-12.006
▁surcharg	-12.006
▁commend	-12.006
▁deformed	-12.006
▁investigate	-12.006
▁Dream	-12.006
▁Leader	-12.006
▁Actress	-12.006
▁deaf	-12.006
graduate	-12.006
▁Surabhi	-12.0061
▁meditating	-12.0061
▁Agency	-12.0061
borough	-12.0061
▁query	-12.0061
▁wilt	-12.0061
▁precipitation	-12.0061
▁melodious	-12.0061
▁1943	-12.0062
▁Saubha	-12.0062
▁Maryland	-12.0062
▁Large	-12.0063
▁Lotus	-12.0063
▁Yatis	-12.0063
▁Treatment	-12.0063
▁Bhalla	-12.0063
▁Nobel	-12.0063
▁1857	-12.0063
▁immunity	-12.0063
Exhale	-12.0064
▁steam	-12.0064
▁Shibi	-12.0064
▁Kriya	-12.0065
▁slavery	-12.0065
▁$3	-12.0066
▁Broad	-12.0066
▁wrap	-12.0066
▁swing	-12.0067
▁imagination	-12.0068
▁occasionally	-12.0069
▁Store	-12.0069
▁Below	-12.007
▁Arise	-12.007
▁Lady	-12.0071
▁sixteenth	-12.0073
▁Väster	-12.0074
▁Tab	-12.0074
▁Anita	-12.0075
▁Bahu	-12.0076
▁Baji	-12.0079
▁melodi	-12.0079
▁exclud	-12.008
▁dragon	-12.0081
▁eve	-12.0082
▁firmness	-12.0082
two	-12.0083
▁factory	-12.0083
▁Leela	-12.0084
▁Berg	-12.0085
▁cherishes	-12.0087
▁Opera	-12.0095
▁falsif	-12.0095
flat	-12.0097
▁resounded	-12.0098
▁Cash	-12.0098
▁clinical	-12.01
▁realized	-12.0102
▁speaketh	-12.0106
▁56	-12.0106
▁mountainous	-12.0107
▁essentially	-12.0114
▁Giri	-12.0114
▁unborn	-12.0118
▁everyday	-12.0135
▁imitate	-12.0136
▁Nayak	-12.0139
hole	-12.014
▁Table	-12.0143
▁independently	-12.0145
▁nationalist	-12.0146
medha	-12.0154
wide	-12.0167
▁Shrut	-12.0168
▁charm	-12.0173
▁pillar	-12.0174
▁grove	-12.0174
▁Yojana	-12.0175
▁Rose	-12.0182
▁institution	-12.0196
▁lip	-12.0214
nost	-12.0229
bol	-12.0233
▁tape	-12.0277
▁releas	-12.0281
▁Rajesh	-12.029
▁Israeli	-12.0291
▁Fat	-12.0298
▁99	-12.0302
appa	-12.0311
▁Cher	-12.0316
▁54	-12.032
Customer	-12.0334
Notice	-12.0334
acquainted	-12.0334
Rāvana	-12.0334
Vyasa	-12.0334
▁attentive	-12.0338
static	-12.0339
about	-12.0342
▁sanction	-12.0348
level	-12.0351
vān	-12.0352
▁wit	-12.0354
lmighty	-12.0354
▁Arunachal	-12.0354
▁Basketball	-12.0354
▁Connecticut	-12.0354
▁Dänavas	-12.0354
▁JDK	-12.0354
▁Jalasandha	-12.0354
▁Jawahar	-12.0354
▁Louisiana	-12.0354
▁Orchestra	-12.0354
▁Purochana	-12.0354
▁Quebec	-12.0354
▁Sharmishtha	-12.0354
▁Shillong	-12.0354
▁adversity	-12.0354
▁aggressive	-12.0354
▁anniversary	-12.0354
▁bracelets	-12.0354
▁carnivorous	-12.0354
▁charitable	-12.0354
▁circuit	-12.0354
▁concrete	-12.0354
▁crucified	-12.0354
▁dictates	-12.0354
▁dissociat	-12.0354
▁ecosystem	-12.0354
▁equation	-12.0354
▁expedient	-12.0354
▁fossil	-12.0354
▁impediment	-12.0354
▁locusts	-12.0354
▁miracle	-12.0354
▁narration	-12.0354
▁persecution	-12.0354
▁prescription	-12.0354
▁radiant	-12.0354
▁subscription	-12.0354
▁unnecessary	-12.0354
▁utensil	-12.0354
▁Chairman	-12.0354
▁Kargil	-12.0354
▁censor	-12.0354
▁remedy	-12.0354
▁Information	-12.0354
▁harmony	-12.0354
▁infectious	-12.0354
▁melody	-12.0354
▁sharks	-12.0354
▁theatrical	-12.0354
▁Prisata	-12.0354
▁tidings	-12.0354
\	-12.0354
▁thwart	-12.0354
▁disabled	-12.0354
▁mythology	-12.0354
▁eyelid	-12.0354
▁Micro	-12.0354
▁deciduous	-12.0354
▁Kelly	-12.0354
▁intestine	-12.0354
▁squash	-12.0355
▁Cinema	-12.0355
▁inviting	-12.0355
▁hermit	-12.0355
▁excuse	-12.0355
▁Ahmed	-12.0355
▁conscience	-12.0355
▁vector	-12.0355
▁adultery	-12.0355
▁rubber	-12.0355
▁awkdemo	-12.0355
▁naught	-12.0355
▁lodge	-12.0355
▁squad	-12.0355
▁Dangal	-12.0355
▁specialize	-12.0355
▁northwestern	-12.0356
▁1927	-12.0356
▁Matt	-12.0356
▁netball	-12.0356
▁flour	-12.0356
exual	-12.0357
▁compress	-12.0357
▁condom	-12.0357
▁jury	-12.0357
▁laughter	-12.0357
▁liberality	-12.0358
▁reliable	-12.0359
▁halt	-12.0359
▁subjugation	-12.0359
Recall	-12.0361
wear	-12.0361
▁secretary	-12.0362
▁Block	-12.0362
▁Proper	-12.0363
▁moist	-12.0363
▁emanat	-12.0365
▁overthrown	-12.0367
▁Began	-12.0367
▁artistic	-12.0368
▁mature	-12.0368
▁lens	-12.0369
▁foolishness	-12.037
▁USB	-12.037
▁ego	-12.0371
▁Kanva	-12.0374
▁brightness	-12.0374
▁Bern	-12.0378
▁Tru	-12.0379
▁fourteenth	-12.0384
Well	-12.0392
▁procured	-12.0395
▁disguised	-12.0396
▁110	-12.04
▁Uday	-12.0401
▁Officer	-12.041
▁Ship	-12.041
▁equality	-12.0411
▁Rākş	-12.0412
▁Jess	-12.0412
comparable	-12.0412
▁Gate	-12.0415
icide	-12.0415
Come	-12.0417
▁officiate	-12.0421
laid	-12.0429
umerous	-12.0433
▁yards	-12.0436
▁Garo	-12.0444
▁Ashok	-12.0446
▁regulate	-12.0448
▁Khy	-12.0459
▁robber	-12.0469
vahana	-12.0473
▁Thy	-12.0496
malai	-12.05
▁firin	-12.051
▁rape	-12.0515
▁curd	-12.0534
izz	-12.0543
▁evolution	-12.0554
▁metro	-12.0563
▁peer	-12.0567
▁captur	-12.0581
▁Persia	-12.0618
▁complain	-12.0627
attu	-12.0629
western	-12.0636
Excellent	-12.0637
Vidura	-12.0637
worm	-12.0639
▁appreciate	-12.0641
▁conceive	-12.0641
▁absolute	-12.0641
New	-12.0642
▁Shash	-12.0649
whelmed	-12.065
▁republic	-12.0657
▁Abstention	-12.0657
▁Akampana	-12.0657
▁Alayudha	-12.0657
▁Apsarās	-12.0657
▁Bindusara	-12.0657
▁Brihadashva	-12.0657
▁Century	-12.0657
▁Colorado	-12.0657
▁Ekalavya	-12.0657
▁Enjoy	-12.0657
▁Garhwal	-12.0657
▁Jaigishavya	-12.0657
▁Kshatra	-12.0657
▁Kumuda	-12.0657
▁Launcher	-12.0657
▁Ottoman	-12.0657
▁Saddhyas	-12.0657
▁Screen	-12.0657
▁Sukshma	-12.0657
▁Svayamvara	-12.0657
▁WWE	-12.0657
▁collyrium	-12.0657
▁contempt	-12.0657
▁cottage	-12.0657
▁deterioration	-12.0657
▁enquiries	-12.0657
▁fraud	-12.0657
▁impetus	-12.0657
▁ischemic	-12.0657
▁pacified	-12.0657
▁radiation	-12.0657
▁replacing	-12.0657
▁repulsed	-12.0657
▁reverentially	-12.0657
▁ruthless	-12.0657
▁sanctuary	-12.0657
▁surviving	-12.0657
▁umpire	-12.0657
▁vigilant	-12.0657
▁yaws	-12.0657
▁Himachal	-12.0657
▁ivory	-12.0657
▁succumb	-12.0657
▁Supine	-12.0657
▁abortion	-12.0657
▁expound	-12.0657
▁infallible	-12.0657
▁perforin	-12.0657
▁Kabir	-12.0657
▁Roller	-12.0657
▁gazing	-12.0657
▁infamy	-12.0657
▁inventor	-12.0657
▁pertain	-12.0657
▁withstood	-12.0657
▁appease	-12.0657
▁Ahmedabad	-12.0657
▁reunite	-12.0658
▁residential	-12.0658
▁dengue	-12.0658
▁Bhakti	-12.0658
▁excelled	-12.0658
▁purification	-12.0658
▁odd	-12.0658
▁foresight	-12.0658
▁jewelled	-12.0658
▁corporate	-12.0658
▁blankets	-12.0659
▁Dallas	-12.0659
▁naming	-12.0659
▁1926	-12.0659
▁alighted	-12.0659
▁Wilson	-12.0659
▁Bahuka	-12.066
▁naval	-12.066
▁legendary	-12.066
▁Single	-12.0661
▁grid	-12.0661
▁relish	-12.0661
▁undertake	-12.0661
Details	-12.0662
▁vegetarian	-12.0662
▁Oscar	-12.0662
▁Brazilian	-12.0663
▁potent	-12.0665
▁ninety	-12.0665
▁coron	-12.0665
▁undertaking	-12.0665
▁Castle	-12.0666
▁Staff	-12.0666
▁assets	-12.0667
▁apparent	-12.0667
▁imposed	-12.0668
▁grip	-12.0669
▁examined	-12.067
▁perpetually	-12.067
▁Princess	-12.067
▁dislike	-12.0672
▁plugin	-12.0673
▁attentively	-12.0674
▁shortage	-12.0677
▁beforehand	-12.0678
▁affectionately	-12.0679
▁trap	-12.068
▁>	-12.0681
▁ambitio	-12.0682
▁teenager	-12.0682
▁guardian	-12.0683
mother	-12.0684
▁Gaja	-12.0684
▁boss	-12.0685
▁joyous	-12.0686
▁dual	-12.0687
▁Apana	-12.069
▁weaken	-12.0692
▁canals	-12.0693
▁deny	-12.0697
▁peacefully	-12.0708
▁nay	-12.0713
▁Armed	-12.0715
▁1.6	-12.072
▁northward	-12.0728
▁Mewar	-12.0728
▁Jose	-12.0737
code	-12.0738
▁conveyed	-12.0743
▁Mandir	-12.0755
▁UN	-12.0766
▁Chal	-12.0766
▁perfume	-12.0774
▁Mask	-12.0775
India	-12.0788
▁certificate	-12.079
▁whip	-12.0794
▁choos	-12.081
▁bowler	-12.0819
▁Fund	-12.0822
▁Chit	-12.0827
▁Peru	-12.0829
▁Fast	-12.0834
uspicious	-12.0844
▁err	-12.0845
▁Lion	-12.0853
▁dancer	-12.0855
▁featur	-12.0867
▁unite	-12.0873
▁Low	-12.0875
▁600	-12.0876
▁nightranger	-12.088
borg	-12.0883
▁distressful	-12.0888
▁Raise	-12.0911
▁Keshi	-12.0912
chand	-12.0913
▁sac	-12.0917
shma	-12.0918
▁teaches	-12.0927
She	-12.0928
▁purifie	-12.0928
▁compose	-12.093
▁Refer	-12.0932
▁Shami	-12.0939
▁Gill	-12.0941
defined	-12.095
pani	-12.095
Pandu	-12.095
meaning	-12.095
Satya	-12.0951
woman	-12.0962
heroes	-12.0963
▁wrest	-12.0969
▁advent	-12.0969
▁neighbor	-12.0969
▁Ambassador	-12.097
▁Azerbaijan	-12.097
▁Bibhatsu	-12.097
▁Daśaratha	-12.097
▁Digital	-12.097
▁Financial	-12.097
▁Naimisha	-12.097
▁PHP	-12.097
▁Perhaps	-12.097
▁Saindhava	-12.097
▁Snooker	-12.097
▁Speedway	-12.097
▁Sudhanvan	-12.097
▁Tirthankara	-12.097
▁Yellow	-12.097
[...]
