<pad>	0
<s>	0
</s>	0
<unk>	0
।	-3.12338
ं	-3.5367
-	-3.6476
॥	-3.98661
,	-4.013
ः	-4.07736
▁	-4.4085
▁च	-4.42196
म्	-4.74331
स्य	-4.88521
े	-4.91051
ा	-4.91296
ो	-5.18255
▁इति	-5.29413
▁न	-5.2982
▁।	-5.32171
▁स	-5.33323
.	-5.33619
ाः	-5.34498
▁अस्ति	-5.58272
:	-5.61075
▁तथा	-5.7621
ेन	-5.80627
ान्	-5.90083
ेषु	-6.01089
▁इत्यस्य	-6.01757
स्	-6.03314
म	-6.03564
ानि	-6.04718
▁"	-6.15364
ैः	-6.16666
▁अपि	-6.17704
▁अ	-6.1994
ि	-6.20712
▁ते	-6.21162
्	-6.22786
ानां	-6.23666
▁आसीत्	-6.24514
▁सः	-6.24634
▁तस्य	-6.25178
ौ	-6.25739
श्च	-6.25796
ी	-6.26541
▁भवति	-6.32179
▁वा	-6.32308
▁वर्षे	-6.32531
न्	-6.33733
▁सह	-6.35031
ात्	-6.40089
▁तमे	-6.41691
▁तु	-6.47325
▁सन्ति	-6.54872
▁यत्	-6.57962
▁सा	-6.64688
▁प्रति	-6.67068
ाय	-6.67545
▁।"	-6.6855
▁यथा	-6.69595
▁हि	-6.73511
▁उवाच	-6.73531
न	-6.74612
▁मध्ये	-6.75642
▁तदा	-6.76545
त	-6.78681
▁मे	-6.83298
या	-6.85883
▁एव	-6.87756
▁कृते	-6.88426
▁(	-6.8954
▁तत्	-6.8998
र	-6.902
▁ततः	-6.90606
र्	-6.9107
)	-6.91142
्य	-6.91739
ति	-6.91855
▁मम	-6.94395
▁स्व	-6.97102
रूपेण	-7.01035
▁अस्य	-7.0161
▁"""	-7.03791
▁अभवत्	-7.0467
▁एतत्	-7.04774
▁तं	-7.05836
ते	-7.06425
▁वि	-7.06544
▁-	-7.08042
▁तत्र	-7.08059
▁आ	-7.08953
ना	-7.10105
क	-7.10209
▁प्र	-7.10674
तः	-7.11015
देशस्य	-7.11158
ेण	-7.11559
▁वै	-7.12424
ां	-7.14284
▁इत्यनेन	-7.14446
त्	-7.16519
▁अहं	-7.17755
"""	-7.17852
▁इतीदं	-7.18022
▁इदं	-7.1876
▁भवान्	-7.20024
▁स्म	-7.20101
▁यदि	-7.21223
▁यदा	-7.24465
य	-7.25373
▁प्रायः	-7.25556
नगरे	-7.27269
▁सर्व	-7.31368
ता	-7.31437
व	-7.31826
▁दिनाङ्के	-7.32227
▁वयं	-7.33171
▁तेषां	-7.33495
▁अथवा	-7.33648
▁नाम	-7.34064
▁पुनः	-7.34441
▁वर्तते	-7.35788
सि	-7.35977
स	-7.36777
▁परन्तु	-7.37452
▁भवन्ति	-7.37838
ट्	-7.38772
ल्	-7.38858
▁ये	-7.38874
▁ततो	-7.40931
"	-7.41612
▁यत्र	-7.41857
▁दृष्ट्वा	-7.42957
▁सर्वे	-7.43163
▁कर्तुं	-7.43245
पि	-7.44877
क्	-7.45201
▁सु	-7.45269
श	-7.45514
▁करोति	-7.48328
▁इत्यत्र	-7.48468
▁कृत्वा	-7.48615
ै	-7.49849
▁राजन्	-7.50536
मा	-7.50904
▁मया	-7.51131
वि	-7.51335
▁को	-7.51518
▁मा	-7.51545
ाश्च	-7.51712
▁राजा	-7.52275
ार्थं	-7.53269
▁आसन्	-7.54862
▁किं	-7.55607
स्तु	-7.56689
▁यः	-7.57032
▁एकं	-7.5711
राज्यस्य	-7.57561
सी	-7.57605
▁भवतः	-7.58427
▁भारत	-7.58602
वान्	-7.58616
▁त्वं	-7.59067
नि	-7.59132
द	-7.59736
भिः	-7.59766
▁चैव	-7.60824
ाणां	-7.61157
s	-7.6149
ु	-7.6183
▁धर्म	-7.62342
ड्	-7.63223
▁तव	-7.63459
▁जनाः	-7.63804
▁अस्मिन्	-7.66295
▁स्वस्य	-7.66581
▁इव	-7.67261
▁तः	-7.68162
रा	-7.69004
न्ति	-7.69292
ाणि	-7.69344
▁यावत्	-7.69504
▁के	-7.69554
▁एवं	-7.69584
▁विषये	-7.70013
ैर्	-7.71744
सु	-7.7275
▁तेन	-7.72837
ए	-7.73526
▁त	-7.7377
ाद्	-7.74206
▁तर्हि	-7.7433
▁एकः	-7.74411
ान	-7.74679
ल	-7.74811
नगरस्य	-7.75128
योः	-7.75183
▁अत्र	-7.7568
▁उपरि	-7.76021
▁येन	-7.76489
वा	-7.77492
▁बहु	-7.77549
द्	-7.77679
ेभ्यः	-7.77807
तु	-7.77852
प	-7.79365
▁कथं	-7.80377
▁सम	-7.80647
▁भवेत्	-7.80789
▁या	-7.81072
षु	-7.81517
देशे	-7.82013
▁का	-7.83245
▁ए	-7.83269
▁तद्	-7.84419
'	-7.84577
▁ह	-7.84667
▁राम	-7.85153
▁अयं	-7.85687
▁महा	-7.85825
ने	-7.86909
ज	-7.87592
च	-7.88355
याः	-7.89309
▁एक	-7.89887
▁परि	-7.90217
प्र	-7.91015
से	-7.91373
▁उप	-7.91684
▁यस्य	-7.91712
▁'	-7.91799
तां	-7.92419
▁नुदन्तु	-7.93203
▁कार्यं	-7.93313
▁अथ	-7.93932
यो	-7.94674
ानाम्	-7.95001
मेव	-7.95256
▁क	-7.95375
▁पूर्व	-7.95753
ैश्च	-7.96252
▁देव	-7.96517
▁विद्यते	-7.96546
का	-7.96788
▁भारतस्य	-7.97319
ोऽ	-7.97508
तया	-7.97514
▁मां	-7.98607
▁तस्मिन्	-7.98724
मी	-7.99256
री	-7.99979
▁श्रुत्वा	-8.00009
▁अन्य	-8.00253
थ	-8.00582
▁पूर्वं	-8.00597
▁य	-8.00646
सा	-8.00818
▁इत्यस्मिन्	-8.01465
रि	-8.01713
▁द	-8.02657
▁यो	-8.02782
▁भविष्यति	-8.03662
▁पर	-8.03981
तो	-8.04191
नी	-8.04227
मपि	-8.04368
▁अधुना	-8.0463
ला	-8.04687
▁पुत्र	-8.04895
मध्ये	-8.05139
्या	-8.05216
▁कि	-8.06783
के	-8.08379
स्तथा	-8.08502
▁नास्ति	-8.08864
▁तां	-8.09226
?	-8.0934
अ	-8.09823
▁केवलं	-8.09995
▁तथैव	-8.10461
▁है	-8.10491
▁रणे	-8.10587
▁लोक	-8.10767
एस्	-8.11105
▁इत्येषः	-8.11854
▁इत्येतत्	-8.11987
ांश्च	-8.12726
▁बाल	-8.12767
ह	-8.1294
ीय	-8.14175
▁किन्तु	-8.14263
▁शक्नोति	-8.14519
▁अनन्तरं	-8.15123
स्व	-8.15269
मिव	-8.15336
▁ना	-8.15892
▁राज	-8.15898
▁तान्	-8.1598
ाम्	-8.16175
▁परं	-8.1621
▁काम	-8.16457
रो	-8.16698
सं	-8.16774
श्चैव	-8.16827
▁पाप	-8.17749
▁दृश्यते	-8.17755
▁भारतीय	-8.17929
ली	-8.18269
यन्	-8.1881
भि	-8.1932
▁कर्म	-8.20097
▁नि	-8.20107
नां	-8.20109
ञ्च	-8.20761
▁तस्याः	-8.21476
ट	-8.21547
▁ऐ	-8.22284
▁पर्यन्तं	-8.22779
▁वर्षस्य	-8.22959
▁अकरोत्	-8.23955
▁महाराज	-8.24264
ग्	-8.24439
▁भीष्म	-8.24541
यति	-8.24645
▁पञ्च	-8.24874
▁त्वया	-8.25226
▁युधिष्ठिर	-8.25302
▁गत्वा	-8.25329
▁कृतवान्	-8.25645
▁बभूव	-8.26077
▁म	-8.26372
▁एषा	-8.26429
ेत्	-8.26684
▁नामकः	-8.27522
प्	-8.27694
▁से	-8.28913
ित	-8.292
नं	-8.30263
▁१८	-8.30302
डी	-8.30465
▁चेत्	-8.31235
▁यतः	-8.31663
श्	-8.31667
त्र	-8.31668
▁रथ	-8.31718
ैव	-8.32464
रे	-8.32611
▁सर्वं	-8.32875
मिदं	-8.32902
▁शक्यते	-8.33103
ेत	-8.33109
काले	-8.33115
टी	-8.33361
ग	-8.3346
ाव	-8.33639
▁पश्चात्	-8.33733
▁सदा	-8.34231
▁वीर	-8.34457
▁कुर्वन्ति	-8.34544
▁प्रथम	-8.35315
▁लघु	-8.35336
ाद	-8.35643
▁संजय	-8.36001
▁तौ	-8.36427
त्य	-8.36603
स्तदा	-8.36667
▁ह्य	-8.36907
यां	-8.36982
ताम्	-8.37039
▁एते	-8.37065
मिति	-8.37469
▁ब	-8.37607
मासे	-8.3769
िता	-8.37902
▁कृत	-8.37995
▁अतः	-8.38316
ैर	-8.3867
को	-8.38731
यत्	-8.38769
डि	-8.38794
▁समरे	-8.38832
▁शक्नुवन्ति	-8.39749
▁वैशम्पायन	-8.39842
▁केचन	-8.39944
वत्	-8.40444
▁पार्थ	-8.4072
▁काल	-8.40802
’	-8.40862
▁प्राप्य	-8.41042
ोप	-8.41262
नो	-8.41551
▁स्यात्	-8.41675
लि	-8.41699
ङ्ग	-8.41868
ले	-8.41875
वी	-8.4207
▁सि	-8.4213
▁तथापि	-8.42437
टि	-8.42694
▁प	-8.43136
▁मुख्य	-8.43327
▁कर	-8.43667
नु	-8.43722
स्त	-8.43775
ार्थ	-8.43825
▁कृतम्	-8.4393
▁त्व	-8.4411
▁पुरा	-8.44229
ऐ	-8.44233
▁नाम्ना	-8.44605
▁अनु	-8.44626
▁चापि	-8.4484
आ	-8.45044
जनाः	-8.45077
▁की	-8.45425
▁व्य	-8.45607
▁कुर्वन्तु	-8.46214
ितः	-8.46559
▁दक्षिण	-8.47146
▁इत्ययं	-8.47407
▁कार्य	-8.47483
नगरं	-8.47557
मस्ति	-8.47609
▁कृष्ण	-8.47672
▁व	-8.48221
ड	-8.4834
▁अस्माकं	-8.48622
ण	-8.48636
बी	-8.49052
न्त	-8.49568
▁त्वां	-8.49761
▁१	-8.50218
न्ते	-8.50371
▁ओ	-8.50422
भ्यः	-8.50772
▁हे	-8.50799
▁एष	-8.50894
▁समीपे	-8.51857
▁प्रथमं	-8.51895
०००	-8.52138
ये	-8.524
ज्	-8.52414
राज	-8.52749
्यते	-8.52787
▁उत्तर	-8.52981
▁अधिक	-8.53383
▁कर्ण	-8.53412
राज्ये	-8.53671
वे	-8.53917
कर	-8.55009
जी	-8.55288
▁ब्राह्मण	-8.55979
ब्	-8.56365
▁भवन्तः	-8.56867
िक	-8.56955
▁अनेन	-8.56977
▁तद	-8.57009
ोऽपि	-8.57022
;	-8.57087
▁यद्	-8.57724
ध	-8.58122
ब	-8.5854
▁परम	-8.58839
ेव	-8.59127
▁जल	-8.59326
मासस्य	-8.59424
ाभि	-8.59629
ङ्ग्	-8.59795
पी	-8.60384
▁प्रमुख	-8.60436
▁काले	-8.60439
▁जन	-8.60672
▁अनेक	-8.6084
पर्यन्तं	-8.609
ामि	-8.60995
▁दश	-8.6115
यामास	-8.61463
स्ते	-8.61568
यः	-8.62335
▁राज्य	-8.62361
द्वारा	-8.62472
▁१९	-8.62909
यितुं	-8.6306
▁इ	-8.63319
▁प्रत्य	-8.63672
गा	-8.63713
ेति	-8.64155
▁क्रीडा	-8.64298
ओ	-8.64582
▁युद्ध	-8.64688
▁और	-8.64904
▁अपेक्षया	-8.65096
धर्म	-8.65111
न्न	-8.65146
▁विना	-8.6515
▁भीमसेन	-8.6523
मि	-8.65457
▁एषः	-8.65675
ष्ट	-8.65736
मे	-8.66009
मान	-8.66294
▁नूतन	-8.66415
िका	-8.66483
▁भवता	-8.66823
▁वेद	-8.67074
▁नित्यं	-8.67797
▁पश्य	-8.67809
वती	-8.679
▁बल	-8.67913
▁सी	-8.68061
▁कारणात्	-8.68063
▁१७	-8.68084
▁दिने	-8.68153
▁इत्येते	-8.68198
लो	-8.6822
▁तस्मात्	-8.68454
▁दिव्य	-8.68693
▁नृप	-8.68957
टा	-8.69171
”	-8.69235
▁सप्त	-8.69523
▁पिता	-8.69559
क्रीडा	-8.69615
स्तव	-8.69765
▁समये	-8.70178
▁वर	-8.70382
त्वेन	-8.70394
फ़्	-8.70595
इ	-8.70795
गण	-8.70915
▁हत	-8.71038
यन्ति	-8.71154
्वा	-8.71502
▁धनं	-8.71777
ापि	-8.71782
▁प्राप्नोत्	-8.71829
▁भूत्वा	-8.72118
▁यूयं	-8.72152
यु	-8.72278
१	-8.72466
रूप	-8.7251
ई	-8.72567
▁असौ	-8.72571
▁सर्वेषा	-8.72713
▁ब्रह्म	-8.7288
सन्	-8.72918
प्रदेशे	-8.72953
▁बहवः	-8.7297
▁एका	-8.72974
यं	-8.73102
प्रदेशस्य	-8.73225
▁भिन्न	-8.73241
ितुं	-8.73312
▁विप्र	-8.73471
▁२	-8.73582
▁यद्यपि	-8.73608
स्तस्य	-8.73772
दा	-8.73927
ू	-8.74031
▁३	-8.7405
▁कथा	-8.74138
मु	-8.74141
ाभ्यां	-8.74239
स्तत्र	-8.74275
▁अधिकं	-8.74335
▁अभि	-8.74483
▁चा	-8.74551
▁वचनं	-8.74649
▁तानि	-8.74666
▁वाक्यं	-8.74942
।"	-8.75201
▁प्राप्तुं	-8.75335
▁तम	-8.75463
त्वं	-8.75686
▁वयसि	-8.7576
▁‘	-8.7583
हा	-8.76356
कः	-8.76557
▁इत्येतेषां	-8.77028
▁धृतराष्ट्र	-8.77078
ती	-8.77143
▁तेषु	-8.77515
▁सर्वान्	-8.77794
▁पर्वत	-8.77794
▁पाण्डव	-8.77911
▁शत	-8.77926
▁१०	-8.77979
▁सत्य	-8.78066
▁शर	-8.78113
▁प्रा	-8.78196
स्थ	-8.78248
▁यज्ञ	-8.78371
▁अतीव	-8.78492
सम	-8.78657
▁गो	-8.78749
▁यस्मिन्	-8.79138
कं	-8.79342
▁कु	-8.79626
वन्तः	-8.79748
गो	-8.79818
पा	-8.79854
▁किमपि	-8.7988
▁इत्यस्मै	-8.80016
▁अभवन्	-8.80115
स्त्व	-8.8024
▁“	-8.80397
▁द्रष्टुं	-8.80401
▁सुख	-8.80412
▁महत्	-8.80816
▁स्थितः	-8.80853
च्छ	-8.80871
▁भागः	-8.81175
िताः	-8.81338
▁स्थाने	-8.81564
▁पुण्य	-8.81572
▁राक्षस	-8.81723
▁जन्म	-8.81813
नम्	-8.8186
▁भव	-8.81886
ानन्तरं	-8.82084
रु	-8.82292
टो	-8.82379
▁विश्व	-8.82517
▁कुरु	-8.82622
▁भरतर्षभ	-8.8269
▁सामान्यतया	-8.82725
श्चापि	-8.82971
▁भीम	-8.83215
▁पुनर्	-8.83502
▁र्	-8.83512
▁ता	-8.83542
▁वयम्	-8.8386
ऽ	-8.83881
▁मन्यते	-8.84036
ायाः	-8.84203
▁चलच्चित्रस्य	-8.8427
▁ज	-8.84336
▁कथ्यते	-8.84477
▁राष्ट्रिय	-8.84495
▁प्रभो	-8.84537
▁नगरम्	-8.84708
▁सर्वाणि	-8.84831
जा	-8.84969
मन्	-8.85012
▁सूर्य	-8.85013
▁स्तः	-8.85131
▁हो	-8.85159
▁समा	-8.85195
डे	-8.85254
!	-8.85529
▁यत	-8.85615
हं	-8.8566
▁स्वर्ग	-8.85684
▁भवितुम्	-8.85686
▁चलच्चित्रं	-8.85874
जन	-8.8597
▁इदानीं	-8.8605
▁जीव	-8.86291
▁शरीर	-8.86349
ोऽयं	-8.8641
▁रे	-8.86412
▁लोके	-8.86513
▁अन्ते	-8.86657
▁तमस्य	-8.8729
ष	-8.8734
▁१६	-8.87677
▁मूल	-8.87936
▁अहम्	-8.88003
▁साहाय्यं	-8.88018
डा	-8.8825
▁वन	-8.88288
▁इयं	-8.88342
▁१५	-8.88456
वर	-8.88861
▁अव	-8.88968
▁शरैः	-8.89018
%	-8.89052
भ	-8.89056
▁कार्	-8.89126
▁योग	-8.8943
▁सम्यक्	-8.8945
बि	-8.89541
ान्य	-8.89762
यित्वा	-8.89847
न्स्	-8.9
▁नदी	-8.90123
▁भारते	-8.9017
▁२०	-8.90241
ितं	-8.90331
ण्ड्	-8.90401
बल	-8.9043
▁कृतं	-8.90467
▁चित्र	-8.90697
▁युष्माक	-8.90703
▁में	-8.90728
▁सीता	-8.90738
ानु	-8.90837
ितम्	-8.91102
नाम	-8.91134
कार	-8.91154
िनः	-8.91314
,"	-8.91504
क्ष	-8.91597
गुण	-8.91668
▁दण्ड	-8.9172
▁द्वौ	-8.91774
आर्	-8.91778
▁प्रिय	-8.91845
ायां	-8.91915
ास्ते	-8.92101
▁अस्मि	-8.92123
▁द्वितीय	-8.92167
▁युद्धे	-8.92283
▁नाग	-8.92375
वर्ण	-8.92666
▁कदाचित्	-8.92759
क्स्	-8.92783
▁सामान्य	-8.92806
देव	-8.92821
▁वचः	-8.92884
▁राज्यस्य	-8.92926
▁विशेषतः	-8.93127
ासु	-8.93517
▁भूत	-8.93571
हि	-8.93626
▁सन्	-8.93647
▁जय	-8.93687
▁विविध	-8.93692
५	-8.93917
▁अधः	-8.94016
लोक	-8.94338
/	-8.94427
परि	-8.94694
▁४	-8.94754
कि	-8.9476
भिर्	-8.95097
▁किञ्चित्	-8.95124
▁यू	-8.9513
▁सर्व्व	-8.95216
▁ब्रिटिश्	-8.95261
▁जगाम	-8.95264
▁गुण	-8.95583
▁स्वयं	-8.95909
▁कुर्मः	-8.95916
▁इत्येषा	-8.95941
▁एन्	-8.96328
वास	-8.96408
e	-8.96408
व्	-8.96513
भूत	-8.96642
▁तात	-8.96759
▁आर्	-8.96806
ज़्	-8.96919
ाथ	-8.96948
▁दुर्योधन	-8.9696
▁दुःख	-8.96997
मुप	-8.97036
▁सम्पूर्ण	-8.97096
▁वे	-8.97204
ात्मा	-8.9739
▁एकस्मिन्	-8.97415
▁मह	-8.97605
▁यतो	-8.97652
की	-8.97694
▁शक्र	-8.97709
य्	-8.97748
▁धन	-8.9776
▁नो	-8.98175
विषये	-8.98253
▁राजेन्द्र	-8.98265
क्रीडायां	-8.98272
▁मार्ग	-8.98297
▁गृह	-8.98302
▁दृश्यन्ते	-8.98422
▁तस्मै	-8.98437
▁पितर	-8.98455
▁इतीदम्	-8.98661
▁इत्यस्मात्	-8.98662
▁५	-8.99026
▁अमेरिकादेशस्य	-8.99131
▁बहुधा	-8.99174
हे	-8.99221
▁बे	-8.99501
▁फल	-8.99552
त्व	-8.99791
▁वर्ण	-8.99835
टर्	-8.9987
▁श	-8.9999
▁क्रियते	-9.00052
द्य	-9.00171
णा	-9.00317
कर्	-9.00352
जि	-9.00476
▁समान	-9.00496
▁पाद	-9.00559
▁यद	-9.00569
▁सोऽ	-9.00707
▁अमेरिका	-9.00838
२	-9.0084
▁करोतु	-9.00887
▁ददर्श	-9.00891
▁२०१०	-9.01384
▁शृणु	-9.01405
▁गत	-9.01439
वन	-9.01452
▁र	-9.01597
सो	-9.01988
▁बहिः	-9.0199
▁पार्थिव	-9.02008
▁अन्ये	-9.0206
समये	-9.02092
▁अति	-9.02314
▁space	-9.02318
▁यानि	-9.02347
काः	-9.02451
बा	-9.02478
▁शोक	-9.02572
▁अत्यन्तं	-9.02616
▁राज्यं	-9.02761
▁युधि	-9.02772
▁गुरु	-9.02909
ाम	-9.03013
ार्थम्	-9.03081
▁कृतः	-9.03152
▁१२	-9.03217
▁डे	-9.03267
मो	-9.03406
▁कतिपय	-9.03493
▁आरभ्य	-9.0364
▁डि	-9.03728
▁गच्छति	-9.03767
▁कर्तुम्	-9.03785
▁भाव	-9.03797
▁ले	-9.03964
ुः	-9.04089
यू	-9.04179
▁शक्नुमः	-9.04367
स्त्वं	-9.04369
▁रूप	-9.0441
▁ज्ञान	-9.0474
व्य	-9.04812
▁अद्य	-9.04815
▁यच्च	-9.04904
येत्	-9.04953
▁ला	-9.05067
च्च	-9.05187
कृत	-9.05213
▁कश्चन	-9.05411
▁नैव	-9.05466
ing	-9.05475
▁तमवर्षस्य	-9.05536
▁इत्यसौ	-9.05545
▁प्रथमः	-9.05601
▁अप	-9.05666
▁प्रत्येकं	-9.05715
▁श्री	-9.05756
ञ्ज	-9.05829
काल	-9.05938
▁स्थानं	-9.06466
▁द्वे	-9.06709
(	-9.06823
▁एतानि	-9.06892
▁२०२०	-9.07035
शा	-9.07145
▁महात्मनः	-9.07275
▁अन	-9.07284
▁इत्येतयोः	-9.07293
च्	-9.07297
▁तत	-9.07332
देश	-9.077
▁पुरुष	-9.07847
▁इत्य	-9.07859
▁विभिन्न	-9.0794
▁प्राप्त	-9.08008
▁प्राप्तवान्	-9.08026
▁मध्य	-9.08056
▁तावत्	-9.08142
कम्	-9.08284
▁पुत्रः	-9.08336
▁करोमि	-9.08347
गत	-9.08359
फल	-9.08482
्यन्ते	-9.08633
मण्डलस्य	-9.08635
▁हा	-9.08776
ाप	-9.08957
वृत्त	-9.09122
देशः	-9.09222
▁उपयोगः	-9.0929
जल	-9.09298
a	-9.09418
▁राघव	-9.09513
▁पितामह	-9.09547
बे	-9.09608
एन्	-9.09683
▁६	-9.09742
▁देश	-9.09792
▁निर्	-9.1002
तर	-9.10058
▁नाना	-9.10332
▁२०१४	-9.10655
▁द्रोण	-9.1066
▁?	-9.10684
▁ई	-9.1079
एल्	-9.10855
▁प्राप्नोति	-9.10856
▁अभ्यास	-9.10911
▁विशेष	-9.10983
▁क्रोध	-9.11153
▁बी	-9.11153
c	-9.11193
▁महाबलः	-9.11369
प्रति	-9.11513
▁प्राप	-9.11542
▁स्थानीय	-9.1158
▁वने	-9.11588
▁निर	-9.11639
वर्यः	-9.11705
▁पृथक्	-9.11906
ेयं	-9.11922
मान्	-9.11985
▁मार्च्	-9.12042
पाद	-9.12112
▁पश्यन्तु	-9.12131
▁साधु	-9.12195
ाङ्ग	-9.12248
▁रावण	-9.12255
▁गतः	-9.12379
कु	-9.12392
टे	-9.12516
इत्यस्य	-9.12534
▁विमान	-9.12549
युक्त	-9.12612
ण्ड	-9.12676
डो	-9.12717
▁पि	-9.12721
▁एतेषु	-9.12739
ाहं	-9.12909
▁उ	-9.13108
▁महता	-9.13125
सम्	-9.13219
▁भय	-9.13221
नदी	-9.13286
▁उपयुज्य	-9.13416
▁पूर्ण	-9.13421
यै	-9.13512
एम्	-9.13523
तायाः	-9.13572
▁सर्वा	-9.1358
▁रक्त	-9.13715
▁अक्टोबर्	-9.1383
▁लक्ष्मण	-9.1405
▁युद्धं	-9.14159
योग	-9.14253
▁निर्मितम्	-9.14289
भाव	-9.14323
▁संस्था	-9.14369
▁:	-9.14522
▁इत्यतः	-9.14551
वन्	-9.14589
▁जा	-9.14599
वर्	-9.14619
▁एत	-9.14778
स्ति	-9.14924
▁संशयः	-9.15039
▁प्रकाश	-9.15112
▁त्रि	-9.15195
▁जाता	-9.15208
शन्	-9.15439
यत	-9.15442
▁मृग	-9.1589
▁पे	-9.15975
▁पश्यामः	-9.16002
▁क्लिक्	-9.16069
▁एस्	-9.16088
▁जून्	-9.16089
▁स्थितम्	-9.16203
दु	-9.16253
▁ददाति	-9.16292
▁दृढ	-9.16451
७	-9.16544
िभिः	-9.16672
चि	-9.16707
▁भगवान्	-9.1679
▁७	-9.16829
▁मु	-9.16989
▁हत्वा	-9.17019
▁जनवरी	-9.17054
यर्	-9.17104
▁गज	-9.17238
1	-9.17251
▁२०१९	-9.1729
▁उपयुज्यते	-9.17373
▁हरि	-9.17458
▁दीर्घ	-9.1749
▁डी	-9.17557
▁उत	-9.17625
▁उत्तम	-9.17676
▁सहसा	-9.17719
▁तदनन्तरं	-9.17803
▁वृद्ध	-9.1789
▁पुन	-9.18019
▁मूल्यं	-9.18117
▁संयुगे	-9.18217
३	-9.18242
ाणाम्	-9.18277
▁ग	-9.18397
▁प्राचीन	-9.18407
▁भवतां	-9.18409
▁प्रजा	-9.18462
▁विरुद्धं	-9.18535
▁समुद्र	-9.18555
▁एप्रिल्	-9.18965
▁अल्प	-9.19114
▁जे	-9.19186
▁राज्ये	-9.19207
▁कृता	-9.19266
धि	-9.19347
o	-9.19432
▁मानव	-9.19455
▁विशाम्पते	-9.19616
▁अन्तिम	-9.19785
▁प्राण	-9.19839
चर	-9.19921
क्रीडायाः	-9.20182
▁इत्येतानि	-9.2038
ितुम्	-9.20466
▁पश्चिम	-9.20533
▁महान्	-9.20595
▁२०१३	-9.20664
क्षेत्रे	-9.2074
▁कन्या	-9.20755
▁मनो	-9.20761
▁वर्षात्	-9.20814
प्य	-9.2083
ात	-9.20842
टन्	-9.20867
▁सर्वशः	-9.20913
▁श्वेत	-9.2098
ानाम	-9.2107
▁२०११	-9.21095
▁जातम्	-9.21177
▁अन्ताराष्ट्रिय	-9.21347
ेन्द्र	-9.21408
आफ़्	-9.21439
▁महाबाहो	-9.21445
▁अर्थ	-9.21464
▁सेप्टेम्बर्	-9.21559
▁द्वारा	-9.21726
ख	-9.21947
पुत्र	-9.2196
▁सत्यं	-9.22085
ुं	-9.22095
मनु	-9.22348
▁सिंह	-9.22363
▁डिसेम्बर्	-9.22419
▁सेना	-9.22491
▁इदम्	-9.23083
वै	-9.23114
▁ख	-9.23159
▁गच्छ	-9.23231
▁जायते	-9.23253
▁सम्प्र	-9.23458
▁२०१७	-9.23496
मण्डले	-9.2353
▁१३	-9.23536
ाच्च	-9.23677
▁भार्या	-9.23701
▁वानर	-9.23754
▁बा	-9.23845
▁शत्रु	-9.24153
युक्तं	-9.24189
▁२०१२	-9.24386
देशं	-9.24463
▁इत्यस्याः	-9.24713
▁अधिकांश	-9.24804
▁जीवित	-9.24856
ेह	-9.2495
▁वृक्ष	-9.25008
सहस्राणि	-9.25025
▁अम्रियत	-9.25052
▁गा	-9.25222
ेश्वर	-9.25223
पो	-9.25244
▁जुलै	-9.2531
▁नव	-9.25343
▁एम्	-9.25345
▁१४	-9.25408
▁रोग	-9.25409
▁प्रमाण	-9.2547
स्तं	-9.25475
▁चलच्चित्रे	-9.25563
▁वर्तमान	-9.25735
▁सैन्य	-9.25807
रिया	-9.25827
▁नियम	-9.25937
मूल	-9.2601
▁प्रसिद्धः	-9.26185
ऽपि	-9.2625
्व	-9.26319
▁रामस्य	-9.26574
िष्यति	-9.2689
कार्य	-9.26921
▁आवश्यकता	-9.27029
रथ	-9.27124
▁इतीमानि	-9.27204
▁तस्माद्	-9.27254
▁नु	-9.27608
▁तीव्र	-9.27616
यि	-9.27704
▁हस्त	-9.27885
▁११	-9.28118
d	-9.2817
▁कौन्तेय	-9.28205
भाषा	-9.28245
पद	-9.28252
▁अस्माभिः	-9.28348
▁क्षिप्र	-9.28588
हस्त	-9.28592
▁आफ़्	-9.28605
▁नगरं	-9.2864
मुख	-9.28678
द्ध	-9.2872
▁सर्वदा	-9.28898
▁चलच्चित्र	-9.29002
▁गण	-9.29003
▁नर	-9.29144
मित्र	-9.29232
महा	-9.29294
▁नगर	-9.29523
▁रो	-9.29564
▁मुक्त	-9.29643
▁कानिचन	-9.29646
▁मन्त्र	-9.29722
▁चकार	-9.30063
▁शब्द	-9.30083
द्वयं	-9.30091
भ्य	-9.30106
▁सहस्र	-9.3013
▁मयि	-9.3022
पात	-9.30282
▁कुल	-9.30332
महं	-9.30339
▁स्थितं	-9.30406
काम	-9.30639
▁युधिष्ठिरः	-9.30647
▁ल	-9.30686
▁टङ्कयन्तु	-9.30828
▁२०१८	-9.30832
▁सर्वभूत	-9.30967
▁क्व	-9.31023
▁भागं	-9.31081
▁कर्मणा	-9.31112
अधुना	-9.31302
फ्	-9.31314
▁समन्ततः	-9.31351
▁महत्त्वपूर्ण	-9.31389
जे	-9.31552
ट्स्	-9.31714
▁द्वयोः	-9.31722
▁इन्	-9.31903
▁विकल्प	-9.31904
▁सहस्रशः	-9.31928
t	-9.31957
▁$	-9.31999
▁निवसन्ति	-9.32048
▁समय	-9.32055
2	-9.32131
▁भाग	-9.32173
धन	-9.32443
ुवाच	-9.32454
भव	-9.32456
धा	-9.32496
▁मनुष्य	-9.32501
r	-9.32511
▁अनेके	-9.32606
▁मि	-9.32677
न्तु	-9.32758
र्य	-9.32769
ेष्व	-9.32805
श्व	-9.32903
▁वर्ष	-9.32915
▁अग्रिम	-9.32973
▁नुदतु	-9.32996
▁महातेजा	-9.33
▁a	-9.33225
▁प्रभाव	-9.33325
ार	-9.3334
▁बलं	-9.3368
वो	-9.33795
▁एतेन	-9.33798
▁शल्य	-9.33799
संस्थायाः	-9.33848
▁प्रभुः	-9.33849
स्ट्	-9.33978
▁न्यू	-9.34004
▁बि	-9.34123
▁कश्चित्	-9.34302
बो	-9.34335
▁सततं	-9.34393
▁मानुष	-9.34405
▁मनसा	-9.34451
▁अनेकानि	-9.34459
▁प्रथमवारं	-9.34469
▁शूर	-9.34529
दी	-9.34624
मुख्य	-9.34678
▁अन्यतमः	-9.34754
▁देवा	-9.34979
▁३०	-9.35041
ैक	-9.35078
पर	-9.35118
ायुध	-9.35138
▁परितः	-9.35201
▁रामो	-9.35227
ोऽथ	-9.3527
▁किञ्चन	-9.35288
▁रा	-9.353
पे	-9.35448
▁एकस्य	-9.35463
मभि	-9.3548
▁नूतनं	-9.35499
▁क्रुद्ध	-9.35502
कर्म	-9.3559
▁सति	-9.35646
पू	-9.35653
▁देह	-9.35658
थ्	-9.35686
▁आगस्ट्	-9.357
नद्याः	-9.3592
▁सिद्ध	-9.35986
▁ज्ञात्वा	-9.36024
▁८	-9.36034
ण्ट्	-9.36088
▁प्रारम्भिक	-9.36245
▁सूत	-9.36309
ाद्य	-9.36417
▁इत्यनया	-9.36455
▁पर्य	-9.36594
▁पुष्प	-9.36609
था	-9.36685
▁अर्हति	-9.3674
▁विश्वस्य	-9.3683
दण्ड	-9.36845
▁बाण	-9.36982
▁इच्छति	-9.36987
▁यु	-9.36999
▁वीर्यवान्	-9.37004
▁सुग्रीव	-9.37093
ित्वा	-9.37142
▁उच्च	-9.37243
▁जनानां	-9.37251
ह्	-9.37364
▁दुर्	-9.37409
▁जात	-9.37897
ेभ्यो	-9.38088
▁वासुदेव	-9.38134
कुल	-9.38146
्यं	-9.38168
▁द्विज	-9.38218
▁शस्त्र	-9.38241
▁देवी	-9.38256
l	-9.38265
▁लोका	-9.38273
नेन	-9.38464
▁मित्र	-9.38571
▁मही	-9.38701
▁पी	-9.38729
▁कदापि	-9.38771
वर्ष	-9.38972
▁विद्यन्ते	-9.39004
▁यम	-9.39171
ेद्	-9.39248
शब्द	-9.39317
▁Enter	-9.3955
▁पुनर	-9.39607
▁स्त्री	-9.39615
नाम्	-9.39636
▁वज्र	-9.39736
▁अन्तः	-9.39793
▁विजय	-9.39813
▁विधि	-9.39823
ेष	-9.3987
▁राजानं	-9.39881
▁क्रिया	-9.40053
▁गङ्गा	-9.40233
▁ज्ञायते	-9.40299
▁परस्परं	-9.40424
पुर	-9.40564
लु	-9.40576
नर्	-9.40594
संस्था	-9.40599
्याः	-9.4061
▁सोम	-9.40647
▁मनः	-9.40652
▁मन्ये	-9.40763
▁उपयोगं	-9.40769
▁२०१६	-9.40828
▁दोष	-9.40925
राज्यं	-9.41012
▁यं	-9.4105
मित	-9.41218
,"""	-9.41282
▁रूपेण	-9.41293
▁महारथः	-9.41327
▁प्रदर्शितम्	-9.41335
▁वरः	-9.41364
▁कृतवन्तः	-9.41411
▁शीघ्रं	-9.41412
याम्	-9.41435
▁विशिष्ट	-9.41506
भिर	-9.41517
भू	-9.4157
नामा	-9.41613
▁फलं	-9.41624
▁सर्वेषु	-9.41766
धर	-9.41802
पूर्ण	-9.41847
▁एतादृश	-9.41864
िषु	-9.41918
▁आधारेण	-9.41927
मासाद्य	-9.4193
मथ	-9.42
र्थ	-9.42026
▁पश्यामि	-9.42108
▁कुर्वन्	-9.42128
लीग्	-9.42128
▁इत्येतैः	-9.42308
▁मन्यन्ते	-9.42426
ितवान्	-9.42563
अत्र	-9.42664
▁ब्रूहि	-9.42684
▁पृथिवी	-9.42726
▁नील	-9.42745
▁|	-9.42752
▁रक्ष	-9.42762
णं	-9.4284
चित्र	-9.42949
▁एतेषां	-9.42959
▁बो	-9.43018
▁माता	-9.43042
स्मिन्	-9.43049
िनी	-9.43075
▁केषुचित्	-9.43217
दि	-9.43299
सर्	-9.43417
▁परमं	-9.43456
▁दूरे	-9.43491
▁दातुं	-9.43533
▁वाक्य	-9.43538
ज्ञान	-9.43566
वेग	-9.43587
घ	-9.43609
मुत्तमम्	-9.43697
ाह	-9.43725
नगर	-9.43725
▁क्रीडायाः	-9.43751
▁भूमौ	-9.43767
▁शुभ	-9.43784
नः	-9.43784
▁सागर	-9.43951
▁भवेयुः	-9.44012
▁२०२१	-9.4403
▁भू	-9.44067
▁पा	-9.44137
▁शक्ति	-9.44394
▁महात्मना	-9.44482
▁वीर्य	-9.44574
▁येषां	-9.4459
▁केन	-9.4461
पूर्व	-9.44655
▁नित्य	-9.44721
ीनां	-9.44744
▁धर्मात्मा	-9.44761
▁पूर्वमेव	-9.45078
ाश्व	-9.45099
▁मत्स्य	-9.45136
▁सत्त्व	-9.45192
▁पो	-9.45323
मिह	-9.45376
स्र	-9.45428
मुक्त	-9.45429
मार्ग	-9.45432
४	-9.45484
▁पुत्रं	-9.45486
▁विवाह	-9.45547
▁अभवम्	-9.45671
▁२०१५	-9.45675
▁मन	-9.4568
▁मो	-9.45969
▁आधुनिक	-9.46001
वाद	-9.4602
▁अधिकाः	-9.46055
▁यश्च	-9.46143
▁इत्येतेषु	-9.46231
▁स्वयमेव	-9.46234
er	-9.46267
▁भुवि	-9.46304
▁रण	-9.46317
ध्वज	-9.4634
्यां	-9.46367
▁जातः	-9.46494
▁अङ्क	-9.46568
यते	-9.4664
▁ततस्त	-9.46651
सार	-9.46651
▁संख्ये	-9.46654
जात	-9.46811
पु	-9.46945
▁अग्रे	-9.46949
▁संग्रामे	-9.46951
नाग	-9.46964
▁विद्यमान	-9.46964
तम	-9.47012
ेदं	-9.4712
जाल	-9.47136
न्य	-9.47296
रोग	-9.47361
▁सभा	-9.47397
i	-9.47443
यम्	-9.47518
▁भूमि	-9.47536
▁वो	-9.47602
▁तस्या	-9.47607
ज़	-9.47627
▁विश्वास	-9.47659
▁तैः	-9.47802
▁टी	-9.4784
मन	-9.47898
▁पश्यति	-9.47929
बहूनि	-9.47964
▁वायु	-9.48063
२०	-9.4815
ादि	-9.48156
स्ता	-9.48158
▁काञ्चन	-9.48238
कल्प	-9.48269
▁नामकस्य	-9.48304
▁ग्राम	-9.48367
▁शैल	-9.48409
स्त्र	-9.48433
▁९	-9.48562
ेऽ	-9.48744
▁पार्श्वे	-9.4876
▁निर्माणं	-9.48774
▁दत्त्वा	-9.48798
क्रम	-9.48844
▁ट्युटोरियल्	-9.48968
शत	-9.49011
▁धार्तराष्ट्र	-9.49073
▁सार्धं	-9.49133
▁सङ्ख्या	-9.49212
▁चिकित्सा	-9.49301
▁तीर्थ	-9.49428
भय	-9.49448
स्मै	-9.49582
▁अन्येषु	-9.49608
▁युक्त	-9.49617
स्त्वया	-9.49638
ात्म	-9.4972
▁रामः	-9.49733
▁दशके	-9.49765
भाग	-9.4984
▁सदस्यः	-9.49853
▁विचार	-9.50034
▁प्रदेशः	-9.50123
▁गन्तुं	-9.50145
▁गृहीत्वा	-9.50197
▁येषु	-9.50209
▁तिष्ठति	-9.5031
▁शक्नोमि	-9.50472
ोऽस्मि	-9.50474
▁बद्ध	-9.50492
▁आत्म	-9.50499
▁व्यास	-9.50503
मत	-9.50507
▁भवन्त	-9.50529
▁अवदत्	-9.50547
युद्ध	-9.50572
कस्य	-9.50582
▁महिला	-9.50582
▁नवेम्बर्	-9.50762
▁अग्नि	-9.50844
राज्य	-9.50859
▁वदति	-9.50874
▁शिव	-9.50882
ध्वं	-9.50948
युत	-9.5097
y	-9.5103
▁चिन्वन्तु	-9.51053
▁विद्यमानं	-9.51142
▁रि	-9.51196
▁आप	-9.51486
▁तम्	-9.51586
▁ध्यान	-9.51624
ाग्र	-9.51635
गे	-9.51656
पर्वत	-9.51755
▁अभिनय	-9.51971
िना	-9.52051
▁तपसा	-9.52188
▁दर्शयति	-9.52271
▁दत्त	-9.52275
▁पश्याम	-9.52302
▁द्वादश	-9.52307
▁अर्थात्	-9.52309
मेकं	-9.52329
▁तयोः	-9.52478
▁ततोऽ	-9.52562
▁महाबाहु	-9.52562
▁गदा	-9.52659
ल्स्	-9.52682
▁त्वम	-9.52823
▁लो	-9.52825
ाश्रम	-9.52899
▁इत्येतं	-9.52925
n	-9.5295
▁ईश्वर	-9.53043
▁नारद	-9.53099
▁विहाय	-9.53113
▁शिला	-9.53152
▁स्थान	-9.53227
हर	-9.53251
न्त्य	-9.53342
▁उत्	-9.53442
▁जो	-9.53501
▁to	-9.53626
▁गृहे	-9.53626
रिव	-9.53701
▁उच्यते	-9.53714
▁अश्व	-9.53755
▁बुद्धि	-9.53758
▁न्यून	-9.53784
▁अङ्ग	-9.53837
ाशु	-9.53837
▁२०००	-9.53905
▁मृत्यु	-9.53906
ासन	-9.53927
▁मृत	-9.53945
▁वस्तु	-9.53963
▁कार्यम्	-9.54018
नगरात्	-9.54076
एफ़्	-9.54103
▁युष्मान्	-9.54114
▁""	-9.54148
▁व्यापार	-9.54168
दान	-9.54168
▁पाण्डवाना	-9.54177
▁भ्राता	-9.5419
लर्	-9.54226
▁गिरि	-9.54226
▁दान	-9.54228
▁क्या	-9.54354
▁विव्याध	-9.54372
▁त्वयि	-9.54375
▁भ	-9.54401
▁द्वि	-9.54615
▁तृतीय	-9.54688
कान्	-9.54698
▁देशस्य	-9.5474
१९	-9.5477
भिश्च	-9.54967
▁तन्	-9.55241
▁नृत्य	-9.55332
▁महद्	-9.55365
▁अन्यतमम्	-9.55391
▁संयुक्त	-9.55519
▁स्वकीय	-9.55564
▁पद	-9.55648
▁महेष्वास	-9.55672
▁सम्पूर्णे	-9.55738
सर	-9.55752
▁मन्द	-9.55797
▁स्थिति	-9.55834
▁हर्ष	-9.55927
स्मि	-9.56028
▁S	-9.5603
▁श्रुत	-9.56137
▁एतद्	-9.56137
▁अधिकतया	-9.56225
पाल	-9.56232
▁मुख्यतया	-9.56236
▁हेम	-9.56281
▁२००८	-9.56441
▁ताः	-9.56535
टिक्	-9.56696
▁राष्ट्र	-9.56706
▁भवितुं	-9.56777
▁मोह	-9.56802
▁इत्येनं	-9.56816
रू	-9.56828
▁घोर	-9.56865
८	-9.56876
्यमान	-9.56902
सौ	-9.56905
▁धृष्टद्युम्न	-9.56941
▁शान्ति	-9.56975
पति	-9.57066
▁सुवर्ण	-9.57108
शो	-9.57164
▁टङ्कयित्वा	-9.57363
▁मीटर्	-9.57422
▁हिन्दु	-9.57428
मय	-9.57504
▁कथ	-9.57542
फ	-9.57632
▁निर्मितं	-9.5764
▁सङ्गीत	-9.57676
▁शिष्य	-9.57824
तुः	-9.57882
▁भरत	-9.57886
गु	-9.57938
▁क्रुद्धः	-9.5795
स्टर्	-9.58062
▁नारायण	-9.58078
),	-9.58086
६	-9.58135
▁पशु	-9.58155
▁आरम्भे	-9.58182
ङ्क	-9.58214
▁चाप्य	-9.5833
▁ध्वज	-9.58369
▁प्रसाद	-9.58551
▁दैव	-9.58551
▁अकुर्वन्	-9.58724
दलस्य	-9.58754
▁भार	-9.58755
व्यवस्था	-9.58757
▁आस्ट्रेलिया	-9.58776
▁प्रीति	-9.5883
▁पाण्डवाः	-9.58849
शील	-9.5892
▁चन्द्र	-9.58982
▁२००९	-9.58984
▁स्थित	-9.59043
▁पुर	-9.59114
रन्	-9.59199
▁क्षेत्र	-9.59304
▁सुर	-9.5931
▁चिर	-9.59408
मेण्ट्	-9.59451
▁स्वीडन्	-9.59556
▁२००७	-9.5956
▁वर्षाणि	-9.59594
▁उपयोक्तुं	-9.59809
िया	-9.59951
ग्र	-9.59991
व्रत	-9.60031
▁परम्	-9.60103
▁देशे	-9.60137
नाथ	-9.60146
.)	-9.6018
▁क्लास्	-9.60238
▁महती	-9.6032
लै	-9.60352
▁प्रत्यक्ष	-9.60408
▁विपुल	-9.60451
▁भोजन	-9.60491
▁युनैटेड्	-9.60645
▁निहत	-9.60734
न्तं	-9.60841
सदृश	-9.60894
▁पितृ	-9.60924
▁क्रुद्धो	-9.60998
राम	-9.61117
▁उद	-9.6117
▁पवित्र	-9.61243
▁प्रयोग	-9.61249
तं	-9.61371
कृते	-9.61416
पक्ष	-9.61434
""	-9.61447
न्द	-9.61474
▁एवमुक्त्वा	-9.61517
▁करिष्यति	-9.61525
▁सम्प्रति	-9.61567
▁क्षत्रिय	-9.61641
▁वृत्त	-9.6167
▁वस्तूनि	-9.61692
रुवाच	-9.61703
हो	-9.6172
▁ज्ञातुं	-9.61806
▁एतस्य	-9.61812
▁त्यक्त्वा	-9.61812
▁राज्ञा	-9.61891
डर्	-9.61909
विष	-9.61942
अतः	-9.61948
ोत्तम	-9.61972
ज्ञ	-9.62055
▁नराधिप	-9.62091
▁जलं	-9.62168
▁कारणेन	-9.62169
स्था	-9.62175
▁दु	-9.62264
▁C	-9.62329
क्रिया	-9.62357
गृह	-9.624
▁सूतपुत्र	-9.62437
▁षट्	-9.6247
▁दल	-9.6255
▁मह्य	-9.62618
▁अमृत	-9.62653
▁पाठ	-9.62702
▁नुत्वा	-9.62785
▁कोड्	-9.62807
▁क्षेत्रे	-9.6291
▁सञ्चिका	-9.6299
वेद	-9.63079
▁२००६	-9.6311
▁नगरे	-9.63153
्यो	-9.63158
▁कै	-9.63192
मेक	-9.63194
ऽऽ	-9.63222
व्या	-9.63286
▁विशाल	-9.63315
ोऽभवत्	-9.63377
ग्नि	-9.63457
सङ्ख्या	-9.63545
▁पर्याप्त	-9.63592
मन्य	-9.63592
▁शुद्ध	-9.63648
▁नगरपालिका	-9.63667
▁अन्यानि	-9.6368
ुर्	-9.63732
▁हित	-9.63735
▁मिलित्वा	-9.6377
▁आसन	-9.63823
न्तः	-9.63869
▁प्रवेश	-9.63896
▁मेघ	-9.63904
ाकार	-9.63941
त्स	-9.63957
ात्मक	-9.63974
▁आङ्ग्ल	-9.63993
▁वध	-9.64013
▁पुत्रो	-9.64097
▁पक्ष	-9.64161
स्ततः	-9.64203
▁सार्वजनिक	-9.64206
▁हय	-9.64232
▁कोऽपि	-9.64287
▁मृतः	-9.64306
▁कारणं	-9.64311
▁भयं	-9.64326
▁सुत	-9.64332
▁भविष्यन्ति	-9.64465
जो	-9.64515
▁बृहत्	-9.64544
▁मत्त	-9.64614
ुप	-9.64622
▁मोक्ष	-9.64686
ग्रह	-9.64766
ान्तर	-9.64793
▁विराट	-9.64802
स्थाने	-9.64807
▁तप	-9.64879
▁सूक्ष्म	-9.64883
लक्षण	-9.64884
▁विदुर	-9.64922
▁पति	-9.64926
▁तच्च	-9.64943
▁रुद्र	-9.6495
उ	-9.64984
▁गन्धर्व	-9.64997
▁निर्दिष्ट	-9.65025
▁पुरुषव्याघ्र	-9.65098
ेयुः	-9.65294
▁पुरातन	-9.65346
p	-9.65467
स्ततो	-9.65477
▁पद्म	-9.65487
▁गृहं	-9.65496
▁निरन्तर	-9.65528
▁अन्व	-9.65553
ुर	-9.65561
▁नियत	-9.65582
▁रथं	-9.65616
म्ब	-9.65626
णी	-9.6573
▁राज्ञः	-9.65733
▁माधव	-9.65867
ed	-9.65882
गम	-9.65969
पत्र	-9.6599
▁चक्रे	-9.66018
▁२००१	-9.66114
वः	-9.66131
▁सामान्यतः	-9.66134
u	-9.66325
▁सूची	-9.66376
प्रभाव	-9.66383
▁साक्षात्	-9.66468
दिश	-9.66514
▁कस्य	-9.66592
▁विष्णु	-9.6662
▁कुर्यात्	-9.66653
▁इत्येत	-9.66677
ाग्नि	-9.66684
▁लि	-9.66686
सेना	-9.66703
▁भवतु	-9.66752
दोष	-9.66778
▁नूनं	-9.66789
▁किम्	-9.66965
▁श्वास	-9.66978
▁जीवन	-9.67025
▁समासाद्य	-9.67077
▁काष्ठ	-9.6708
▁द्वितीयं	-9.67094
▁पाण्डवः	-9.67099
▁धर्मराज	-9.67106
सह	-9.67113
▁कथंचन	-9.67144
▁प्रेम	-9.67147
▁निज	-9.67182
वंश	-9.67214
▁जि	-9.67382
▁जानाति	-9.67435
▁प्रोग्राम्	-9.67449
मन्त्र	-9.6749
▁एल्	-9.67525
▁न्य	-9.67567
▁घोरं	-9.67572
▁देशेषु	-9.67626
▁वनं	-9.67632
णां	-9.67636
▁ईश्वरस्य	-9.67642
चक्र	-9.67752
▁मुख	-9.67852
▁ददौ	-9.67865
स्तात	-9.67876
▁धनंजय	-9.67876
▁जपान्	-9.67894
▁अर्जुन	-9.6791
वित्	-9.6803
▁ड	-9.68039
▁दृश्य	-9.6805
▁पत्र	-9.68081
वाह	-9.6834
मास्थाय	-9.68387
▁दृष्ट	-9.6841
▁वित्त	-9.68464
जनानां	-9.68482
▁प्रदर्शयति	-9.68509
भा	-9.68557
शु	-9.68563
▁प्रो	-9.68592
ास्त	-9.68619
मह	-9.68642
▁शताब्द्या	-9.68678
▁सज्ज	-9.68907
▁पार	-9.68913
▁तान	-9.68952
▁सामाजिक	-9.68995
▁भृशं	-9.69133
▁इत्यादीनि	-9.69252
▁स्नेह	-9.69293
▁पारम्परिक	-9.69306
फ़	-9.69385
▁देहली	-9.69426
▁जनसङ्ख्या	-9.6943
▁स्वीय	-9.69449
▁गन्ध	-9.69456
०	-9.69469
वध	-9.69496
ोऽसि	-9.69643
▁इत्यपि	-9.69659
ाति	-9.69662
▁महारथाः	-9.6974
▁२४	-9.69773
चित	-9.69799
▁तेजसा	-9.69836
▁ययौ	-9.69945
▁बर्	-9.69983
▁निवेश	-9.70014
वृक्ष	-9.70079
रस	-9.70153
स्तेन	-9.70189
हित	-9.70194
▁जित	-9.70205
▁इत्येतस्य	-9.70319
▁वर्तन्ते	-9.70435
▁दीप्त	-9.70487
यतु	-9.70505
ाक्ष	-9.70541
प्रदेशः	-9.7067
ाण्य	-9.70727
▁आर्थिक	-9.70757
तरं	-9.70781
▁करें	-9.70807
▁महेन्द्र	-9.70839
▁२५	-9.70846
मर्	-9.70886
▁तादृश	-9.709
गर्	-9.70909
▁A	-9.70916
▁निर्मातुं	-9.70971
▁चित्रं	-9.71145
▁उद्	-9.71178
तदा	-9.71259
▁सर्वाः	-9.71369
▁धर्मज्ञ	-9.71373
▁शुष्क	-9.71548
मध्य	-9.71558
▁अजायत	-9.71725
▁अद्यापि	-9.71735
▁प्रत्युवाच	-9.71807
▁प्रविश्य	-9.71841
▁महाभाग	-9.71909
▁निर्माण	-9.72061
▁गृहीत	-9.72153
▁सङ्गणक	-9.72187
▁मुनि	-9.72195
▁खान्	-9.72244
ार्जुन	-9.72258
▁त्रिषु	-9.72463
▁निर्मित	-9.72545
▁मुद्रा	-9.72574
▁भूय	-9.72581
▁कृष्णा	-9.72593
▁इत्यस्योपरि	-9.72612
१०	-9.7273
▁नगरस्य	-9.7279
▁युवा	-9.72798
यन्त	-9.72815
ङ्	-9.72818
ाच	-9.72843
▁वर्ग	-9.7288
▁मुहूर्त	-9.73009
▁मृत्योः	-9.73026
▁डा	-9.73047
▁संस्कृत	-9.73083
▁दृष्टुं	-9.73125
▁प्रतापवान्	-9.7313
▁समर्थ	-9.73157
▁अदः	-9.73226
▁प्रत्येक	-9.7328
▁अर्ध	-9.73337
▁ज्येष्ठ	-9.73386
ण्ट	-9.7341
▁1	-9.73418
▁सर्वत्र	-9.73425
▁उपयोगेन	-9.7343
पर्	-9.73487
क्रीडासु	-9.73496
९	-9.73514
▁अमेरिकन्	-9.73569
▁अधि	-9.73702
▁वेग	-9.7373
क्लब्	-9.73742
▁मै	-9.738
▁तिष्ठ	-9.73805
ान्त	-9.73875
वद्	-9.73879
▁सर्वलोक	-9.73889
दार	-9.73912
▁रचना	-9.74067
▁अभ्य	-9.74067
▁मत	-9.74236
▁महात्मान	-9.74241
ेद	-9.74243
▁व्या	-9.74261
▁रु	-9.74298
▁नासीत्	-9.7431
▁नामकेन	-9.74374
णि	-9.74377
▁द्वार	-9.74393
▁लङ्का	-9.744
▁माध्यमेन	-9.74462
▁केशव	-9.74565
▁इतोऽप	-9.74577
▁तुल्य	-9.74601
▁सिङ्घ्	-9.74622
▁वेगेन	-9.74769
g	-9.74812
▁कम्पनी	-9.7486
▁सुखं	-9.74925
▁अक्रीडत्	-9.74944
▁अन्तर्भवन्ति	-9.74949
b	-9.75069
▁श्रेष्ठ	-9.75097
वाक्य	-9.75139
नियम	-9.75144
▁स्थिता	-9.75175
▁ततस्ते	-9.75243
▁किमर्थं	-9.75266
▁इन्द्र	-9.7527
▁एताः	-9.75302
▁आस्ताम्	-9.75317
▁कोप	-9.75317
इन्	-9.75415
ar	-9.75455
ास्तथा	-9.75507
िनो	-9.75556
▁नैक	-9.75621
▁वचनमब्रवीत्	-9.7569
मानं	-9.75724
तल	-9.7585
▁लाभ	-9.75885
▁इह	-9.75907
▁विनाश	-9.7596
▁जी	-9.75973
▁मेथड्	-9.75979
▁तेषाम्	-9.76023
न्ती	-9.76063
▁इत्यादिषु	-9.76087
गन्	-9.76148
▁अनुभव	-9.76151
▁लण्डन्	-9.76233
श्रेष्ठ	-9.76234
▁जज्ञे	-9.76308
▁वास	-9.7632
▁राग	-9.76358
▁त्रीणि	-9.76434
▁प्रथमा	-9.76447
▁आहार	-9.76464
▁तया	-9.76465
फ़ि	-9.76491
▁स्थापना	-9.76561
▁अष्ट	-9.76734
▁सो	-9.7677
▁माम्	-9.76776
▁गर्भ	-9.7681
▁ली	-9.76844
▁प्राप्ता	-9.7698
▁वी	-9.76989
फलं	-9.76996
▁वस्त्र	-9.77005
▁शम	-9.77041
ास्तु	-9.77064
▁प्राक्	-9.7715
▁परस्परम्	-9.77164
ढ	-9.77276
▁दूर	-9.7729
हीन	-9.77295
यज्ञ	-9.773
रोगेण	-9.77324
णे	-9.77325
▁लिखित	-9.77349
▁यक्ष	-9.77377
चलच्चित्र	-9.77493
स्थानं	-9.77565
ेभ्य	-9.77629
▁तदर्थं	-9.77646
ाना	-9.77651
in	-9.7773
▁तपो	-9.77737
▁पाण्डवान्	-9.7775
▁पृष्ट	-9.77773
▁प्रधान	-9.77805
▁तेभ्यः	-9.77877
▁रूपं	-9.77925
al	-9.77946
▁शा	-9.77946
▁प्रतिवर्षं	-9.77986
▁अत	-9.78039
▁हर	-9.7807
▁कौरव्य	-9.78091
▁विद्धि	-9.7813
▁सात्यकि	-9.7814
त्त	-9.78155
▁विद्या	-9.78249
वह	-9.78299
जीव	-9.78327
स्थित	-9.78435
▁ज्ञास्यामः	-9.78476
ैरपि	-9.7853
▁कारण	-9.7871
▁२०२२	-9.78718
ैरिव	-9.7873
खण्ड	-9.78801
▁कला	-9.78905
▁द्रौणि	-9.78914
▁दास	-9.78936
▁त्रयः	-9.78951
ेऽस्मिन्	-9.78976
र्द	-9.78995
▁कौरव	-9.79035
▁वेरियेबल्	-9.79048
चु	-9.79054
▁नहि	-9.79113
ांश	-9.79146
▁गच्छन्ति	-9.79194
▁डो	-9.79274
▁दुष्ट	-9.79357
वान	-9.79374
▁चास्य	-9.79391
निर्	-9.79392
बन्ध	-9.79544
ष्व	-9.79556
▁नेत्र	-9.79565
▁आल्	-9.79576
▁शाह्	-9.79608
▁लक्ष	-9.7963
▁नरः	-9.7966
षा	-9.79703
चा	-9.79721
▁पुरी	-9.79724
▁इत्यादयः	-9.79741
▁सीमा	-9.79756
▁किल	-9.79764
▁अध्यक्षः	-9.7977
युक्ता	-9.79783
दक्षिण	-9.79804
छ	-9.79811
्यः	-9.79825
▁चक्र	-9.79849
▁शक्यन्ते	-9.79887
▁भद्रं	-9.79899
▁मान	-9.80068
▁गीत	-9.80145
▁शरीरस्य	-9.80147
▁समग्र	-9.80192
▁दिन	-9.80212
▁हैं	-9.80228
▁राजपुत्र	-9.80235
▁इत्येताभ्यां	-9.80277
शी	-9.80303
▁रामेण	-9.8046
▁निर्मितः	-9.80492
वद	-9.8051
ोऽहं	-9.80548
▁राघवः	-9.80555
कल	-9.80733
▁अस्यां	-9.80763
▁वर्षीयः	-9.80781
ासीत्	-9.808
नाय	-9.80826
रहित	-9.80855
वीर्य	-9.80887
▁शेष	-9.80894
▁समूह	-9.80901
ज़ा	-9.8096
▁वापि	-9.81048
▁पाण्डवा	-9.81097
न्तो	-9.81148
संकाश	-9.81171
ादित्य	-9.8118
▁किम	-9.81197
▁शास्त्र	-9.81214
मू	-9.81231
▁व्यावसायिक	-9.81244
सेवा	-9.81244
▁प्रक्रिया	-9.81275
रं	-9.81291
▁मास	-9.81321
▁परंतप	-9.81351
▁भोजनं	-9.81417
▁प्रजाः	-9.81463
▁आदेश	-9.81478
▁दुःखं	-9.81485
ठ	-9.81527
हार	-9.81583
मब्रवीत्	-9.81626
स्त्रि	-9.81683
m	-9.81715
▁चलच्चित्रेषु	-9.81792
माना	-9.81811
सुख	-9.81887
क्षेत्रं	-9.81893
ष्य	-9.81943
▁अंश	-9.81954
दिन	-9.81967
बद्ध	-9.82046
नीय	-9.82051
▁दुर्बल	-9.82073
▁वंश	-9.82085
▁चिन्ता	-9.82139
पुरुष	-9.82193
र्न	-9.82195
▁जनः	-9.82237
साम्राज्यस्य	-9.82255
▁अधिकांशाः	-9.82294
▁क्रमेण	-9.82296
▁पात्रं	-9.82308
जय	-9.82321
लिन्	-9.8236
गीत	-9.82369
▁रात्रौ	-9.82412
▁सर्वतः	-9.8244
ितो	-9.82518
▁समस्या	-9.8253
▁पावक	-9.82543
▁२३	-9.82578
▁पुरुषः	-9.82581
यितुम्	-9.82582
ष्ठ	-9.82622
▁शीघ्र	-9.82694
पथ	-9.82702
निया	-9.82725
▁क्लब्	-9.82754
▁भक्त	-9.82841
▁अपरं	-9.82866
सहस्र	-9.82882
▁खण्ड	-9.82966
▁and	-9.82971
ङ्क्	-9.83012
▁मारिष	-9.83026
▁महात्मा	-9.83127
▁लिङ्क्	-9.83141
िष्यामि	-9.8318
▁गुप्त	-9.83191
▁सहित	-9.83275
ाविव	-9.83349
▁नष्ट	-9.83394
चे	-9.83402
नस्य	-9.83417
षि	-9.83419
बल्	-9.83428
बर्	-9.83462
▁प्राप्नुवन्ति	-9.83472
▁प्राह	-9.83504
ध्य	-9.83507
▁आनन्द	-9.83547
▁पृष्ठ	-9.83549
▁बली	-9.83588
▁भवत	-9.83603
▁शङ्ख	-9.83665
▁भग्न	-9.83754
वार	-9.83766
▁एकम्	-9.83813
▁राजनैतिक	-9.83845
▁उपयुज्यन्ते	-9.83877
धार	-9.83981
भ्यां	-9.84007
▁प्रहृष्ट	-9.84018
▁स्थिर	-9.84032
दश	-9.84038
▁२२	-9.84134
▁ऋण	-9.84148
ोत्तर	-9.84152
मद	-9.84235
▁अन्येषां	-9.84285
▁रस	-9.84295
▁कुर्यात	-9.84321
▁अभूत्	-9.84335
▁सहायक	-9.84345
▁समीपस्थ	-9.84349
ोऽस्ति	-9.84525
सै	-9.84568
नगरम्	-9.84593
▁राजन्न	-9.846
मासीत्	-9.8461
▁अधिकृत	-9.84636
णम्	-9.847
कोश	-9.84764
सर्व	-9.84799
स्तान्	-9.84811
▁कालेन	-9.84932
–	-9.85075
▁सूचयति	-9.85075
ैस्त	-9.85106
▁सर्वोत्तम	-9.85111
▁री	-9.85115
स्तेषा	-9.85149
▁s	-9.85206
विध	-9.85315
▁कस्यचित्	-9.85462
▁२००५	-9.85471
पुष्प	-9.85487
ार्थे	-9.85506
▁वः	-9.85506
र्स्	-9.85524
▁कुमार	-9.85545
▁सौम्य	-9.85549
▁जगत्	-9.85567
▁2	-9.85574
स्थान	-9.85642
मात्र	-9.85647
▁विविधानि	-9.85666
हम्	-9.85689
▁M	-9.85709
ळ	-9.85732
देशीय	-9.85889
विशेषाः	-9.85908
▁पाठे	-9.85955
▁सर्प	-9.85983
▁वस्तुतः	-9.85987
धी	-9.86007
मात्मनः	-9.86029
▁पितुः	-9.86047
मद्य	-9.86074
▁बहून्	-9.86134
▁परा	-9.86164
ाणाम	-9.86185
ामः	-9.86254
▁मरण	-9.86283
▁प्रकटयति	-9.86292
▁ममार	-9.8631
वर्यस्य	-9.86367
▁वदन्ति	-9.86373
▁भवते	-9.86409
▁गौतम	-9.86417
घात	-9.8644
▁धर्मो	-9.8653
मल	-9.86572
▁जाल	-9.86656
▁नाव	-9.86673
धान	-9.86732
मन्त	-9.86745
▁गण्ड	-9.86759
प्रान्तस्य	-9.86764
रम्	-9.86793
▁कपि	-9.86815
▁वरं	-9.86834
ाभ	-9.86871
प्स्	-9.86909
शि	-9.86912
▁व्यय	-9.86927
वस्त्र	-9.8699
▁उपयोग	-9.87041
क्षेत्रस्य	-9.87064
स्तर	-9.87094
▁काकुत्स्थ	-9.87116
मति	-9.87167
▁कथयति	-9.87231
▁शान्त	-9.87255
ाङ्क	-9.87296
नर	-9.87321
▁पश्यन्ति	-9.8733
▁जग्राह	-9.87342
▁केश	-9.87406
उप	-9.87434
दल	-9.87514
▁१९८०	-9.87543
▁दिष्ट्या	-9.87544
▁पपात	-9.87575
लेट्	-9.87577
▁शाप	-9.87606
▁अत्यन्त	-9.8763
▁स्वर	-9.87686
तौ	-9.87715
भागे	-9.87793
▁केवलम्	-9.87808
▁गवा	-9.87827
▁P	-9.87879
▁२००४	-9.87962
चार	-9.88232
याम	-9.88279
▁विभो	-9.88295
▁समं	-9.88348
▁क्रयण	-9.88471
यान	-9.88476
▁बै	-9.88502
ोवाच	-9.88553
▁पञ्जाब्	-9.88574
देशात्	-9.88704
▁व्यवस्था	-9.88715
▁५०	-9.88896
▁सम्बन्ध	-9.88954
र्वि	-9.88985
▁ऐतिहासिक	-9.89028
▁नामकं	-9.89028
ेय	-9.8903
▁सुलभ	-9.89049
त्वा	-9.8915
युद्धे	-9.8916
▁दिशि	-9.89165
▁वह	-9.89192
▁रक्षसा	-9.89317
▁कन्दुक	-9.89414
र्जुन	-9.89572
▁दुःशासन	-9.89577
लिया	-9.89606
बाहु	-9.89611
विश्वविद्यालये	-9.89654
मना	-9.89654
▁the	-9.89654
▁रोचते	-9.89681
▁अनेकाः	-9.89699
▁हृदय	-9.8971
▁विदित	-9.89753
▁रन्	-9.89772
राष्ट्रिय	-9.89783
यिष्यति	-9.89794
न्ध	-9.89812
माण	-9.89851
विधि	-9.89851
▁ऋषि	-9.89903
▁स्वयम्	-9.89915
▁त्यक्त	-9.90024
▁क्रीड	-9.90036
▁कल्प	-9.90043
विशेषस्य	-9.90047
▁तदीय	-9.90068
▁प्राप्यते	-9.90083
▁कृत्स्न	-9.9012
f	-9.9013
कर्ण	-9.90137
▁आरम्भ	-9.90188
▁राजधानी	-9.90212
सुर	-9.9025
▁आदि	-9.90276
▁स्वतन्त्र	-9.90289
स्तथैव	-9.90349
▁बहवो	-9.90407
▁विजयं	-9.90545
स्तत्	-9.90559
▁शि	-9.90565
▁अल्	-9.90615
▁अधिका	-9.90651
मोह	-9.90657
िङ्ग्	-9.90662
▁प्रीत	-9.90721
ात्मज	-9.90742
रूपं	-9.90883
मिमं	-9.90939
पत्य	-9.90979
वयमधुना	-9.90985
िन्	-9.91
▁तेषाम	-9.91024
ेश	-9.91098
ाश्चैव	-9.9112
▁शकुनि	-9.91124
ॉ	-9.91133
पक्षस्य	-9.9121
मर	-9.91229
दर्शन	-9.91257
िष्यन्ति	-9.91315
▁पुराण	-9.91349
▁प्राप्तं	-9.9136
▁उत्तमं	-9.91361
वृद्ध	-9.91376
▁भी	-9.91455
▁दिश	-9.91481
▁कः	-9.9151
लैन्	-9.91556
ावह	-9.91582
▁प्रियं	-9.91676
ौघ	-9.91687
नव	-9.91702
▁कीर्ति	-9.91739
▁राक्षसेन्द्र	-9.91764
▁गता	-9.9177
भुज	-9.91867
ची	-9.91874
वीर	-9.91894
▁जान्	-9.91903
▁जनान्	-9.91959
▁सहाय	-9.92009
▁अमेरिकादेशे	-9.92088
भाषायाः	-9.92159
रै	-9.92181
▁धनंजयः	-9.92221
▁अन्यत्	-9.92233
यन्तु	-9.92242
▁प्रचार	-9.92245
भाषायां	-9.92279
स्ट	-9.92297
°	-9.9237
▁चिच्छेद	-9.92417
शः	-9.92425
ैनं	-9.92432
गच्छ	-9.92433
फि	-9.92459
ष्टा	-9.92484
पल्	-9.92498
▁१००	-9.92501
▁हिम	-9.92678
▁प्रतिज्ञा	-9.92689
कारण	-9.92695
मादाय	-9.92749
▁पुत्रस्य	-9.92754
▁आफ्	-9.92788
फ़े	-9.92832
▁स्वस्थ	-9.92852
▁सहदेव	-9.92862
▁in	-9.92898
▁क्रूर	-9.92915
भेद	-9.92963
▁एन	-9.92992
▁लोभ	-9.93031
▁पुनरेव	-9.93055
▁तदेव	-9.93058
▁यह	-9.93063
कारणात्	-9.93073
▁१९९०	-9.93148
▁तीक्ष्ण	-9.9316
हु	-9.93173
▁शीघ्रमेव	-9.93183
ास्ति	-9.93229
भूमि	-9.93264
▁टो	-9.93275
▁श्रीमान्	-9.93295
ान्न	-9.93309
नेव	-9.93311
िष्यते	-9.93316
▁सर्वाधिकं	-9.93336
क्त	-9.93385
▁मी	-9.93494
▁आचर्यते	-9.93592
▁विचित्र	-9.93605
▁उष्ण	-9.93723
▁माया	-9.93789
▁भूतानि	-9.93792
▁कर्म्म	-9.93822
▁कृपया	-9.9385
▁विषय	-9.93854
▁धार्मिक	-9.93896
निक्	-9.93944
ज्ञा	-9.93949
▁पृथिवीं	-9.93968
स्येव	-9.93978
▁सरल	-9.93981
▁अर्हन्ति	-9.94044
योध	-9.94063
ान्ते	-9.94089
ग्राम	-9.94252
▁परस्पर	-9.94289
▁ब्राह्मणा	-9.94315
▁बार्	-9.944
▁सेट्	-9.94402
▁मधुर	-9.94417
वत	-9.94437
▁क्रीडकाः	-9.94454
▁नान्य	-9.94468
▁लेख	-9.94475
▁अन्त	-9.94508
▁वर्धते	-9.94571
▁प्राकृतिक	-9.94589
▁सर्वथा	-9.94596
कर्ष	-9.94647
▁पादप	-9.94705
▁अतिरिक्त	-9.94705
▁उपा	-9.94712
नाद	-9.94719
▁c	-9.9472
▁न्यूनं	-9.94852
▁२१	-9.94858
क्षय	-9.94868
▁परिवर्तनं	-9.94912
en	-9.94925
▁ध	-9.94937
▁१९७०	-9.94938
डु	-9.94939
प्रिय	-9.94978
दृश्य	-9.94979
▁पादौ	-9.94986
▁किंचित्	-9.95042
▁dot	-9.95068
▁शारीरिक	-9.95075
वश	-9.95105
िरे	-9.95108
एच्	-9.9519
युक्ताः	-9.95276
ृ	-9.95304
▁सर्वाधिक	-9.95405
▁भवन्तं	-9.95416
▁नाश	-9.95505
▁प्राप्तवन्तः	-9.95558
▁मराठा	-9.95583
▁प्रश्न	-9.95585
▁वित्तीय	-9.95634
▁प्रिया	-9.95664
▁परिणाम	-9.9568
▁वसु	-9.95726
पान	-9.95757
पृष्ठ	-9.95804
▁–	-9.95809
▁अत्यधिक	-9.95851
▁ओर	-9.95863
रेव	-9.95877
▁रौद्र	-9.95955
सिस्	-9.95967
▁धर्मेण	-9.95986
▁दारुण	-9.95995
सस्	-9.96019
▁शून्य	-9.96054
त्सु	-9.96071
एफ्	-9.96083
लिङ्ग्	-9.96109
ीकृत	-9.96194
▁मृदु	-9.96218
स्थं	-9.96276
▁लभते	-9.96333
▁मुम्बै	-9.96351
▁कौ	-9.96402
3	-9.96431
डौन्	-9.96467
▁नरेन्द्र	-9.96481
▁दीर्घकाल	-9.96483
▁सम्प्राप्त	-9.96523
▁प्रदर्शन	-9.96649
▁क्षमा	-9.96667
▁टि	-9.96681
लक्ष्य	-9.96691
कृतं	-9.967
▁४०	-9.96744
देह	-9.96745
▁सैन्धव	-9.96753
▁टङ्कयतु	-9.96753
▁काङ्ग्रेस्	-9.96754
▁लु	-9.96792
▁अधिकार	-9.96805
ाभ्य	-9.96877
▁of	-9.96982
5	-9.97007
▁क्षम	-9.97036
ासि	-9.97037
▁भृशम्	-9.97062
▁प्राप्तः	-9.97078
र्ष	-9.97139
▁तथ	-9.97141
▁तस्माद	-9.97203
पाठ	-9.97205
ण्डर्	-9.97207
▁स्वागतम्	-9.97283
▁b	-9.97338
▁आगत्य	-9.97346
▁तस्यां	-9.97358
अस्मिन्	-9.9746
शक्ति	-9.97482
भोजन	-9.97561
प्रकार	-9.97618
ाप्य	-9.97631
▁दूत	-9.97654
केश	-9.97706
बाल्	-9.97726
▁घ	-9.97726
▁कृषि	-9.97739
▁इत्युक्त	-9.97751
▁शूल	-9.97764
▁प्रदेशे	-9.97809
वल्	-9.97829
हत	-9.97919
▁करने	-9.97954
▁बु	-9.98046
ण्	-9.98072
▁२६	-9.98131
प्रदर्शन	-9.98164
▁वास्तविक	-9.98195
ांश्चैव	-9.98218
▁विश्राम	-9.983
▁मूल्य	-9.9834
ज्ज	-9.98343
▁मधु	-9.98481
▁चेक्	-9.98481
▁विकास	-9.9851
▁इत्येतान्	-9.98513
▁कवच	-9.98518
▁विण्डो	-9.98571
ोक्त	-9.98605
▁सैन्यं	-9.98612
▁यतोहि	-9.98644
or	-9.98702
यामि	-9.9876
००	-9.98792
S	-9.98798
ाया	-9.98802
▁खो	-9.98806
▁भगवन्	-9.98835
▁F	-9.9887
लेख	-9.98911
बर्ग्	-9.98923
▁दार	-9.98926
▁व्यवसाय	-9.99005
▁अस	-9.99007
ही	-9.99044
▁पूर्वम्	-9.99073
▁ताव	-9.99076
▁क्वचित्	-9.9908
नौ	-9.99088
▁वाणिज्य	-9.99158
▁पृथिव्यां	-9.99159
ोऽप्य	-9.99182
युक्तः	-9.99187
ानुसारं	-9.99307
व्यय	-9.99342
▁लक्ष्य	-9.99348
▁एकेन	-9.99352
ेनैव	-9.994
साधन	-9.9947
▁विद्युत्	-9.99471
▁बीज	-9.99487
▁सुता	-9.99493
▁दिशः	-9.9953
▁२००३	-9.99593
▁दत्तवान्	-9.99629
सेन	-9.99633
▁वृत्ति	-9.99699
बुद्धि	-9.99709
▁शिर	-9.99733
लू	-9.9975
प्रतिम	-9.99813
ह्य	-9.99817
▁दत्तं	-9.99827
▁माम	-9.99839
बु	-9.99857
राग	-9.99886
विद्ध	-9.99887
▁बाह्य	-9.99888
प्रकाश	-9.99924
▁स्वेषा	-9.99931
▁मणि	-9.99951
▁विरोध	-9.99961
▁पत्नी	-9.99962
▁पदं	-9.99982
ैष	-9.99984
▁इत्यादीनां	-10.0006
ड्स्	-10.0007
रक्ष	-10.0017
श्चा	-10.002
▁आवश्यक	-10.002
▁पतित	-10.0022
यान्	-10.0022
▁गते	-10.0026
▁देवाः	-10.003
मण्डल	-10.0038
मर्थ	-10.004
▁सक्रिय	-10.0044
▁सद्यः	-10.0045
▁फ	-10.0049
ानपि	-10.0049
▁कर्णो	-10.0051
ुष	-10.0052
▁शरीरं	-10.0053
ल्याण्ड्	-10.0054
▁इत्युक्त्वा	-10.0054
▁प्रभु	-10.0057
▁शक्यं	-10.0059
गतं	-10.0078
▁अन्या	-10.0082
▁भा	-10.0094
▁कश्चिद्	-10.0096
▁भारद्वाज	-10.0098
▁न्यूयार्क्	-10.0099
▁स्युः	-10.0101
▁धारय	-10.0103
▁रुधिर	-10.0107
वयं	-10.0115
ल्ल	-10.0124
यात्	-10.0126
र्ज	-10.0126
▁कठिन	-10.0139
झ	-10.014
▁नरव्याघ्र	-10.0146
नन्द	-10.0148
रण	-10.0152
▁निश्चित	-10.0154
▁समेत्य	-10.0165
▁धर्मः	-10.0173
▁औषध	-10.0177
शास्त्र	-10.0178
▁मुस्लिम्	-10.0184
▁गात्र	-10.0187
▁वर्यः	-10.019
▁शिक्ष	-10.0192
जनैः	-10.0193
▁प्राप्ताः	-10.0196
▁आरब्धवान्	-10.0197
▁ज्ञानं	-10.0198
सम्बद्ध	-10.0199
ाचार	-10.0201
▁कस्यापि	-10.0202
व्यापार	-10.0203
▁सूचना	-10.0204
करं	-10.0208
▁चलच्चित्रम्	-10.0212
▁प्रमुखः	-10.0213
स्योपरि	-10.0217
▁लब्ध	-10.022
▁ब्या	-10.0224
वंशस्य	-10.0227
▁संक्रुद्ध	-10.0229
सङ्घ	-10.0232
_	-10.0243
ात्मनः	-10.0245
कला	-10.0246
▁उक्त	-10.0247
▁स्थिताः	-10.0249
▁भविता	-10.0251
▁बुद्ध्या	-10.0255
▁प्रबल	-10.0269
▁स्थ	-10.0275
▁समृद्ध	-10.0275
परिमित	-10.0276
दत्त	-10.0276
तमं	-10.029
कार्	-10.0291
▁२००२	-10.0292
▁व्याघ्र	-10.0292
▁क्रम	-10.03
▁कार्याणि	-10.0302
▁जनयति	-10.0305
▁चर	-10.0306
▁योऽ	-10.0307
▁इष्ट	-10.031
लिङ्ग	-10.031
स्म	-10.0311
गी	-10.0313
▁कोटि	-10.0318
▁सेवा	-10.032
▁किलोमीटर्	-10.032
▁विक्रम	-10.0326
▁हते	-10.0326
▁दीन	-10.0332
▁अर्थः	-10.0333
▁ग्रामः	-10.0338
सू	-10.0339
▁विवाद	-10.0341
५०	-10.0345
▁जनमेजय	-10.0348
▁वैदेही	-10.0348
ात्मानं	-10.0349
▁गु	-10.035
4	-10.0353
▁केनडा	-10.0354
▁विष	-10.0354
▁प्रकार	-10.0357
गम्य	-10.0358
क्क	-10.0363
▁सर्व्वे	-10.0368
ामास	-10.0373
▁वाहन	-10.0376
▁पराजय	-10.038
मृग	-10.039
▁प्रविवेश	-10.0392
▁घोष	-10.0396
विल्	-10.0411
र्थं	-10.0412
नेत्र	-10.0418
▁टे	-10.0418
वन्तौ	-10.0423
▁वार्षिक	-10.0424
▁ब्रह्मन्	-10.0426
मयं	-10.043
टल्	-10.0432
▁तत्रैव	-10.0438
भाष	-10.0442
येत	-10.0444
स्तद्	-10.0446
▁आहत्य	-10.0448
ाश्रय	-10.0448
▁केचित्	-10.0449
प्राप्त	-10.0454
▁रत्न	-10.0458
▁जघान	-10.0461
▁तेऽ	-10.0463
वर्ग	-10.0465
स्वर	-10.0466
▁भवद्भिः	-10.0471
किन्तु	-10.0473
म्बर	-10.0473
▁चित्वा	-10.0478
▁नागरिक	-10.0486
▁अन्यतमा	-10.0486
▁दीप	-10.0486
▁प्राय	-10.0488
▁एको	-10.0489
▁वासव	-10.0489
▁पन्नग	-10.0493
▁मति	-10.0494
▁यान्ति	-10.0494
▁प्रायेण	-10.0497
सम्बन्ध	-10.05
▁लोकप्रिय	-10.0504
▁संख्या	-10.0504
▁पञ्चम	-10.0514
▁स्वास्थ्य	-10.0518
स्माकं	-10.0528
▁द्रोणं	-10.053
मानः	-10.0532
▁फेब्रुवरी	-10.0539
▁अद्यत्वे	-10.054
▁3	-10.0541
▁आय	-10.0542
ण्डि	-10.0544
▁दिवस	-10.0546
▁कृतवती	-10.0548
तीव	-10.0549
▁देय	-10.0551
▁गोल्	-10.0561
▁आस	-10.0561
▁योजना	-10.0569
शरीर	-10.0569
▁निमित्तं	-10.0569
▁बाहु	-10.0573
▁निवृत्त	-10.0573
▁योध	-10.0575
रः	-10.0576
ल्ड्	-10.058
▁प्रयत	-10.0582
शर	-10.0586
वर्त	-10.0589
क्र	-10.059
st	-10.0598
बाण	-10.0601
▁ब्रह्मा	-10.0601
▁महायशाः	-10.0602
▁टेक्स्ट्	-10.061
राष्ट्र	-10.0619
▁अन्वेषण	-10.0621
▁कृप	-10.0633
▁T	-10.0634
▁धनुः	-10.0637
▁यद्य	-10.0643
ल्प	-10.0643
▁बलेन	-10.065
ाधिकार	-10.065
वस	-10.0652
ाभिः	-10.0653
▁अपराध	-10.0658
घ्न	-10.0658
▁वचन	-10.0663
▁भारतं	-10.0665
▁२७	-10.0665
▁लोकान्	-10.0665
▁मद	-10.0682
लाभ	-10.0682
▁वर्ल्ड्	-10.0684
ामहे	-10.069
▁₹	-10.0693
मास	-10.0693
ध्व	-10.0694
बू	-10.0698
शन	-10.0698
▁लै	-10.0698
▁दन्त	-10.0704
प्रा	-10.0713
▁कुरुते	-10.0715
गन्ध	-10.0718
▁वैर	-10.0727
सुत	-10.0736
क्षेत्रेषु	-10.074
▁सै	-10.0745
▁गति	-10.0746
यी	-10.0751
▁ह्या	-10.0752
▁ही	-10.0761
▁अय	-10.0768
▁कृत्य	-10.0771
प्रक्रिया	-10.0775
मै	-10.0777
▁पु	-10.0779
▁दानव	-10.0779
▁इमां	-10.0782
भवत्	-10.0785
गज	-10.0789
दिने	-10.0791
▁मल	-10.0793
▁१९९८	-10.0794
▁प्रतिशतं	-10.08
▁रोष	-10.0809
▁रिक्त	-10.0817
भ्र	-10.0821
▁किंचिद	-10.0821
▁प्रसन्न	-10.0823
समय	-10.0827
▁कदा	-10.0831
वल	-10.0837
▁वार्ता	-10.084
▁सञ्चिकां	-10.0842
▁श्व	-10.0843
रेखा	-10.0844
▁खङ्ग	-10.085
मेत	-10.0856
नगरपालिकाया	-10.0858
▁यात्रा	-10.0859
▁भीमं	-10.086
▁पै	-10.0863
सङ्गीत	-10.0869
▁बलात्	-10.087
▁रेखा	-10.0871
▁निष्	-10.0873
ोर्	-10.0875
▁स्या	-10.0878
▁यूरोप्	-10.0879
कन्	-10.0881
▁चतुर्	-10.0883
▁वद	-10.0883
दे	-10.0884
वाहन	-10.0884
▁इमे	-10.0888
▁मध्यम	-10.0889
▁शीत	-10.0892
त्वात्	-10.0894
िते	-10.0894
▁विश	-10.0894
▁काश्चन	-10.0897
▁मुघल	-10.0898
थे	-10.0898
▁दीयते	-10.0899
नल्	-10.09
▁भूतानां	-10.0907
▁वर्षेषु	-10.0911
संयुक्त	-10.0917
▁क्षीण	-10.092
▁फ़	-10.092
बान्धव	-10.0924
▁वसिष्ठ	-10.0924
स्यास्य	-10.0927
▁नल	-10.0928
ाचार्य	-10.0929
फ़ुट्बाल्	-10.0932
िष्ये	-10.0932
मूल्य	-10.0932
▁पत	-10.0933
▁विश्वामित्र	-10.0942
▁स्पोकन्	-10.095
ितानि	-10.0951
▁न्याय	-10.0957
▁महावीर्य	-10.096
▁क्र	-10.096
▁राधेय	-10.096
▁एक्सिक्यूट्	-10.0961
▁हंस	-10.0962
▁भीमो	-10.0963
▁पुरुषर्षभ	-10.0973
▁प्राप्तम्	-10.0974
▁हिन्दी	-10.0974
▁शिरसा	-10.0975
▁आत्मानं	-10.0976
्यत	-10.0976
▁भूयः	-10.0986
रिक्	-10.0988
▁अल	-10.0994
▁केवल	-10.0999
▁केषाञ्चन	-10.1001
▁भार्गव	-10.1001
▁वाक्यमब्रवीत्	-10.1002
▁अवश्यं	-10.1003
खा	-10.1006
▁उत्पाद	-10.1008
▁पूर्वतन	-10.1008
▁मैल्	-10.1014
▁पाल	-10.1019
▁तन्मे	-10.1022
कम्प	-10.1027
कथा	-10.1034
निर्मित	-10.1045
▁इमं	-10.1047
▁मार्	-10.1047
मव	-10.105
▁द्वीप	-10.1052
ब्र	-10.1053
▁p	-10.1054
it	-10.1056
क्षेत्र	-10.1059
मांस	-10.1059
वर्तन्त	-10.1059
▁सम्भवति	-10.106
▁क्षेत्रं	-10.1061
ालय	-10.1061
िणः	-10.1065
जु	-10.1067
भोग	-10.1067
▁आगच्छति	-10.1067
घोष	-10.107
▁व्यवहार	-10.1074
गिरि	-10.1075
▁गीतं	-10.1075
▁मण्डल	-10.1076
▁उत्पन्न	-10.1077
▁गम्भीर	-10.1078
▁प्रकृति	-10.1087
ोदक	-10.109
िह	-10.1091
▁स्त्रियः	-10.1096
भार	-10.1104
▁विस्तृत	-10.1105
प्रदेश	-10.111
▁प्रहार	-10.1117
▁व्रज	-10.1117
▁नाहं	-10.1123
▁वृष	-10.1123
▁जानामि	-10.1125
▁पश्यतु	-10.1128
▁गताः	-10.1131
▁सुन्दर	-10.1131
ग्रे	-10.1134
▁नामिका	-10.1137
▁बलम्	-10.1138
▁खर	-10.1139
▁परिवार	-10.114
तीति	-10.115
र्क	-10.1151
▁सर्वभूताना	-10.1153
▁उद्यान	-10.1154
▁मिथ्या	-10.1156
▁निर्मिता	-10.1158
समा	-10.1159
▁१९९९	-10.116
▁अतिरिच्य	-10.1161
▁बौद्ध	-10.1166
▁प्राथमिक	-10.1167
▁निशम्य	-10.1169
▁महात्मनाम्	-10.1171
युतं	-10.1181
▁भास्कर	-10.1183
▁स्याद्	-10.1183
मार्	-10.1185
▁मतिः	-10.1187
निर्माण	-10.1188
सैन्य	-10.1189
▁प्रविष्ट	-10.1191
▁युक्तं	-10.1192
मेतत्	-10.1194
▁अनन्तरम्	-10.1196
दिष्ट	-10.1201
▁राज्ञो	-10.1209
▁name	-10.121
▁सुरक्षित	-10.121
▁सञ्चय	-10.1211
▁वत्स	-10.1215
▁हेतु	-10.1217
▁शनै	-10.1222
▁सेनापति	-10.1225
▁अन्योन्य	-10.1225
नृत्य	-10.1225
▁शरीरे	-10.1226
ग्रहण	-10.1227
▁अपर	-10.1228
▁डै	-10.1236
▁वाचा	-10.1237
तमः	-10.1237
िनां	-10.124
▁वक्ष्यामि	-10.1246
▁शोणित	-10.1252
कौण्टी	-10.1254
रल्	-10.1255
▁स्पर्धा	-10.1262
▁प्रददाति	-10.1268
▁ज्ञात	-10.1271
कम्पनी	-10.1273
▁दलस्य	-10.1275
▁केरल	-10.1277
▁बृहत्तम	-10.1277
यन्त्र	-10.1288
▁बटन्	-10.1288
▁सार	-10.1288
▁अयम्	-10.129
▁संग्राम	-10.1291
▁B	-10.1291
▁स्तर	-10.1297
▁लीग्	-10.13
▁जना	-10.1301
प्रथम	-10.1302
सागर	-10.1303
▁समस्त	-10.1306
पुर्	-10.1307
▁भक्ष्य	-10.1308
ेऽपि	-10.1312
करः	-10.1313
▁रक्षित	-10.1314
▁२८	-10.1317
▁आरब्धम्	-10.1318
मभ्य	-10.1319
▁पप्रच्छ	-10.1319
▁सम्भाव्य	-10.1321
▁महाप्राज्ञ	-10.1321
▁गतिः	-10.1326
कारी	-10.1329
▁क्षत्र	-10.133
▁पूर्णतया	-10.133
▁दृष्टि	-10.1331
▁राजान	-10.1335
कालस्य	-10.1337
▁एवमेव	-10.1338
▁धृत	-10.1339
an	-10.1341
▁जैन	-10.1341
विश	-10.1342
कैः	-10.1342
▁अहो	-10.1344
▁विस्तार	-10.1348
▁हृष्ट	-10.1349
▁निर्मिताः	-10.1349
▁स्प	-10.135
▁आरभत	-10.1352
▁कोश	-10.1355
?"""	-10.136
▁प्रयच्छ	-10.1366
द्भिः	-10.1367
न्ये	-10.1368
ख्	-10.1368
▁वक्तुं	-10.137
▁चिनोमि	-10.1375
पदं	-10.1376
▁द्रौपदी	-10.1379
▁साहाय्य	-10.1379
▁जनगणनानुसारं	-10.1381
▁निर्वाचन	-10.1383
▁ग्रन्थ	-10.1383
▁कृष्णः	-10.1387
बलं	-10.1387
▁slash	-10.1391
क्स	-10.1393
▁गोविन्द	-10.1396
ोऽब्रवीत्	-10.1398
▁स्वस्ति	-10.1401
▁तत्त्व	-10.1403
▁रावणः	-10.1404
निभ	-10.1406
न्द्र	-10.1413
▁दूरदर्शन	-10.1415
सम्पन्न	-10.1417
किङ्ग्	-10.1419
ष्	-10.1421
रिङ्ग्	-10.1427
ेषां	-10.1429
▁सौभद्र	-10.1431
पुरस्कारं	-10.1432
▁आक्रमण	-10.1433
भारतीय	-10.1434
▁नन्द	-10.1436
▁कालं	-10.1438
▁कर्णं	-10.1445
▁सम्भावना	-10.1447
बै	-10.1447
▁कर्णस्य	-10.1449
▁प्रसिद्धा	-10.1459
▁गीतानि	-10.146
▁कियत्	-10.1462
वायु	-10.1468
िंग्	-10.1475
▁प्रतिदिन	-10.1482
▁इत्यनयोः	-10.1485
▁प्रज्ञा	-10.1486
कार्ड्	-10.149
▁धनम्	-10.1494
▁करिष्यामि	-10.1496
▁अवशिष्ट	-10.1496
मृत	-10.1497
▁प्रसिद्ध	-10.1498
ानिव	-10.1499
▁व्रत	-10.1509
दूर	-10.151
ुम्	-10.151
▁श्लोक	-10.1514
ार्ह	-10.1531
ततः	-10.1531
▁आरक्षक	-10.1531
▁अन्यः	-10.1534
परा	-10.1534
▁आरम्भः	-10.1535
▁सदृश	-10.1535
▁पृथिव्या	-10.1536
▁निद्रा	-10.1539
▁भरतश्रेष्ठ	-10.1541
▁पुरुषाः	-10.1542
▁संशय	-10.1544
▁रचित	-10.1544
▁चिनोतु	-10.1546
▁यस्मात्	-10.1547
▁रावणस्य	-10.1549
▁धर्मे	-10.155
▁इङ्ग्लेण्ड्	-10.1553
▁नागा	-10.1555
▁छ	-10.1558
र्ह	-10.1558
▁क्रिकेट्	-10.1566
रक्त	-10.1569
▁सुकृत	-10.157
▁उपाधि	-10.1571
▁मूढ	-10.1571
राव	-10.1572
▁शक्य	-10.1573
र्म	-10.1574
वन्त	-10.1582
▁परिवर्तन	-10.1582
कानि	-10.1583
▁युव	-10.1589
पतिः	-10.1592
क्षण	-10.1593
▁मृताः	-10.1593
कर्तुं	-10.1593
द्विज	-10.1595
▁परिवर्तयितुं	-10.1597
स्यापि	-10.1598
▁पुरस्कृत्य	-10.1598
कृत्	-10.1604
▁तमात्	-10.1606
स्टा	-10.1607
▁आदित्य	-10.1608
▁कुत्र	-10.1609
▁भेद	-10.1613
नाम्ना	-10.1616
यानानि	-10.1621
न्व	-10.1623
▁ट	-10.1623
वानर	-10.1625
▁रम्य	-10.1634
ेरन्	-10.1638
र्ण	-10.1642
व्यवस्थायाः	-10.1649
ोपम	-10.1655
इदं	-10.1655
▁जु	-10.1658
द्र	-10.1659
▁उपयुक्त	-10.1661
रण्य	-10.1663
ुक	-10.1666
▁षष्ठ	-10.1667
▁बङ्गाल	-10.1668
ण्डा	-10.1668
▁भ्रातृ	-10.1669
▁मुघल्	-10.1673
▁सारथि	-10.1677
▁दुर्योधनो	-10.1677
▁प्रकारः	-10.1686
▁बाक्स्	-10.1696
रव	-10.1697
नात्	-10.1698
सिंह	-10.1701
गुप्त	-10.1701
▁तल	-10.1704
जित	-10.1708
▁स्टेट्मेण्ट्	-10.1709
▁सैनिकाः	-10.1711
युक्तानि	-10.1711
▁भुज	-10.1715
▁गृह्य	-10.1715
▁सलिल	-10.1719
C	-10.172
▁निमेष	-10.172
▁इत्येवं	-10.1724
▁एफ़्	-10.1725
▁परित्यज्य	-10.1725
▁क्षय	-10.1726
नाश	-10.1727
▁ततस्तु	-10.1733
धो	-10.1737
क्रीडाः	-10.1738
▁याच	-10.1741
शिला	-10.1744
सः	-10.1745
▁त्यज	-10.1753
▁पृच्छ	-10.1758
▁कुशल	-10.1759
▁दत्ता	-10.1763
▁तूर्णं	-10.1765
्ये	-10.1768
▁पार्थो	-10.1772
▁2.	-10.1776
▁धीमतः	-10.1777
▁पात्र	-10.1784
▁गि	-10.1786
विचार	-10.1788
विशेष	-10.1794
द्वीप	-10.1794
िष	-10.1795
शस्त्र	-10.1796
युग	-10.1798
पश्चात्	-10.1799
▁भविष्य	-10.1804
ज्य	-10.1816
ुद	-10.1817
बोध	-10.182
दीप	-10.1821
▁स्थापयितुं	-10.1822
्यु	-10.1824
▁कश्चिद	-10.1825
▁युग	-10.1825
ास्त्र	-10.1829
▁महादेव	-10.183
▁कम्प	-10.1832
▁भवद्भ्यः	-10.1835
▁श्वसन	-10.1848
ीकरणं	-10.185
▁वीरः	-10.1851
▁मूलतः	-10.1852
▁लवण	-10.186
▁शोध	-10.1861
▁सर्वोच्च	-10.1862
re	-10.1866
▁क्रो	-10.1869
दुःख	-10.1869
▁शिरो	-10.187
वेल्	-10.1873
दो	-10.1874
ादाय	-10.1875
▁अन्वेष्टुं	-10.1878
प्रहार	-10.1886
▁जालपुट	-10.1895
▁ग्रहीतुं	-10.1895
▁सिद्धि	-10.1896
▁मासे	-10.1901
▁सत्र	-10.1903
▁चर्च्	-10.1903
तृ	-10.1905
ङ्गा	-10.1907
▁रात्रि	-10.1908
▁स्पष्ट	-10.1909
▁उन्नत	-10.1913
जन्	-10.1917
▁भवन	-10.1919
▁हृदयं	-10.192
▁भवती	-10.1921
▁पाण्डु	-10.1921
▁पर्व	-10.1922
▁दत्तांश	-10.1923
▁स्वं	-10.1925
▁वर्धमान	-10.1926
ाहार	-10.193
▁फलितं	-10.1931
▁ऊर्ध्व	-10.1933
▁जावा	-10.1936
▁कल्याण	-10.1936
▁उद्यम	-10.1938
▁प्रत्येकस्य	-10.1942
▁उत्सव	-10.1946
▁प्रासाद	-10.1948
▁अन्न	-10.1949
▁एशिया	-10.1951
माहवे	-10.1951
ज़ी	-10.1951
म्प्	-10.1956
▁क्रीडकः	-10.1957
रान्	-10.1957
▁गच्छन्तु	-10.196
▁उदाहरणार्थं	-10.1965
▁समूहः	-10.1967
िकया	-10.1968
▁आश्रय	-10.1972
▁द्वितीयः	-10.1986
▁ख्रीष्ट	-10.1989
राक्षस	-10.1992
▁१९६०	-10.1995
धु	-10.1996
माल	-10.1998
▁शाखा	-10.1998
▁इच्छन्ति	-10.1999
मिवा	-10.1999
▁कुरुनन्दन	-10.2
▁यत्किमपि	-10.2003
▁बृहत्तमं	-10.2011
त्रा	-10.2011
ास्मि	-10.2013
गति	-10.2019
रोगस्य	-10.2021
▁प्रयास	-10.2032
निव	-10.2036
तन	-10.2038
त्येव	-10.2039
पोर्ट्	-10.2044
सीमा	-10.2045
▁व्यक्तिगत	-10.2045
O	-10.2047
सिया	-10.2051
▁आवश्यकं	-10.2054
▁समाप्त	-10.2054
▁दिवि	-10.2054
▁कथम्	-10.2055
मन्दिरं	-10.2056
▁कथितवान्	-10.2057
पूर्वं	-10.206
जान	-10.2061
▁विधान	-10.2062
▁द्विजोत्तम	-10.2063
▁समुप	-10.2068
त्या	-10.2069
▁गे	-10.2071
थो	-10.2085
▁आदौ	-10.2086
यद्	-10.2089
▁यस्तु	-10.2093
▁प्राग्	-10.2095
▁मांस	-10.2099
ैतद्	-10.2102
बार्	-10.2102
▁क्लेश	-10.2103
▁चान्ये	-10.211
▁खलु	-10.2112
ाभरण	-10.2113
▁प्रगृह्य	-10.2114
▁उत्तरदिशि	-10.2116
देशेषु	-10.2116
▁शाश्वत	-10.2124
▁विश्वे	-10.2131
नू	-10.2136
▁विण्डोस्	-10.214
▁अप्	-10.2142
प्स	-10.2142
▁नृपः	-10.2143
जर्	-10.2148
▁यावद्	-10.2151
▁ऽ	-10.2151
दृष्ट	-10.2153
▁वीडियो	-10.2154
▁देवता	-10.2164
स्थानानि	-10.2166
टिङ्ग्	-10.2168
▁अवाप्नोत्	-10.2169
िर	-10.217
धे	-10.2179
क्रोध	-10.2181
▁चत्वारि	-10.2181
▁Ctrl	-10.2182
▁देवानां	-10.2186
▁केन्द्र	-10.2189
यथा	-10.2191
▁देवि	-10.2193
▁समयं	-10.2193
▁मातृ	-10.2197
फ़ा	-10.2197
यिष्यामि	-10.2198
शिया	-10.22
▁प्रसिद्धम्	-10.2201
प्रयोग	-10.2202
▁विभाग	-10.2203
▁शिरः	-10.2204
विज्ञान	-10.2207
मित्य	-10.2207
▁वरम्	-10.2213
▁तृण	-10.2214
▁विवरणानि	-10.2216
तस्य	-10.2216
▁पार्	-10.2218
र्ध	-10.2218
▁शरणं	-10.222
▁दानं	-10.2222
रङ्ग	-10.2224
▁२९	-10.2227
hyphen	-10.2228
परे	-10.2228
▁श्रेय	-10.2228
▁प्रवहति	-10.223
▁नक्षत्र	-10.2236
▁Save	-10.2236
▁महातपाः	-10.2237
स्तरे	-10.2238
▁नात्र	-10.224
लम्	-10.2242
▁कर्णः	-10.2244
स्वरूप	-10.2244
▁निम्न	-10.2245
▁देवः	-10.2245
ीया	-10.2246
▁पुत्री	-10.2251
▁देवराज	-10.2258
▁सेण्ट्	-10.2271
र्षभ	-10.2271
▁अर्	-10.2273
▁फ़ि	-10.2275
▁विमल	-10.2278
▁दि	-10.2279
ेन्द्रिय	-10.228
दलं	-10.2286
org	-10.2286
▁वृत्र	-10.2289
▁नरक	-10.2291
▁महात्मानं	-10.2291
▁चतुर्थ	-10.2291
▁कर्माणि	-10.2291
▁फ़्रेञ्च्	-10.2293
▁आकाश	-10.2294
▁गाण्डीव	-10.2296
▁दिशो	-10.2305
▁गतवान्	-10.2305
▁अध्ययन	-10.2308
ाण	-10.2312
▁विषयान्	-10.2312
▁खाद्य	-10.2313
विक्रम	-10.2314
▁भर्तार	-10.2315
▁निकट	-10.2319
▁समीपं	-10.232
▁शक्त	-10.2321
▁वैद्य	-10.2322
▁भागेषु	-10.2322
▁योजन	-10.2322
▁यथ	-10.2323
कार्यं	-10.2324
▁भ्रातृभिः	-10.2324
लम्ब	-10.2328
त्रि	-10.2333
▁प्रेक्ष्य	-10.2336
▁भूयो	-10.2338
मुवाच	-10.2341
शे	-10.2341
▁प्राणान्	-10.2346
द्वार	-10.2347
▁दुर्लभ	-10.2348
ावुभौ	-10.2351
▁निवसति	-10.2354
▁1.	-10.2355
पेक्ष	-10.2355
▁महाराष्ट्र	-10.2356
▁कोपि	-10.2356
करण	-10.2356
▁तैल	-10.2357
▁प्रवर्तते	-10.2359
▁क्षुद्र	-10.2365
वय	-10.2366
▁घन	-10.2366
▁भाषा	-10.2369
▁भीष्मः	-10.2372
▁विगत	-10.2374
भिन्न	-10.2388
▁अग्र	-10.2388
▁कर्तव्यं	-10.2395
▁नृपति	-10.2395
▁कम्पेनी	-10.2396
▁नाद	-10.2398
▁लक्षणानि	-10.2402
▁उद्योग	-10.2403
प्रमाण	-10.2406
▁त्रैलोक्य	-10.2407
▁नौका	-10.2408
▁चिक्रीड	-10.2408
▁इवा	-10.241
सङ्घस्य	-10.2414
जनानाम्	-10.2417
▁एतद	-10.2418
हाकी	-10.2421
▁क्षेत्रेषु	-10.2422
▁झ	-10.2426
▁प्रदर्शनं	-10.2427
परिमाण	-10.2427
▁प्राज्ञ	-10.2427
शोक	-10.2427
▁आगत	-10.2427
▁मज्ज	-10.2436
वेश	-10.2439
प्रमुख	-10.2441
योर्	-10.2441
दन्त	-10.2442
र्षि	-10.2443
१२	-10.2443
२५	-10.2447
▁स्वातन्त्र्य	-10.2457
▁स्क	-10.246
रिस्	-10.2463
▁षड्	-10.2466
क्रीड	-10.2467
ुत्	-10.2472
श्चाप्य	-10.2474
▁अध	-10.2475
▁पर्यन्तम्	-10.2477
▁Linux	-10.2478
▁साधन	-10.2479
ीयं	-10.2482
▁भीमः	-10.2483
लब्ध	-10.2485
ँ	-10.2485
▁फ़े	-10.2488
विश्व	-10.2491
▁’	-10.2492
▁हतः	-10.2494
▁विमुक्त	-10.2494
▁इमानि	-10.2494
▁कार्यालय	-10.25
▁सफल	-10.2501
तन्त्र	-10.2505
१५	-10.2515
▁ब्र	-10.2516
▁फ़्रान्स्	-10.2516
▁आपण	-10.2518
7	-10.2527
▁यान	-10.2529
▁रक्षितुं	-10.2534
▁उक्तवान्	-10.2537
द्वितीय	-10.2537
▁कुर्वन्तः	-10.254
▁10	-10.254
▁उपहार	-10.2547
▁फाल्गुन	-10.2548
सेल्	-10.2552
▁निवास	-10.2552
▁समीक्ष्य	-10.256
▁याः	-10.2563
ष्ण	-10.2565
▁शीर्ष	-10.2565
ऽहं	-10.2568
र्व	-10.2568
ण्डी	-10.257
▁योजित	-10.257
चन्द्र	-10.2576
▁निर्देश	-10.2576
गता	-10.2577
▁रङ्ग	-10.2578
▁विराम	-10.2579
सेन्	-10.2579
▁परिमित	-10.2586
िष्यसि	-10.2587
▁१९९६	-10.2591
▁रखें	-10.2592
▁चतुर्दश	-10.2592
▁दया	-10.2599
▁याति	-10.2602
▁एकमात्र	-10.2606
जीवन	-10.2612
▁कृच्छ्र	-10.2613
िन	-10.2614
▁विपरीत	-10.2616
▁कुञ्जर	-10.2618
▁दुर्धर्ष	-10.262
ैस्तथा	-10.2623
▁यया	-10.2624
▁नियुक्तः	-10.2624
▁ज्या	-10.263
यम	-10.2631
फा	-10.2632
▁सदस्याः	-10.2633
▁विदुः	-10.2633
ग्रन्थ	-10.2635
▁जातु	-10.2637
▁शूद्र	-10.2637
टेन्	-10.2641
▁दैवत	-10.2644
प्रतियोगिता	-10.2649
▁तच्छ्रुत्वा	-10.2653
▁पीडित	-10.2657
▁विद्रोह	-10.2658
▁क्रीडाः	-10.2664
▁अधस्तन	-10.2664
▁व्यायाम	-10.2666
न्निव	-10.2667
ीव	-10.2673
िति	-10.2674
▁वस	-10.2678
▁क्षण	-10.2685
ब्रवीत्	-10.2685
▁वचो	-10.2689
▁संवृत	-10.2689
▁केरळ	-10.269
▁करणीयम्	-10.2691
वचः	-10.2692
▁इदम	-10.2692
▁मारुत	-10.2695
▁टै	-10.2696
▁ध्रुव	-10.2696
▁शील	-10.2697
र्ड्	-10.2699
भारतस्य	-10.2704
▁वीरो	-10.2705
▁नाति	-10.2708
मासपर्यन्तं	-10.2717
▁तपः	-10.2719
ीकृत्य	-10.2719
▁उत्तमः	-10.2721
न्या	-10.2722
▁बभूवुः	-10.2724
▁३१	-10.2724
▁महत्त्वपूर्णं	-10.2726
मप्य	-10.2731
▁सेन्	-10.2733
▁ब्रे	-10.2734
▁अन्तर्	-10.2734
रौ	-10.2737
▁नराः	-10.2743
▁पश्यत	-10.2745
▁वैरस्	-10.2746
▁निवर्त	-10.2746
दुर्ग	-10.2747
क्रान्त	-10.2747
▁वर्षाणा	-10.2747
ेन्	-10.2757
शासक	-10.276
भ्यो	-10.2761
कल्	-10.2775
▁टा	-10.2776
▁बृहस्पति	-10.2777
▁शीतल	-10.2786
मिन्द्र	-10.279
कालं	-10.2796
ोपरि	-10.2797
▁वाम	-10.28
प्लुत	-10.2807
र्वा	-10.2808
ण्डे	-10.2809
निवेश	-10.2812
▁कर्	-10.2814
▁चेति	-10.2815
▁जीवति	-10.2817
वादी	-10.2818
▁ग्रह	-10.2819
▁गुहा	-10.2821
▁वाद	-10.2822
▁वरुण	-10.2826
▁पुत्रेण	-10.2828
▁पुत्रा	-10.2838
ध्या	-10.284
विभाग	-10.284
▁जनेषु	-10.284
है	-10.2842
इण्डिया	-10.2845
▁जित्वा	-10.2847
▁भवेद्	-10.2849
▁युष्मा	-10.2852
▁भ्रम	-10.2852
भूता	-10.2854
ागम	-10.2854
▁ओडिशा	-10.2856
▁संस्थया	-10.2858
▁क्रियमाण	-10.2858
▁चरण	-10.2861
▁शासनकाले	-10.2861
ाम्य	-10.2862
यानस्य	-10.2863
▁बालिका	-10.2865
▁महाबलम्	-10.2865
ांस्तथा	-10.287
▁महाबल	-10.2876
▁विज्ञाय	-10.2876
▁समीप	-10.2876
समूह	-10.2878
माह	-10.2879
▁सर्वतो	-10.2885
▁भृश	-10.2886
रक्षण	-10.2889
द्वय	-10.2889
▁गतिम्	-10.2891
विषय	-10.2893
दास	-10.2896
▁सुप्त	-10.2902
▁सुखम्	-10.2903
गल्	-10.2905
▁क्रीड्यते	-10.2906
▁इत्ययम्	-10.2906
▁भोज	-10.2907
सहाय	-10.2908
पत्रं	-10.2909
▁नामानि	-10.2909
▁प्रवास	-10.2911
▁हीन	-10.2911
▁वदामि	-10.2912
▁अन्ततः	-10.2915
▁ग्राहक	-10.2916
▁कान्	-10.2919
▁दुर्ग	-10.292
दिति	-10.2931
▁तासा	-10.2936
▁हित्वा	-10.2937
ोऽभि	-10.2937
▁साथ	-10.2939
▁वेब्	-10.2939
▁वर्ध	-10.294
▁निर्मितानि	-10.295
▁सृष्ट	-10.2951
▁दिव	-10.2956
मन्व	-10.2961
शेष	-10.2961
▁मार्कण्डेय	-10.2966
▁निवारयितुं	-10.2968
▁शृङ्ग	-10.2969
▁दे	-10.297
स्त्वां	-10.2972
▁सर्वान	-10.2975
▁सहिता	-10.2983
▁ज्ञातवन्तः	-10.2987
्यतां	-10.2991
प्प	-10.2993
▁तन्न	-10.2995
A	-10.2995
▁0	-10.2996
▁इत्येतौ	-10.3003
▁आन्	-10.3003
बुद्ध	-10.3005
ादिव	-10.3011
सन	-10.3011
▁सङ्केत	-10.3011
ानन्द	-10.3013
▁महाबलाः	-10.3016
▁यस्या	-10.3016
▁भोग	-10.3017
▁पितामहः	-10.3018
वस्तु	-10.3022
▁उभयो	-10.3024
ीयाः	-10.3026
काय	-10.3028
यन्ते	-10.3037
▁पतन	-10.3038
▁स्थिते	-10.3039
▁त्वा	-10.304
▁एतान्	-10.3044
▁विकसित	-10.3045
▁संवत्सर	-10.3045
▁स्वायत्त	-10.3046
जं	-10.3049
▁भगवान	-10.305
▁यथार्थ	-10.3052
▁इत्यादि	-10.3055
▁परे	-10.3056
कै	-10.3057
▁जनार्दन	-10.3064
▁डब्ल्यू	-10.3065
▁पाकिस्तान्	-10.3066
▁सर्	-10.3067
विशेषः	-10.3069
▁गुजरात्	-10.3071
▁नाम्नः	-10.3077
▁स्पर्ध	-10.3078
▁लेखन	-10.308
▁सब्	-10.308
▁पृष्ठतः	-10.3087
▁पाण्डवैः	-10.309
▁ऐकान्	-10.3094
▁अभ्यनयत्	-10.3095
▁कुरूणां	-10.3095
▁इदानीम्	-10.3096
▁अवधान	-10.3097
तिष्ठत	-10.3098
शृङ्ग	-10.3103
▁मत्	-10.3103
▁मद्रराज	-10.3108
फील्ड्	-10.311
र्जन	-10.311
▁विक्रय	-10.3116
▁कुले	-10.312
ैर्वि	-10.312
▁व्यापक	-10.312
▁आर	-10.312
▁समयः	-10.3121
कारि	-10.3125
▁पार्थः	-10.3126
टर	-10.3133
क्रीडक	-10.3133
च्युत	-10.3136
▁लू	-10.3138
▁राक्षसा	-10.3149
▁यत्न	-10.3151
▁रावणो	-10.3153
▁प्रेषयामास	-10.3155
▁आरोप	-10.3163
▁दा	-10.3164
▁सम्भवतः	-10.3168
▁धनुर्	-10.3168
▁जले	-10.3171
▁कुतो	-10.3173
▁enter	-10.3179
▁बलि	-10.3179
▁फ़ुट्बाल्	-10.318
▁धीर	-10.3186
▁प्रेत्य	-10.3186
▁प्रेरित	-10.3188
▁प्रमुखाः	-10.3189
▁परुष	-10.3197
▁पीत	-10.32
▁इत्याख्यः	-10.3202
फी	-10.3204
ेष्ट	-10.3208
चाप	-10.321
▁वर्णन	-10.3212
पते	-10.3213
दर	-10.3215
▁मस्तिष्क	-10.3221
वारं	-10.3223
▁१९९२	-10.3226
▁लिखन्तु	-10.3226
र्ट्	-10.3226
▁१९९५	-10.3226
रोध	-10.3227
▁एता	-10.3229
▁जलस्य	-10.323
▁आल्बम्	-10.3231
▁संसार	-10.3236
▁File	-10.3238
योग्य	-10.3239
▁ब्रवीमि	-10.3241
भ्रा	-10.3241
▁पठ	-10.3244
मानुष	-10.3252
दृष्ट्या	-10.3255
▁निबोध	-10.3268
▁ब्ल	-10.3269
▁पराक्रम	-10.3275
स्मान्	-10.3279
▁इस	-10.328
▁महिलाः	-10.3285
विधान	-10.329
▁सिंहनाद	-10.3292
▁निर्णय	-10.3294
मनो	-10.3299
परम्परा	-10.3299
▁द्रोणो	-10.3299
▁दर्शनं	-10.33
तप	-10.3301
▁file	-10.3302
▁विषम	-10.3305
रोगः	-10.3314
ion	-10.3315
▁उपायः	-10.3315
अहं	-10.3317
▁युधिष्ठिरम्	-10.3318
शुभ	-10.332
▁बलवान्	-10.3333
▁कथित	-10.3335
▁पश्यन्	-10.3337
▁गान्धी	-10.334
पै	-10.3342
ीति	-10.3346
▁नेतृत्वे	-10.3349
पीड	-10.3349
▁भ्रातरं	-10.3351
▁श्रिय	-10.3352
▁बहुभिः	-10.3357
▁अन्तर्भवति	-10.336
▁नवम्बर्	-10.336
▁सनातनः	-10.3366
▁कालः	-10.3368
च्याम्पियन्शिप्	-10.3369
▁स्मर	-10.3371
▁स्थातुं	-10.3373
चिन्	-10.3378
▁स्थानम्	-10.3379
चिह्न	-10.3382
स्टे	-10.3383
िर्	-10.3384
िष्य	-10.3391
▁अली	-10.3391
▁भागम्	-10.3399
▁मनुज	-10.34
▁सुरक्षा	-10.3405
ात्र	-10.3408
▁वर्षेभ्यः	-10.341
पन	-10.3411
विन्यास	-10.3412
डल्	-10.3412
▁श्रुतम्	-10.3413
▁ताल	-10.3417
मत्र	-10.3418
भी	-10.3424
▁युक्ता	-10.3424
▁श्रूयते	-10.3424
▁चालयति	-10.3428
▁प्रचलति	-10.3429
▁बुद्ध	-10.3429
र्यथा	-10.3432
डेन्	-10.3435
क्षित	-10.3435
▁आक्रमणं	-10.3437
स्टेट्	-10.3437
▁पूजा	-10.3439
वासिनः	-10.344
कर्ता	-10.344
▁जनैः	-10.344
▁चाप	-10.3442
▁टु	-10.3446
▁आन	-10.3446
▁बहुविध	-10.3448
मेन्	-10.3448
ैषा	-10.3448
▁Add	-10.3448
▁भिन्नाः	-10.3449
़	-10.3452
व्रज	-10.3453
▁सात्वत	-10.3455
▁नरर्षभ	-10.3455
पत	-10.3458
▁स्वीकृत	-10.3465
▁चित्रे	-10.347
ेते	-10.3472
▁इत्येव	-10.3474
ाज्ञा	-10.3478
▁इण्डिया	-10.3479
▁लक्षण	-10.3482
▁एतां	-10.3484
▁था	-10.3484
▁फ़्र	-10.3486
्यन्त	-10.3487
▁निहत्य	-10.3488
म्य	-10.3489
▁पर्	-10.3489
▁महारथम्	-10.349
११	-10.3492
▁उभौ	-10.3492
▁पूर	-10.3493
कृता	-10.3494
▁आवा	-10.3495
यल्	-10.3497
ावृत	-10.3499
वादि	-10.3499
▁for	-10.3503
▁चित्त	-10.3505
गच्छति	-10.3507
▁Ubuntu	-10.3509
ून्	-10.351
ाधिक	-10.3511
पत्नी	-10.3515
▁औट्	-10.3515
स्पर्धा	-10.3517
▁शक्तिं	-10.3517
▁अमी	-10.3518
▁यादृश	-10.3521
▁बृहत्तर	-10.3522
▁अण्ड्	-10.3522
▁माध्य	-10.3523
ेत्य	-10.3525
▁मर्	-10.3528
▁परिचय	-10.3531
ाल	-10.3533
▁छात्राः	-10.3534
गृह्ण	-10.3537
ोऽयम	-10.3539
▁हु	-10.3541
▁विध	-10.3542
▁महिलानां	-10.3544
▁मध्यस्थ	-10.3545
h	-10.3547
▁मनसि	-10.3547
कार्याणि	-10.3549
▁एच्	-10.355
▁ऊचुः	-10.3559
▁इत्येतेषाम्	-10.3559
▁कदाचन	-10.3559
▁छिन्न	-10.3561
▁मातर	-10.3562
▁सर्वम	-10.3569
ल्ला	-10.3569
▁रू	-10.3572
जः	-10.3573
▁प्रारम्भे	-10.3574
▁महर्षि	-10.3577
कूट	-10.3577
▁असफल	-10.3577
कालिक	-10.3578
▁सदृशं	-10.358
स्तां	-10.3582
▁आचार्य	-10.3586
कानां	-10.3593
पुरस्कार	-10.3593
▁वनवास	-10.3594
▁पुरातनम्	-10.36
ार्त	-10.3601
▁शिखण्डिन	-10.3602
▁नृशंस	-10.3602
▁3.	-10.3608
तीर्थ	-10.3608
१६	-10.3614
▁स्थानानि	-10.3617
क्षत	-10.3625
▁क्रेतुं	-10.3627
ोत्सव	-10.3629
रियन्	-10.3629
▁एवमुक्तस्तु	-10.363
▁सावधान	-10.3634
▁राज्ञां	-10.3634
प्राण	-10.3636
▁शब्दः	-10.3639
पत्राणि	-10.364
▁भवामि	-10.3641
▁फलानि	-10.3644
▁यथाविधि	-10.3647
एक	-10.3647
▁युध्यमान	-10.365
▁व्यसन	-10.365
सिङ्ग्	-10.3656
▁बहूना	-10.3657
ीभूत	-10.3657
▁कुश	-10.3657
▁कीट	-10.3659
▁शिबिर	-10.3664
िणी	-10.3665
▁जानन्ति	-10.3669
▁ताम	-10.367
▁दुम	-10.3675
▁शतश	-10.3677
यदि	-10.3679
परिवार	-10.3681
▁4	-10.3682
▁विविधाः	-10.3683
▁वन्य	-10.3684
▁अन्तर्जाल	-10.3686
चर्	-10.3692
▁पितुर्	-10.3693
▁एतस्मिन्	-10.3693
क्ष्व	-10.3696
तुल्य	-10.3697
▁वार्ष्णेय	-10.37
▁सुतः	-10.3704
श्चित्र	-10.3705
▁अनुसारं	-10.3708
▁स्वीकृत्य	-10.3716
▁सर्वकारीय	-10.3717
▁भण्डार	-10.3723
I	-10.3728
▁लिए	-10.373
▁निष्कासन	-10.3731
▁क्रीडक	-10.3733
ार्य	-10.3734
३०	-10.3737
ीत	-10.3742
वेष	-10.3744
▁कर्ता	-10.3745
वानस्मि	-10.3746
▁पित्रा	-10.375
▁स्वच्छ	-10.375
▁ग्रे	-10.3751
वर्धन	-10.3752
▁R	-10.3752
ाख्यान	-10.3754
▁६०	-10.3757
▁अर	-10.3764
▁स्थूल	-10.3765
▁व्यक्त	-10.3767
▁निमित्त	-10.3767
▁स्टाक्	-10.3768
▁सम्यग्	-10.3773
नेक	-10.3778
▁विशेषतया	-10.3779
▁तमवर्षात्	-10.3779
▁वर्त	-10.378
▁सैनिक	-10.3783
६०	-10.3785
▁विनि	-10.3787
रूपा	-10.3793
▁गमिष्यामि	-10.3793
स्प	-10.3794
▁गतिं	-10.3794
▁मार्गे	-10.3798
थी	-10.3801
▁बहि	-10.3801
मौ	-10.3802
वचन	-10.3803
रेन्	-10.3806
▁भर्ता	-10.3808
ोपमम्	-10.381
▁साक्ष्य	-10.381
▁निश्चय	-10.3812
▁दृष्टा	-10.3817
▁शताब्द	-10.3832
▁चेद	-10.3834
मनुत्तमम्	-10.3835
ानुज	-10.3836
▁औ	-10.3837
▁पार्श्व	-10.3838
्त	-10.384
▁प्राप्तवती	-10.384
▁दरिद्र	-10.384
▁दर्शय	-10.3842
▁पाणि	-10.3843
▁h	-10.3844
▁ययाति	-10.3847
स्क्	-10.3847
▁सर्वैः	-10.3849
टिक	-10.3852
▁शंस	-10.3852
▁इत्येतेभ्यः	-10.3854
▁कन्स्ट्रक्टर्	-10.3854
ट्ट	-10.3857
▁श्रिया	-10.3858
रीत्या	-10.3859
▁प्रार्थना	-10.3866
▁रिपु	-10.3868
▁हतो	-10.3871
▁5	-10.3872
▁द्रोणपुत्र	-10.3873
▁शयान	-10.3873
▁स्थानेषु	-10.3876
▁देवं	-10.3876
मिमां	-10.3877
▁m	-10.3879
▁जर्मनी	-10.388
▁पुट	-10.3883
िल्	-10.3889
▁हर्	-10.3892
पश्य	-10.3895
१८	-10.3902
▁शक्या	-10.3905
समुदाय	-10.3907
सर्प	-10.3907
▁स्वर्ण	-10.3907
▁दलं	-10.3909
लेण्ड्	-10.391
▁हृत	-10.3915
▁प्रोवाच	-10.3918
▁ध्वनि	-10.3921
▁विषयं	-10.3921
▁पीडिताः	-10.3922
▁पुरुषाणां	-10.3922
▁सम्बद्ध	-10.3924
हन	-10.3933
▁ब्राह्मणो	-10.3935
यमान	-10.3937
▁भवेत	-10.3937
▁राक्षसाः	-10.3937
▁चतुरङ्ग	-10.3937
▁मय	-10.394
▁रक्षणं	-10.3942
▁निर्वाचितः	-10.3942
▁is	-10.3943
पर्यन्तम्	-10.3946
नै	-10.3949
▁कनिष्ठ	-10.3952
विजय	-10.3952
द्रव	-10.3953
द्व	-10.3955
▁स्याद	-10.3955
▁वितरण	-10.3955
▁फ़ैल्	-10.3962
फ़र्	-10.3962
▁प्रभावः	-10.3969
स्तद	-10.3969
कौ	-10.3971
at	-10.3971
▁बुध	-10.3973
▁विविदे	-10.3974
▁अददात्	-10.3975
▁इलिनोय्	-10.3976
▁शक्नुयात्	-10.3977
यात्रा	-10.3977
▁उपलभ्यते	-10.3977
▁उपलब्ध	-10.3978
v	-10.398
▁शोच	-10.398
केन	-10.3984
▁Tutorial	-10.3985
▁उद्घाटन	-10.3988
अपि	-10.3989
मूल्यं	-10.399
▁भद्र	-10.3993
▁तारा	-10.3993
शाला	-10.3994
▁चित्राणि	-10.3995
▁पौत्र	-10.3995
निश्चय	-10.3996
▁वश	-10.3998
▁पार्थिवः	-10.4001
▁वसुधा	-10.4008
यामः	-10.4011
▁स्पर्श	-10.4011
▁इतीमे	-10.4012
ात्मना	-10.4012
▁रथिना	-10.4014
गुरु	-10.4016
▁अपा	-10.4016
▁हता	-10.4032
विद्यालय	-10.4034
▁अध्ययनं	-10.4035
▁सेनां	-10.4036
▁पङ्क्ति	-10.4039
▁तिष्ठन्ति	-10.4041
नार्थं	-10.4044
▁सरस्वती	-10.4045
▁कुम्भकर्ण	-10.4046
▁प्रयुक्त	-10.4046
▁तै	-10.4046
र्च	-10.4047
▁नुदामि	-10.4052
▁अजयत्	-10.4053
विक्	-10.4054
▁जीवनस्य	-10.4062
▁उपस्थित	-10.4063
संघ	-10.4067
...	-10.4067
सङ्केत	-10.4068
स्मासु	-10.407
▁सिन्धु	-10.407
▁फे	-10.4071
▁व्यप	-10.4071
▁कूप	-10.4073
▁स्टार्	-10.4073
▁शासनं	-10.4084
▁शो	-10.4085
जनान्	-10.4086
पाप	-10.4091
▁हास्य	-10.4093
▁नारी	-10.4093
▁बहुशः	-10.4094
पर्य	-10.4097
सङ्ग	-10.4098
▁दुष्कर	-10.4103
▁टर्मिनल्	-10.4104
आफ्	-10.4105
()	-10.4107
▁पुनश्च	-10.4108
▁सहितो	-10.411
क्राम	-10.4113
क्षमता	-10.4114
▁आरेभे	-10.4116
▁आन्लैन्	-10.4117
सल्	-10.4118
▁उचित	-10.4119
शिष्य	-10.4119
▁तमेव	-10.4119
▁प्रयत्न	-10.412
▁दक्षिणदिशि	-10.412
▁एकवारं	-10.4121
▁स्वधर्म	-10.4121
युः	-10.4122
▁शिल्प	-10.4122
▁उदाहरण	-10.4124
देशयोः	-10.4124
▁जेतु	-10.4126
शार्दूल	-10.4131
▁सन्धि	-10.4132
▁टेब्	-10.4132
डन्	-10.4138
▁प्रस्थित	-10.4138
▁राक्षसः	-10.414
स्मात्	-10.4141
▁आधार	-10.4141
अनन्तरं	-10.4142
▁स्मृतः	-10.4144
▁क्रमशः	-10.4151
▁संयोजित	-10.4151
▁कौसल्या	-10.4152
▁परमा	-10.4159
▁अस्त्र	-10.4159
वस्तूनि	-10.416
िक्	-10.416
▁नवीन	-10.4161
▁रवि	-10.4165
तार	-10.4165
निङ्ग्	-10.4165
▁मुनिः	-10.4166
धारण	-10.4173
9	-10.4174
यस्	-10.4176
१३	-10.4176
▁विवरणं	-10.4178
▁अन्यान्	-10.4179
त्रय	-10.4188
▁एकैक	-10.4188
णो	-10.4189
▁महान	-10.4189
▁गूगल्	-10.419
▁प्राप्नुयात्	-10.4192
मुत्सृज्य	-10.4193
▁यन्त्र	-10.4195
▁मेन्यू	-10.4196
▁शेते	-10.4198
▁कालस्य	-10.4202
▁प्राञ्जलि	-10.4203
▁भाति	-10.4205
ज़र्	-10.4209
दिवस	-10.4211
▁स्थापितः	-10.4212
जनक	-10.4213
▁कन्	-10.4213
संस्कृत	-10.4214
▁सुनिश्चित	-10.4214
रेल्	-10.4214
चलच्चित्रेषु	-10.4218
▁मद्	-10.422
रिन्	-10.4222
वृत्ति	-10.4224
परीक्षा	-10.4224
▁दशग्रीव	-10.4226
विद	-10.4228
▁द्रव	-10.4229
▁लोकप्रिया	-10.4232
▁वृषभ	-10.4232
जम्	-10.4235
ल्लोक	-10.4238
▁प्रस्तुत	-10.4239
▁रथेन	-10.424
▁जीवनं	-10.4241
▁व्रण	-10.4244
▁होली	-10.4246
▁कोर्स्	-10.4251
▁सम्पन्न	-10.4252
▁पाञ्चाल्य	-10.4255
6	-10.4255
▁दर्शितं	-10.4256
प्लव	-10.426
▁जर्मन्	-10.4261
▁विभक्त	-10.4262
तथा	-10.4263
५४	-10.4264
P	-10.4264
▁सेव	-10.4265
▁एकस्या	-10.4266
M	-10.4267
▁चेत	-10.4268
▁आश्रम	-10.4268
भूषण	-10.4269
प्रख्य	-10.427
▁शुक्र	-10.427
▁इच्छामि	-10.4271
▁प्रयतते	-10.4273
▁दृष्टवान्	-10.4275
▁निर्धारित	-10.4276
▁द्विप	-10.4279
गि	-10.4279
▁सम्मान	-10.4279
▁अतो	-10.428
▁एकदा	-10.4285
वन्ति	-10.4285
tutorial	-10.4286
▁अधिकः	-10.4287
ोद्	-10.429
चिकित्सा	-10.429
▁चैनं	-10.4293
▁अस्मात्	-10.4293
▁खड्ग	-10.4293
▁धनस्य	-10.4294
ेश्वरः	-10.4294
▁वृत्तिजीवन	-10.4295
▁वृद्धि	-10.4298
ेड्	-10.4299
प्रदेशं	-10.4303
पक्षः	-10.4304
नेट्	-10.4308
बाल	-10.4309
▁पाण्ड्य	-10.4309
ैतत्	-10.4316
देशेन	-10.4316
राणां	-10.4317
▁मन्	-10.432
िदं	-10.4321
▁ग्रीक्	-10.4323
▁विभीषण	-10.4327
द्धि	-10.4328
▁परिवर्तनानि	-10.4331
▁चत्वारः	-10.4331
▁सौबल	-10.4333
म्भ	-10.4334
▁१९४७	-10.4335
▁वेस्ट्	-10.4335
▁डच्	-10.4337
▁भवत्य	-10.4337
पार	-10.4342
▁तर	-10.4352
▁संयोग	-10.4353
▁स्थापित	-10.4353
▁शुक	-10.4353
अमेरिका	-10.4354
नित्य	-10.4354
वर्तते	-10.4361
▁ब्रेकेट्	-10.4363
▁शुचि	-10.4365
ित्	-10.4366
ीकरण	-10.437
▁अरे	-10.437
▁फील्ड्	-10.4372
णीय	-10.4372
R	-10.4372
▁स्वभाव	-10.4373
D	-10.4375
▁मृत्युः	-10.438
▁विज्ञान	-10.438
ेर्	-10.438
ितवन्तः	-10.4384
रत	-10.4385
बन्धन	-10.4386
▁कक्ष	-10.4396
▁प्राप्ते	-10.4397
मत्स्य	-10.4398
▁नाटक	-10.4398
▁पलायन	-10.4405
▁अनेकेषा	-10.4407
▁ड्रोप्	-10.4407
▁मन्यसे	-10.4408
▁दी	-10.4408
▁शत्रुघ्न	-10.4408
कर्म्म	-10.441
▁कल्पित	-10.4411
ैर्न	-10.4411
कारक	-10.4411
ीन्	-10.4416
▁शिष्ट	-10.4419
लेन्	-10.4422
▁काय	-10.4423
▁स्त्रिय	-10.4425
ूर्	-10.4427
▁देवो	-10.4428
▁यीशुः	-10.4431
▁व्याख्या	-10.4431
विन्	-10.4431
▁दान्त	-10.4433
क्षेप	-10.4435
▁भवान	-10.4437
विकास	-10.4438
▁सम्भव	-10.4439
▁गवर्नर्	-10.4441
▁विकल्पः	-10.4445
▁अभिलेख	-10.4446
▁वीरा	-10.4446
४०	-10.4455
▁अस्माक	-10.4455
▁कार	-10.4457
साध	-10.4459
▁शुभा	-10.4462
ोऽस्य	-10.4463
▁सिंहासन	-10.4468
▁भ्रातर	-10.4469
ष्म	-10.4471
योजन	-10.4472
स्पर्श	-10.4474
▁दृश्यमान	-10.4476
रचना	-10.4477
▁पुनरा	-10.448
▁परवीरहा	-10.4481
▁म्या	-10.4482
▁न्यूनीकर्तुं	-10.4482
▁आन्तरिक	-10.4482
मिच्छामि	-10.4484
▁निर्वहति	-10.4484
तुर	-10.4484
▁इत्येतेन	-10.4486
▁चोर	-10.4486
▁श्मशान	-10.4488
स्थानक	-10.4489
चित्त	-10.4489
▁स्कन्ध	-10.4491
▁इतिहास	-10.4497
मिया	-10.4498
▁क्रीडति	-10.4498
ाम्बर	-10.45
▁पुरतः	-10.4501
ेक	-10.4502
रेस्	-10.4503
दृश	-10.4506
▁वारण	-10.4506
▁प्राप्तुम्	-10.4508
सत्तम	-10.4508
▁भगिनी	-10.4509
▁यीशु	-10.451
0	-10.4512
ाभ्यास	-10.4513
▁जहि	-10.4515
चलच्चित्रम्	-10.4518
क्ष्य	-10.4518
▁कुत	-10.4523
▁पाण्डुपुत्र	-10.4523
प्रो	-10.4527
▁कोर्	-10.4528
▁रथे	-10.453
सत्त्व	-10.453
▁क्रे	-10.453
▁व्याप्त	-10.4532
स्तम्भ	-10.4533
▁सङ्घ	-10.4537
▁प्रविश	-10.4537
पतेः	-10.4539
ब्रवी	-10.454
रेण	-10.4541
धातु	-10.4544
▁व्यव	-10.4548
▁I	-10.4549
स्वास्थ्य	-10.455
▁अनेकान्	-10.4553
राजस्य	-10.4553
▁फ़ेब्रुवरी	-10.4556
▁रै	-10.4557
▁योजयितुं	-10.4557
▁महाविद्यालय	-10.4558
फे	-10.4559
ादपि	-10.4559
▁अवकाश	-10.4562
▁पञ्चाला	-10.4566
यश्च	-10.4567
▁दिल्ली	-10.4571
▁उपाय	-10.4575
▁ताप	-10.4576
भागः	-10.4578
दीन	-10.4585
स्त्री	-10.4589
कप्	-10.4596
▁प्रव	-10.4598
षन्	-10.4602
ीश्वर	-10.4604
▁लक्ष्मी	-10.4604
सेव	-10.4605
ताः	-10.4606
▁तेनैव	-10.4611
ानीक	-10.4612
▁पौल	-10.4614
▁किञ्चित्काल	-10.4616
ारोह	-10.4617
▁विस्मय	-10.4617
▁शुभे	-10.4618
▁तपस	-10.462
येन	-10.4622
▁धनुष	-10.4623
▁वृत्तं	-10.4624
चरण	-10.4627
हन्	-10.4629
▁न्यूनातिन्यून	-10.4631
▁गाङ्गेय	-10.4631
▁अयोवा	-10.4631
▁१९९३	-10.4632
▁द्विवारं	-10.4632
ितौ	-10.4637
▁स्वागत	-10.4641
▁मङ्गल	-10.4642
▁नौ	-10.4645
▁कर्तव्य	-10.4646
प्रसाद	-10.4651
▁पर्यावरण	-10.4654
▁d	-10.4654
स्टेट्स्	-10.4658
धाव	-10.4658
रथं	-10.4658
▁सम्बद्धाः	-10.4659
▁सम्पर्क	-10.4661
टु	-10.4664
ण्य	-10.4664
▁प्रेषित	-10.4667
▁दशरथ	-10.4668
इत्येत	-10.4673
▁चयन	-10.4674
श्रुत	-10.4675
▁शिक्षा	-10.4675
ेशन्	-10.4679
विकार	-10.468
रत्न	-10.468
गर्भ	-10.4687
▁पूजय	-10.4688
▁स्थापयेत	-10.4689
मुच्यते	-10.4692
▁छात्र	-10.4692
ागार	-10.4696
▁दैत्य	-10.47
श्य	-10.47
िव	-10.4701
श्र	-10.4705
▁वरिष्ठ	-10.4705
विद्या	-10.4708
भवन	-10.4712
▁हायने	-10.4712
▁प्रययौ	-10.4713
मर्द	-10.4715
▁दुर	-10.4715
▁स्वेन	-10.4719
▁प्रदेशस्य	-10.4719
▁वर्तमाने	-10.4723
▁जनक	-10.4725
्यताम्	-10.4725
▁रेड्	-10.4726
▁शाक	-10.4726
▁समस्याः	-10.4726
▁तुमुल	-10.4727
▁यूरोपीय	-10.4727
▁जातं	-10.4729
तत्त्व	-10.473
▁ब्रा	-10.473
▁चित्रस्य	-10.473
बोर्ड्	-10.4733
▁तपोधन	-10.4736
▁दुष्कृत	-10.4737
▁चारु	-10.4738
spoken	-10.4739
▁अह	-10.4743
▁वानराः	-10.4744
▁उभय	-10.4744
▁सती	-10.4745
▁अक्षर	-10.475
▁करता	-10.4754
▁श्वासं	-10.4754
क्षर	-10.4755
▁tutorial	-10.4757
▁मिल	-10.4757
▁परीक्षण	-10.476
▁कृताः	-10.4763
▁पुरुषो	-10.4765
on	-10.4772
▁कच्चित्	-10.4778
्यमाना	-10.4779
लक	-10.4779
मानो	-10.4781
वता	-10.4781
▁पुरस्कार	-10.4781
▁बोध	-10.4783
▁१९९७	-10.4784
ास्तत्र	-10.4784
लिस्	-10.4786
▁१९५०	-10.4786
▁समाज	-10.4789
▁भो	-10.4791
शैली	-10.4792
▁दुपद	-10.4793
कुमार	-10.4794
▁स्टे	-10.4796
▁Koha	-10.4797
▁तमवर्ष	-10.4799
▁वृकोदरः	-10.4802
चिन्त्य	-10.4802
प्रद	-10.4805
▁शासन	-10.4807
▁ईस्ट्	-10.4807
ध्	-10.4807
▁सदस्य	-10.4808
▁सांस्कृतिक	-10.481
▁एतावत्	-10.4812
▁काल्	-10.4814
▁परिमाण	-10.4814
नायक	-10.4814
कृत्य	-10.4814
▁स्पर्धायां	-10.4816
▁नियन्त्रणं	-10.4816
ीयते	-10.4826
▁स्वप्न	-10.4843
मथा	-10.4846
▁भज	-10.4854
प्रान्त	-10.4856
ोदय	-10.4859
▁भ्रात्रा	-10.486
▁द्वाभ्यां	-10.4861
▁१९९४	-10.4861
▁योग्य	-10.4862
मानाः	-10.4862
▁क्षेम	-10.4865
▁सत्	-10.4866
य्य	-10.4868
▁शनैः	-10.4872
परम	-10.4876
▁कस्मिन्	-10.4878
▁ज़	-10.4881
▁जनाधिप	-10.4882
▁संरब्ध	-10.4883
वात	-10.4884
▁अब्रवीत्	-10.4885
▁पुस्तकं	-10.4885
▁श्रान्त	-10.4891
भवन्	-10.4892
▁श्रुतं	-10.4895
पत्	-10.4895
व्यवहार	-10.4895
com	-10.4901
प्रधान	-10.4904
▁काचित्	-10.4905
▁तुष्ट	-10.4907
ारम्भ	-10.4907
धारा	-10.4909
रिति	-10.4909
▁कुम्भ	-10.4916
▁प्रकारेण	-10.4916
▁महाबाहुर्	-10.4924
▁इत्थं	-10.4927
▁कुतः	-10.4928
सेट्	-10.4933
२४	-10.4933
▁अन्	-10.4935
▁n	-10.4936
▁उत्थाय	-10.4938
▁केनचित्	-10.4938
▁मूलं	-10.4943
▁चेदपि	-10.4945
▁सप्तम	-10.4949
स्तूर्णं	-10.4952
रियल्	-10.4953
▁स्पेन्	-10.4953
▁विहित	-10.4954
▁मूलभूत	-10.4955
▁मुमोच	-10.4956
िन्द्र	-10.4956
▁डबल्	-10.4962
▁उग्र	-10.4962
▁सीक्वेन्स्	-10.4962
▁पार्थस्य	-10.4962
▁समर्थनं	-10.4964
▁कापि	-10.4966
▁नरश्रेष्ठ	-10.4966
मासात्	-10.4968
कट	-10.4969
▁कप	-10.4969
▁भयम्	-10.4969
▁आह	-10.497
▁मणिपुर	-10.4972
कर्माण	-10.4973
▁क्षत	-10.4978
कालीन	-10.4982
▁लास्	-10.4982
▁निरस्त	-10.4984
▁टूल्	-10.499
▁कुन्ती	-10.4995
▁धनु	-10.4998
▁मातुल	-10.5003
▁प्रकाशित	-10.5007
▁टेस्ट्	-10.5008
▁शु	-10.5009
यन	-10.5009
तव	-10.5009
▁सायक	-10.5012
चल	-10.5015
▁उद्दिश्य	-10.5016
▁निरवहत्	-10.5016
▁पार्षत	-10.5017
T	-10.5019
▁प्रभा	-10.5022
▁वशे	-10.5022
चन	-10.5023
▁पवन	-10.5026
▁पाक	-10.5035
▁पार्थेन	-10.5035
▁पण्डित	-10.5036
▁हस्ताक्षर	-10.5038
तश्च	-10.5039
▁रैट्	-10.5039
▁सर्वश्रेष्ठ	-10.5041
▁आरभते	-10.5043
▁भ्रातरः	-10.505
▁ख्यात	-10.5052
txt	-10.5052
▁अमेरिकीय	-10.5053
डब्ल्यू	-10.5053
▁तार	-10.5053
▁काव्य	-10.5065
ुद्	-10.5068
▁ऊ	-10.5078
विमान	-10.5079
जन्म	-10.508
▁दशकस्य	-10.5084
▁त्वरित	-10.5084
ेनापि	-10.5085
▁सौमित्रि	-10.5085
▁क्रा	-10.5089
वाल्	-10.509
▁द्विजसत्तम	-10.5098
पर्व	-10.5102
कारिण	-10.5106
सम्पर्क	-10.5107
श्रु	-10.5109
▁मुने	-10.5112
▁मत्वा	-10.5115
▁सू	-10.5116
पात्र	-10.5117
▁कालो	-10.5119
▁प्रधानमन्त्री	-10.5119
▁नद्याः	-10.5126
▁धर्मस्य	-10.5127
वाक्यं	-10.5128
शासन	-10.5132
राजधानी	-10.5133
▁लोह	-10.5134
▁;	-10.5138
▁नेतृत्वं	-10.514
सत्	-10.5145
▁निशितैः	-10.5146
▁आगमन	-10.5152
ल्य	-10.5159
तत्	-10.516
▁मिश्र	-10.5162
▁सार्द्धं	-10.5162
▁दृष्टः	-10.5163
सिद्ध	-10.5163
निवास	-10.5164
▁लोकस्य	-10.5166
▁सूत्र	-10.5168
क्री	-10.5173
▁वह्नि	-10.5174
▁शेर्	-10.5174
▁कश्यप	-10.5174
▁महाहवे	-10.5175
राक्	-10.5175
▁ददामि	-10.5176
क्ट्	-10.5176
▁महीपाल	-10.5176
▁गहन	-10.5179
▁विधिवत्	-10.5181
▁प्रतिगृह्य	-10.5183
▁संध्या	-10.5184
▁वय	-10.5185
लं	-10.5187
▁प्रतिक्रिया	-10.5188
▁बेल्	-10.519
कुशल	-10.5193
मम	-10.5195
न्तरे	-10.5199
ासीद्	-10.5199
समन्वितः	-10.52
ेर	-10.5201
▁भयात्	-10.5201
▁अवि	-10.5205
▁संवाद	-10.5208
मणि	-10.5209
▁एवमुक्तः	-10.5209
▁इच्छ	-10.521
म्बा	-10.5212
▁पास्	-10.5212
एक्स्	-10.5214
१४	-10.5215
डिङ्ग्	-10.5216
▁दिवं	-10.5217
ादेव	-10.5218
▁f	-10.5218
▁कमपि	-10.522
▁स्मः	-10.5223
नृप	-10.523
▁शीर्षक	-10.5231
is	-10.5233
ब्ब	-10.5238
धू	-10.5241
श्रम	-10.5244
▁सप्ताह	-10.5244
▁कृत्स्ना	-10.5247
▁कुर्या	-10.5248
फ़ै	-10.5249
टै	-10.5251
दुर्गः	-10.5254
▁एक्स्	-10.5254
▁हृदि	-10.5255
▁द्रव्य	-10.5256
▁राक्षसी	-10.5256
▁बहुवारं	-10.5259
▁Library	-10.5259
▁पूर्वदिशि	-10.526
▁अन्यत्र	-10.526
▁उत्सवः	-10.5261
फ़ेडरेशन्	-10.5262
▁पतिता	-10.5262
पञ्च	-10.5263
भ्रम	-10.5264
▁वार्	-10.5264
▁सकल	-10.5267
प्रभ	-10.5267
गच्छत्	-10.5267
▁स्थापितम्	-10.527
▁आग्रह	-10.5274
जर	-10.5278
▁तेजस्वी	-10.5279
गात्र	-10.5283
रिय	-10.5283
▁पक्षि	-10.5287
▁भद्रे	-10.5292
गमन	-10.5294
दर्	-10.5294
सिस्टम्	-10.5295
▁बालक	-10.5303
▁सुमह	-10.5303
वेर्	-10.5304
▁न्यूना	-10.5305
राट्	-10.5311
ज्वर	-10.5311
▁गच्छामि	-10.5314
ासुर	-10.5318
दूरे	-10.532
रति	-10.5322
ic	-10.5328
स्थानेषु	-10.5332
▁मैथिली	-10.5333
▁अवृतत्	-10.5335
▁एर्	-10.5335
▁योगदान	-10.5336
शैल	-10.5338
▁प्रयात	-10.5339
▁प्राप्तो	-10.5342
▁शिखर	-10.5342
▁बृहत्तमः	-10.5342
नयन	-10.5344
क्रोश	-10.5347
काश	-10.5348
वेन्	-10.535
▁वसन्त	-10.5353
▁स्थितिः	-10.5354
▁पुरुषं	-10.5356
प्रभा	-10.5357
▁पृष्ठे	-10.5358
फ़ी	-10.5359
▁गोप	-10.5363
योनि	-10.5364
विभागस्य	-10.5364
▁शे	-10.5367
▁अस्माभि	-10.5367
▁शताब्द्यां	-10.5373
▁महाभागा	-10.5375
▁मन्दिरं	-10.5378
ाश्रित	-10.5379
रेट्	-10.538
▁वरद	-10.5385
अव	-10.5388
▁स्त	-10.539
रूपे	-10.5396
चिर	-10.5397
▁सर	-10.5402
वनं	-10.5404
w	-10.5407
▁सङ्गीतं	-10.5407
श्वास	-10.5409
▁रह	-10.5414
▁पान	-10.5416
▁निर्मीयन्ते	-10.5417
▁१९९१	-10.5417
डिया	-10.5417
▁महीपतिः	-10.5417
▁प्रतिमा	-10.5417
▁महत्त्वपूर्णा	-10.5421
▁शूरा	-10.5423
▁वात	-10.5429
▁सखा	-10.5434
ेतत्	-10.5436
▁क्रीडायां	-10.5436
नियन्	-10.5443
▁तो	-10.5443
▁अन्यथा	-10.5443
8	-10.5443
▁अन्यस्य	-10.5444
लक्ष्मण	-10.5447
केन्द्र	-10.5451
▁रेल्	-10.5451
ामिव	-10.5452
ment	-10.5453
▁अपने	-10.5453
गेम्स्	-10.5454
क्रिकेट्	-10.546
राज्यम्	-10.5461
▁प्रवर	-10.5461
मरिंदम	-10.5465
▁सङ्कट	-10.5466
▁स्तम्भ	-10.5467
व्यं	-10.5468
ाङ्गद	-10.5468
▁अज्ञात	-10.5469
▁पुत्रान्	-10.5471
▁परां	-10.5476
▁पुत्राणां	-10.5476
ास	-10.5478
▁विक्रान्त	-10.5479
▁कष्ट	-10.5481
संरक्षण	-10.5482
▁ताम्	-10.5482
मप	-10.5483
▁ग्रा	-10.5484
▁नरा	-10.5488
▁बहिर्	-10.5488
▁क्रीत	-10.5488
▁नेता	-10.549
▁समर्पित	-10.549
कक्ष	-10.5492
▁व्यक्तिः	-10.5493
चलच्चित्रे	-10.5494
▁उक्तं	-10.5498
▁द्रुत	-10.5501
▁कुरुष्व	-10.5501
रियो	-10.5505
▁with	-10.5506
शङ्क	-10.5507
▁हन्तुं	-10.5507
▁स्त्रीणा	-10.5507
▁अग	-10.5511
▁प्रकाशितम्	-10.5511
सेनायाः	-10.5514
▁हिरण्य	-10.5515
▁वहति	-10.5517
▁व्यूह	-10.5518
▁प्रोक्त	-10.5523
्यू	-10.5527
▁कमाण्ड्	-10.5528
▁कथम	-10.5532
प्रकरण	-10.5536
भूत्	-10.5537
एशिया	-10.5538
िकाः	-10.5541
▁प्रत्येकस्मिन	-10.5541
कृष्ण	-10.5542
परिवर्तन	-10.5548
तुर्	-10.5551
▁भीत	-10.5553
▁सूचित	-10.5553
धृत	-10.5559
▁चर्म	-10.5561
▁ब्राह्मणानां	-10.5564
▁प्रभावित	-10.5564
रेक	-10.5565
स्थापय	-10.557
प्रदेशेषु	-10.5571
▁"'	-10.5572
मस्त्र	-10.5573
मकरोत्	-10.5574
▁केचिद्	-10.5574
k	-10.5577
गुहा	-10.5578
▁ऋतु	-10.558
▁लोमश	-10.5581
▁त्रयोदश	-10.5581
▁बह्व्यः	-10.5581
▁समन्तात्	-10.5583
कृ	-10.5584
▁आत्मा	-10.5584
यक्ष	-10.5584
▁निर्माति	-10.5585
पूर्	-10.5586
▁System	-10.5588
▁कठोर	-10.5588
▁रोगस्य	-10.559
▁सहिताः	-10.559
▁कुशलं	-10.5591
▁भविष्यसि	-10.5592
▁मेक्सिको	-10.5593
▁नकुल	-10.5594
▁गान्धारी	-10.5596
▁किंचन	-10.5599
ओलिम्पिक्	-10.5603
▁निधनं	-10.5603
▁परिवर्तित	-10.5607
▁D	-10.5609
ान्तरे	-10.561
▁सूपर्	-10.5613
▁बिल्	-10.5613
▁नायक	-10.562
▁चिन्तय	-10.5629
▁अध्य	-10.5629
▁बुक्	-10.563
▁डौन्	-10.5633
ग्रामे	-10.5636
▁अज	-10.5638
द्वयम्	-10.564
▁अधिकारिणः	-10.564
नम	-10.5643
बाक्स्	-10.5644
▁घोरा	-10.5644
व्यक्त	-10.5645
लैण्ड्	-10.5645
▁सम्यग	-10.5647
E	-10.565
दूत	-10.5651
es	-10.5656
▁भुक्त	-10.5663
▁अत्युत्तम	-10.5664
▁उपयुञ्ज्महे	-10.5664
▁संरक्षण	-10.5667
मेघ	-10.5668
ङ्गु	-10.567
मानस्य	-10.5672
▁धीमता	-10.5675
▁वीरौ	-10.5675
▁सान्त्व	-10.568
लण्ड्	-10.5684
▁कथयामास	-10.5684
▁प्रसार	-10.5685
माप	-10.5688
दर्शनम्	-10.5689
▁दक्ष	-10.5689
▁स्वाध्याय	-10.5691
▁यौवन	-10.5692
८०	-10.5693
▁समाहितः	-10.5694
▁नित्यम	-10.5694
धिक	-10.5695
िनम्	-10.5696
्येत	-10.5699
▁बोक्स्	-10.5702
B	-10.5703
मस्	-10.5705
▁दक्षिणे	-10.5706
▁वक्ष	-10.5706
▁ब्राह्मणस्य	-10.5709
▁कौशल	-10.5713
▁विद्वान्	-10.5714
ोरग	-10.5714
भारत	-10.5715
▁स्तन	-10.5717
२२	-10.5719
ैश्चैव	-10.572
▁नृपते	-10.5722
▁दिवसे	-10.5724
▁4.	-10.5724
▁यथावत्	-10.5726
▁एकत्र	-10.5727
▁२००	-10.5728
ान्वित	-10.573
ादय	-10.5731
गणा	-10.5732
▁वध्य	-10.5732
त्वे	-10.5734
ङ्गो	-10.5734
जातीय	-10.5736
▁संगत	-10.5737
▁फ़ील्ड्	-10.5737
▁वैज्ञानिक	-10.5738
▁कार्यक्रम	-10.5739
▁पाण्डवेय	-10.574
स्थितौ	-10.574
▁प्रसिद्धाः	-10.5745
▁विदेशीय	-10.5745
▁ब्याण्ड्	-10.5746
▁चिकित्सालय	-10.5747
▁आशा	-10.5747
शोभ	-10.5748
असोसियेशन्	-10.5748
▁ट्याब्	-10.5749
▁क्रियतां	-10.575
▁अनन्त	-10.5751
▁वर्धयितुं	-10.5751
▁यथैव	-10.5752
▁फलम्	-10.5753
ात्मकं	-10.5754
▁शुक्ल	-10.5755
▁तमिळ्	-10.5756
▁कपूर्	-10.5756
▁स्वीकरोति	-10.5756
पदार्थ	-10.5759
पूर	-10.5763
तिथि	-10.5773
▁स्वर्गे	-10.5773
िष्ठ	-10.5775
▁ताम्र	-10.5775
टर्स्	-10.5776
जातयः	-10.5776
▁गौरव	-10.5777
ोऽनु	-10.5777
ाकाश	-10.5779
भूतं	-10.5782
▁निष्ठा	-10.5783
▁प्रथमम्	-10.5784
▁संताप	-10.5786
▁awk	-10.5787
पुस्तक	-10.5788
ज्ञः	-10.579
ब्राह्मण	-10.5791
वशं	-10.5793
▁ततोऽह	-10.5795
कौशल	-10.5797
ाजौ	-10.5798
▁द्विजः	-10.5802
सृज	-10.5803
▁दो	-10.5803
▁वृतः	-10.5805
▁लिङ्ग	-10.5807
▁l	-10.5808
ण्डो	-10.5809
▁लोकाना	-10.5811
शक्त	-10.5812
▁विधिना	-10.5814
जनपदस्य	-10.5814
सदस्य	-10.5818
विभागः	-10.5819
टेल्	-10.5821
▁मते	-10.5823
क्टर्	-10.5824
▁मन्दिर	-10.5828
▁ओब्जेक्ट्	-10.583
▁एतच्छ्रुत्वा	-10.5833
▁संलग्न	-10.5833
▁विग्रह	-10.5835
▁नियमित	-10.5836
▁वायव्य	-10.5838
▁नामकरणं	-10.5839
▁बार	-10.5839
प्ल	-10.5841
▁इतिहासे	-10.5844
▁जू	-10.5845
▁पूरित	-10.5848
▁द्यूत	-10.5853
▁घटक	-10.5854
▁अपेक्षित	-10.5858
▁त्रयाणा	-10.5858
▁फ़ा	-10.5859
माणा	-10.5861
ाक्षर	-10.5862
▁एकां	-10.5863
धनं	-10.5863
▁तस्यैव	-10.5863
मुद	-10.5865
▁मानस	-10.5866
मृत्यु	-10.5867
▁सात्यकिः	-10.5868
▁परिवार्य	-10.5871
▁एक्	-10.5874
गन्धर्व	-10.5878
स्मा	-10.5879
कर्मणा	-10.5881
नस्	-10.5882
परिणाम	-10.5882
▁भागाः	-10.5883
रुप	-10.5883
यानं	-10.5883
▁किया	-10.5883
▁पालन	-10.5884
बोक्स्	-10.5888
▁तेजो	-10.5891
▁तत्रा	-10.5891
युद्धं	-10.5893
ाल्	-10.5894
▁स्था	-10.5894
▁ध्रुवं	-10.5895
▁दक्षिणा	-10.5895
वाय	-10.5902
ज्ञात	-10.5902
१७	-10.5903
▁श्रेयः	-10.5903
मुद्	-10.5903
▁प्रकरण	-10.5905
▁विन्यास	-10.5906
▁दग्ध	-10.5908
▁सृज	-10.5908
▁सत्येन	-10.5914
रक्षक	-10.5915
ाधिप	-10.5918
▁त्रिदश	-10.5918
▁१९८४	-10.5919
▁मेघालय	-10.5923
त्ता	-10.5926
ङ्गल्	-10.5926
▁तयो	-10.5928
▁आसम्	-10.5929
▁+	-10.593
भे	-10.5931
▁ओलिम्पिक्	-10.5932
▁पथि	-10.5933
▁कृपा	-10.5937
ात्मजः	-10.5939
▁गाढ	-10.5944
▁गणित	-10.5945
करो	-10.595
क्यू	-10.595
▁कथितं	-10.595
▁हुए	-10.5951
▁अभिनेता	-10.5952
▁८०	-10.5955
रुण	-10.5956
▁भीष्मस्य	-10.5958
▁रोमन्	-10.5959
▁तमः	-10.5961
ार्क	-10.5962
डै	-10.5963
▁गृध्र	-10.5963
▁वर्	-10.5964
च्छि	-10.5964
्स्	-10.5966
ानन्तरम्	-10.5969
भण्डार	-10.597
ग्न	-10.5971
दीप्त	-10.5972
▁पीडितः	-10.5972
▁तासु	-10.5973
समस्या	-10.5975
▁चाह	-10.5976
वृष्टि	-10.5978
विमानस्थानक	-10.5978
▁आस्ते	-10.5983
संस्कृतेः	-10.5983
▁विद्यालय	-10.5984
▁प्रदान	-10.5987
▁शरै	-10.5987
द्रव्य	-10.5989
पन्न	-10.599
▁कृतवर्मा	-10.599
▁आधिकारिक	-10.5995
िनाम्	-10.5997
▁कृष्णं	-10.5998
अस्य	-10.6001
▁भृगु	-10.6003
क्षा	-10.6003
▁अक्ष	-10.6004
▁स्थगित	-10.6004
▁शुशुभे	-10.6004
▁ववृते	-10.6004
▁धर्मार्थ	-10.6005
टरी	-10.6007
▁मात्रा	-10.6008
लिका	-10.601
▁सुपर्ण	-10.6018
▁प्राप्नुमः	-10.6019
▁|"	-10.6019
प्रदान	-10.602
▁मित्राणि	-10.602
▁प्रसिद्धं	-10.602
शिखर	-10.6021
▁अवित्त	-10.6022
▁प्रजापति	-10.6022
▁सिर	-10.6024
हर्ष	-10.6024
▁मातरं	-10.6025
▁परिवर्त्य	-10.6029
शुल्क	-10.6031
▁गुणा	-10.6031
नार्	-10.6033
▁तापस	-10.6035
▁पर्याय	-10.6036
बहु	-10.6037
सञ्चिका	-10.6037
▁E	-10.604
नय	-10.6044
मार्गे	-10.6044
तमा	-10.6044
मेतद्	-10.6046
▁वाच्य	-10.6047
▁गौ	-10.6048
▁सदैव	-10.6048
▁आकार	-10.6049
▁सोऽहं	-10.6052
▁हन्ति	-10.6052
▁साहाय्येन	-10.6052
निमित्तं	-10.6055
रूपाणि	-10.6057
▁कति	-10.6057
▁तोय	-10.606
▁सङ्ग	-10.6062
विशेषेषु	-10.6063
▁दर्शन	-10.6064
प्रवेश	-10.6069
▁जनपद	-10.6069
▁सम्यक	-10.6071
ीयः	-10.6072
▁अस्मान्	-10.6073
हता	-10.6075
वार्	-10.6075
▁काक	-10.6076
▁खाद	-10.608
र्या	-10.6082
सङ्गीतस्य	-10.6084
▁अधिकम्	-10.6086
मण्डलं	-10.6089
▁लिख	-10.609
▁कौशिक	-10.6091
▁दर्शयितुं	-10.6095
▁आगच्छन्तु	-10.6096
▁तमुवाच	-10.6104
डेल्	-10.6104
भद्र	-10.6105
▁गिर	-10.6107
समूहस्य	-10.6109
ान्तरं	-10.6112
se	-10.6112
▁अगच्छत्	-10.6113
▁पात	-10.6117
▁इत्येतां	-10.6118
लोन्	-10.6119
▁दुग्ध	-10.612
▁निवृत्तः	-10.6121
कवच	-10.6121
▁लक्ष्मणः	-10.6124
ाधि	-10.6127
गतो	-10.6127
भयं	-10.6127
▁न्यूनतम	-10.6128
परं	-10.6131
▁प्रदत्त	-10.6133
▁वेश्म	-10.6134
लाण्ड्	-10.6134
▁सिस्टम्	-10.6135
तृप्त	-10.6139
पृच्छ	-10.6142
▁सनातनम्	-10.6142
उद्यम	-10.6146
▁सर्वासु	-10.6147
▁प्रवृत्त	-10.6149
मितिहास	-10.615
मेध	-10.6159
्यहं	-10.6163
▁आरब्धः	-10.6164
वदत्	-10.6165
मेष	-10.6165
▁मार्गः	-10.6166
स्थानम्	-10.6168
ीह	-10.6172
▁वृष्टि	-10.6173
▁घट	-10.6174
स्त्राणि	-10.6175
याद्	-10.6175
▁भगवत	-10.6176
▁यथान्यायं	-10.6179
▁यान्	-10.618
▁उपलभ्यन्ते	-10.618
▁१९७१	-10.6181
▁स्नान	-10.6182
▁लभ्यते	-10.6183
ोऽद्य	-10.6183
▁भस्म	-10.6183
▁विदित्वा	-10.6183
ोऽसौ	-10.6184
तोऽ	-10.6184
मास्थितः	-10.6186
▁नीति	-10.6194
▁जह	-10.6196
▁परिवारः	-10.6196
कथ	-10.62
▁लोकाः	-10.6204
▁कृष्णस्य	-10.6204
▁मधुसूदन	-10.6206
लोम	-10.6207
▁उपयुज्यमान	-10.6207
ल्ट्	-10.6208
▁ब्रू	-10.6211
स्को	-10.6211
ार्	-10.6214
▁देवताः	-10.6215
▁रेडियो	-10.6218
▁माध्यम	-10.6221
▁भाष	-10.6221
▁जान	-10.6221
ाम्यहं	-10.6222
▁युक्तः	-10.6223
▁प्रदेश	-10.6224
▁दम	-10.6225
▁शुश्रूष	-10.6226
▁श्रोतुमिच्छाम	-10.6228
त्री	-10.6228
▁spoken	-10.623
▁इण्टर्	-10.623
वु	-10.6233
▁शौच	-10.6234
▁बभौ	-10.6236
▁दूरं	-10.6236
▁प्रवाह	-10.6236
▁पश्चाद्	-10.6236
▁चैत	-10.6237
▁परिणामेन	-10.6238
स्थल	-10.6243
मुपा	-10.6245
▁प्रथमे	-10.6246
स्की	-10.6248
सैनिकाः	-10.6253
हर्	-10.6253
गृहं	-10.6256
▁नगरेषु	-10.6257
▁चेन्नै	-10.6259
▁क्षत्रिया	-10.6263
मनुष्य	-10.6265
▁स्मृति	-10.6267
▁शिखण्डी	-10.6268
▁ग्रीष्मकालीन	-10.6268
▁घृत	-10.6268
गर	-10.6271
▁र्न	-10.6272
▁इत्युक्ते	-10.6273
▁क्षेत्रस्य	-10.6273
▁स्थितस्य	-10.6273
युक्तेन	-10.6274
ोपेत	-10.6275
▁कनक	-10.6275
▁इत्यस्याधः	-10.6276
मृषि	-10.6277
▁चल	-10.6279
स्पर्धायां	-10.6279
▁रोगः	-10.6286
▁दुर्गः	-10.6286
संस्थाः	-10.6287
▁वर्षा	-10.629
▁क्रीडाङ्गण	-10.629
▁मुष्टि	-10.6293
ीकर्तुं	-10.6293
वेक्ष्य	-10.6296
▁जटिल	-10.6296
नघ	-10.6298
▁मुहुर्मुहुः	-10.6299
▁अण्ड	-10.6299
णस्य	-10.6301
धिकं	-10.6302
▁आर्द्र	-10.6302
▁प्राप्नुवन्	-10.6305
ण्टे	-10.6306
▁महान्त	-10.6309
▁घोररूप	-10.6309
कारः	-10.6311
▁महारथ	-10.6316
्रा	-10.6319
▁शिशिर	-10.6322
▁Spoken	-10.6323
▁ब्रह्मण	-10.6324
▁प्रतीक्ष	-10.6324
भक्त	-10.6327
▁एफ्	-10.6328
▁शित	-10.6328
चेतसः	-10.633
▁G	-10.6334
▁नियमाः	-10.6334
▁वनम्	-10.6337
▁प्ल	-10.6337
कृति	-10.634
▁श्रेष्ठं	-10.634
ैन्	-10.6341
कारिणः	-10.6346
▁आगतः	-10.6346
▁आरब्ध	-10.6346
▁प्रेत	-10.6348
▁आत्मन	-10.6352
बन्	-10.6352
पार्श्व	-10.6353
▁स्मारक	-10.6353
्यति	-10.6354
विरुद्धं	-10.6354
▁निशा	-10.6354
सर्वकारेण	-10.6354
▁निन्द	-10.6355
पराक्रम	-10.6356
▁सम्प्रेक्ष्य	-10.6357
▁भगदत्त	-10.6357
▁१९८७	-10.6358
न्तौ	-10.6362
म्बु	-10.6365
▁करिष्यन्ति	-10.6365
▁परीक्ष	-10.6365
▁राज्येषु	-10.6368
▁आनन्दः	-10.6369
मया	-10.6369
▁हताः	-10.637
विध्य	-10.6371
▁यीशो	-10.6372
▁पारं	-10.6372
▁कल	-10.6374
▁ननाद	-10.6374
तू	-10.6375
▁शरा	-10.6378
▁प्रौढ	-10.6379
▁उत्तिष्ठ	-10.6381
▁लिखितम्	-10.6383
▁महारथान्	-10.6385
ाख्य	-10.6385
▁चिह्न	-10.6386
▁कीदृश	-10.6387
▁नद्यः	-10.6387
्यै	-10.6393
▁तृतीयं	-10.6395
▁स्कन्द	-10.6396
तिष्ठ	-10.6396
ग्रा	-10.6399
करणे	-10.6402
▁गुणान्	-10.6405
▁श्रवण	-10.6409
▁प्रदर्शित	-10.6411
पश्याम	-10.6412
▁शयन	-10.6412
विष्ट	-10.6413
यतः	-10.6415
नौका	-10.6416
▁पालय	-10.6417
इत्यनेन	-10.6418
▁उत्पादन	-10.6421
महिला	-10.6422
ट्रा	-10.643
▁पूजित	-10.643
सङ्ग्रह	-10.6433
माला	-10.6434
▁यां	-10.6435
मूढ	-10.6437
राजा	-10.6437
पाय	-10.6437
▁विविधान्	-10.6438
▁वाच	-10.6441
▁परमां	-10.6442
▁वस्त्राणि	-10.6447
▁सेमिकोलन्	-10.6447
▁युद्धाय	-10.6447
गृहीत	-10.6447
न्योन्य	-10.6448
▁उल्लेखनीय	-10.6449
यितु	-10.645
▁सम्मत	-10.6452
▁मानसिक	-10.6454
▁क्षमता	-10.6454
▁एतस्मिन्न	-10.6455
पत्तन	-10.6457
हृदय	-10.646
▁दीप्यमान	-10.646
▁layer	-10.6461
▁तत्त्वतः	-10.6461
▁मानवाः	-10.6462
वृ	-10.6462
▁तनु	-10.6467
ीम्	-10.647
▁मध्यभागे	-10.647
▁परंतपः	-10.647
▁भ्रातरौ	-10.6471
िय	-10.6472
मित्येव	-10.6473
भूमिः	-10.6478
▁जालपुटे	-10.6481
▁चेर	-10.6483
▁निर्माणम्	-10.6484
सिन्	-10.6487
▁दिव्या	-10.6489
▁सर्वर्	-10.6492
▁सङ्घर्ष	-10.6495
▁ग्रेट्	-10.6495
▁गदया	-10.6501
▁द्रोणः	-10.6502
▁भीमसेनो	-10.6502
कन्दुक	-10.6502
▁सर्व्वेषा	-10.6504
शैल्याः	-10.6505
ङ्का	-10.6508
▁स्वामी	-10.6509
मुक्त्वा	-10.6512
लियन्	-10.6513
▁युष्माभि	-10.6516
ताप	-10.6517
दीर्घ	-10.6518
ान्तं	-10.6525
▁गवाक्ष	-10.6525
▁स्यान्	-10.6527
▁मानवः	-10.6528
फ़ो	-10.6531
श्री	-10.6534
▁पाश	-10.6536
▁धूम	-10.6537
ाचल	-10.6537
विविध	-10.6538
▁टेक्सास्	-10.6538
▁गभीर	-10.6538
▁रचयाम	-10.6538
▁जायमान	-10.654
वृत	-10.654
▁सौतिर	-10.6541
▁किशोर	-10.6541
सक्त	-10.6543
▁यथोक्त	-10.6545
▁करण	-10.6547
▁केनापि	-10.6548
पुट	-10.6548
ात्मनि	-10.655
▁पदार्पण	-10.6552
▁डोट्	-10.6553
▁स्यन्दन	-10.6556
दुर्	-10.6556
सूर्य	-10.6559
▁रक्षिता	-10.6559
▁गोवा	-10.656
▁चिक्षेप	-10.6561
▁समाप	-10.6562
▁कुरुत	-10.6562
▁ग्रीन्	-10.6563
ासौ	-10.6564
प्रवर	-10.6565
▁प्रहर	-10.6566
▁बृहत्तमा	-10.6567
▁पश्यतः	-10.6568
▁अनुमति	-10.6571
वृद्धि	-10.6572
▁प्रमुखा	-10.6577
▁पराजितः	-10.6577
करणं	-10.6581
ांशु	-10.6584
▁सर्वां	-10.6586
▁अहम	-10.6588
▁प्रास	-10.6594
▁बन्धन	-10.6594
▁त्वर	-10.6599
▁आवृत्तिः	-10.6602
माश्रित्य	-10.6602
▁सर्वस्य	-10.6602
▁निर्वाचने	-10.6604
एतत्	-10.6607
▁वृत	-10.6609
पोलो	-10.6611
▁महद	-10.6611
▁मार्क्	-10.6614
ेभ्यश्च	-10.6616
▁रतः	-10.6617
ार्ध	-10.6621
▁कुलीन	-10.6621
स्टार्	-10.6624
च्छिन्न	-10.6624
वादिनः	-10.6624
▁प्रदेशेषु	-10.6627
▁भवनं	-10.6628
बला	-10.6628
▁स्पृश	-10.6629
▁कीचक	-10.663
▁जै	-10.663
र्महा	-10.6633
▁मिलियन्	-10.6633
▁योधा	-10.6634
▁विशिष्टं	-10.6635
▁भरतसत्तम	-10.6635
▁समु	-10.6637
▁वैदेह्या	-10.6638
थि	-10.664
▁प्रविशति	-10.6642
▁प्रशंसा	-10.6643
▁भृत्य	-10.6643
ेच्छ	-10.6647
▁साहित्य	-10.6651
२७	-10.6652
▁मौ	-10.6652
▁घटना	-10.6653
▁योनि	-10.6653
ाम्यहम्	-10.6654
▁परिष्वज्य	-10.6654
x	-10.6654
स्रोत	-10.6656
▁जरा	-10.6658
▁x	-10.6658
समो	-10.6659
अधिकार	-10.6666
मागतम्	-10.6666
▁जनो	-10.6668
प्रवाह	-10.6668
मरण	-10.6673
▁समाधि	-10.6679
ऽभि	-10.668
▁सभायां	-10.6683
मण्डलम्	-10.6687
▁नियन्त्रित	-10.6689
मत्	-10.6691
ांस्तु	-10.6691
▁मनस	-10.6694
चाल	-10.6695
▁स्थापय	-10.6696
▁वध्यमान	-10.6697
▁वाक्	-10.6697
▁विविधा	-10.6702
षे	-10.6703
▁लघुतर	-10.6704
▁कारणम्	-10.6706
▁दुर्योधनं	-10.6707
▁धर	-10.6708
▁उद्घाटित	-10.6713
▁यस्याः	-10.6716
▁वयम	-10.6717
▁चयनं	-10.6718
युद्धस्य	-10.6719
▁वाप्य	-10.6722
ोदर	-10.6722
▁भरद्वाज	-10.6722
▁ज्ञेय	-10.6723
▁१९८२	-10.6723
▁१९८३	-10.6723
▁निर्मीयते	-10.6725
▁पुष्पित	-10.6726
ऽनघ	-10.6726
▁नासिका	-10.6726
▁सुसंवाद	-10.6726
▁शूराः	-10.6727
▁जिगाय	-10.6727
▁प्रशिक्षण	-10.6727
सिक्	-10.6728
▁हयान्	-10.6729
▁पुष्कर	-10.6729
▁निवस	-10.673
▁साकं	-10.673
▁निरा	-10.6731
ीत्	-10.6731
ोद	-10.6732
▁अवर्धत	-10.6732
▁भीष्मो	-10.6733
▁सपुत्र	-10.6734
▁विवेश	-10.6738
▁यशः	-10.674
▁सरित	-10.6742
▁वैश्य	-10.6742
गढ्	-10.6745
▁नामाङ्कन	-10.6746
▁चालन	-10.6751
▁पाञ्चाल	-10.6753
नीति	-10.6753
▁नाथ	-10.6753
▁हेतोः	-10.6759
प्त	-10.6763
▁उदय	-10.6764
रभ्य	-10.6766
▁छिद्र	-10.6766
▁आरभ्यते	-10.6767
ज़ो	-10.6767
▁स्थल	-10.6767
▁कीलक	-10.6768
▁देशीय	-10.6768
▁किंचिद्	-10.677
▁पिब	-10.677
विश्वविद्यालयस्य	-10.6774
▁समर्थः	-10.6775
सम्मत	-10.6776
▁प्रवर्त	-10.6779
▁भीमस्य	-10.6779
दानं	-10.6779
ड़	-10.678
▁अपरञ्च	-10.678
४२	-10.678
स्टि	-10.6781
▁वराह	-10.6786
सृ	-10.6787
शत्रु	-10.679
वैरस्	-10.6792
वचनं	-10.6792
संस्थया	-10.6792
▁वेति	-10.6793
केट्	-10.6795
▁सूच	-10.6799
भक्ष	-10.68
▁धातु	-10.6801
▁हस्तौ	-10.6804
▁निशाचर	-10.6807
निःस्वन	-10.6808
▁चक्रुः	-10.6808
▁अपनी	-10.6809
ान्यपि	-10.681
▁तेलुगु	-10.6816
▁भीष्मेण	-10.6816
विशेषाणा	-10.6816
▁भर्तृ	-10.6816
▁१९७९	-10.6817
▁विद्ध्वा	-10.6817
चर्च्	-10.6822
िनं	-10.6822
▁मकर	-10.6823
▁पौर	-10.6825
▁दिनाङ्कात्	-10.6826
सस्य	-10.6826
चारिण	-10.6827
▁मिलति	-10.6828
▁एतासु	-10.6828
▁शास्त्रीय	-10.6831
▁वृथा	-10.6831
▁भूमिं	-10.6832
त्वस्य	-10.6832
▁कृतानि	-10.6833
▁ददति	-10.6834
▁गरुड	-10.6835
▁बुद्धिर्	-10.6835
▁पुरातत्त्व	-10.6835
▁घण्टा	-10.6836
हत्य	-10.6837
▁भूमिः	-10.6838
ात्मनो	-10.6839
▁एकादश	-10.684
▁प्राप्यन्ते	-10.6841
वच	-10.6844
▁चैना	-10.6844
▁वनानि	-10.6845
▁यथाशक्ति	-10.6845
▁बाष्प	-10.6845
▁पञ्चभिः	-10.6849
यन्तः	-10.6852
जित्	-10.6853
▁भोजनालय	-10.6856
▁चार	-10.6858
▁माल्य	-10.6859
▁ज्योति	-10.6861
टेड्	-10.6863
ितव्य	-10.6864
ूनां	-10.6865
नामक	-10.6865
▁अनुशिक्षणे	-10.6866
▁अपश्य	-10.6874
▁सर्वकाम	-10.6875
▁हरित	-10.6876
▁अभिनेत्री	-10.6879
▁विनय	-10.688
ब्या	-10.6882
▁समक्षं	-10.6883
▁परिघ	-10.6886
स्नेह	-10.6887
▁विजेता	-10.6887
अभि	-10.6887
स्थले	-10.6888
शिक्ष	-10.6888
ेश्वरस्य	-10.6888
▁विमोचन	-10.6889
▁गमन	-10.6891
▁उदर	-10.6894
▁अधो	-10.6899
▁संक्रुद्धो	-10.6902
ब्रु	-10.6902
सर्वकारस्य	-10.6904
▁परिसर	-10.6905
▁धृति	-10.6906
माध्यमेन	-10.6908
▁समीचीन	-10.691
▁भल्लेन	-10.691
▁परिवर्तितम्	-10.691
▁अन्ववर्तत	-10.691
▁पू	-10.6911
▁प्या	-10.6912
▁समपद्यत	-10.6913
▁व्यवस्थित	-10.6915
▁इङ्ग्लैण्ड्	-10.6918
▁स्थापयति	-10.692
मिच्छ	-10.6922
▁तादृशं	-10.6923
▁प्रजानां	-10.6924
▁दशलक्ष	-10.6925
▁शस्त्राणि	-10.6928
▁भवतीति	-10.693
ततो	-10.693
▁यन्न	-10.693
अनु	-10.6931
▁नरोत्तम	-10.6938
वाहिनी	-10.6939
परीत	-10.6941
ाकुल	-10.6942
टिव्	-10.6943
▁घटोत्कच	-10.6944
▁रक्षति	-10.6945
▁द्रोणस्य	-10.6946
▁७०	-10.6948
▁अध्यक्ष	-10.6949
वतां	-10.6955
▁भक्ति	-10.6959
वदन	-10.696
सामान्य	-10.6961
▁शिवा	-10.6969
▁निहतो	-10.6969
▁बालकाः	-10.6982
निमित्त	-10.6983
सहित	-10.6983
▁हार्	-10.6985
▁चोळ	-10.6985
लय	-10.6986
▁क्रतु	-10.6988
▁गृह्णी	-10.6991
र्पित	-10.6994
ताल	-10.6997
▁समागत	-10.7001
▁भित्त्वा	-10.7005
▁जम्मू	-10.7005
▁अवैध	-10.7006
▁अमुष्य	-10.7006
▁tool	-10.7006
▁१९५६	-10.7006
▁वाग्	-10.7008
युध	-10.7008
▁पदार्थ	-10.7014
▁परिवहन	-10.7015
विक्रमः	-10.7015
▁ख्यातः	-10.7015
स्थः	-10.7016
▁सूचनाः	-10.7018
▁कपिल	-10.7019
▁कुमारः	-10.702
यन्ती	-10.7021
▁यन्मा	-10.7022
पुत्रः	-10.7023
▁पराजित	-10.7026
▁कृष्णेन	-10.7027
▁केचिद	-10.7033
▁दृष्टं	-10.704
वर्ड्	-10.704
दिनाङ्क	-10.7045
▁वस्त्रं	-10.7051
मिक्	-10.7051
वारण	-10.7053
म्बर्	-10.7055
विनाश	-10.7056
म्स्	-10.7056
▁रक्षक	-10.7058
▁कार्मुक	-10.7058
▁दत्तः	-10.706
▁श्र	-10.7065
मुद्रा	-10.7066
सम्बन्धि	-10.7067
मार्गेण	-10.7069
मासीन	-10.707
▁मद्य	-10.7073
▁श्रद्धा	-10.7074
ेष्वपि	-10.7074
▁पाकिस्तान	-10.7076
▁दर्शित	-10.7077
▁अध्यापक	-10.7082
िभ्यः	-10.7084
▁विषयः	-10.7086
ुत्तर	-10.7087
▁अपत्य	-10.7088
▁सूर्यस्य	-10.709
▁बस्	-10.7092
▁तस्थौ	-10.7092
▁परिमाणं	-10.7093
▁आरब्धा	-10.7095
▁दशक	-10.7097
ोदित	-10.7097
▁वृद्धिः	-10.71
तरा	-10.71
oodle	-10.7101
▁उल्लिखित	-10.7101
▁युयुधान	-10.7101
▁शैनेय	-10.7101
▁मैक्रोसाफ़्ट्	-10.7101
▁निरमात्	-10.7102
▁१९६९	-10.7102
सप्त	-10.7104
श्चिच्छेद	-10.7106
▁क्यालिफोर्निया	-10.7107
▁छत्र	-10.7107
▁स्थावर	-10.7107
▁प्रयुज्यते	-10.7108
▁प्रत्या	-10.7108
▁बन्धु	-10.7109
नगरयोः	-10.7109
▁पुमान्	-10.711
आक्रमण	-10.7111
रस्	-10.7111
▁युध्य	-10.7113
योर	-10.7115
▁निधि	-10.7116
टस्	-10.7119
▁कार्यशाला	-10.7122
▁ऋणं	-10.7124
▁प्राणायाम	-10.7126
▁सांख्य	-10.7129
▁प्रदक्षिण	-10.7131
▁एशियन्	-10.7132
."	-10.7133
▁भागे	-10.7133
िकं	-10.7136
▁उल्लेखः	-10.7141
दलः	-10.7142
▁ब्रह्मलोक	-10.7144
▁३५	-10.7145
▁मनु	-10.7148
अप्	-10.7152
कण्ठ	-10.7153
▁आराम	-10.7154
देशीयाः	-10.7156
▁ब्रौसर्	-10.7158
▁दास्य	-10.7158
ैते	-10.7158
▁समतल	-10.7161
ून	-10.7162
▁विकासः	-10.7163
ol	-10.7163
▁कर्णेन	-10.7164
▁आश्चर्य	-10.7166
▁आहूय	-10.7169
▁विकृत	-10.7169
जैनमन्दिर	-10.7171
करोति	-10.7172
औषध	-10.7174
▁अमर	-10.7175
इदानीं	-10.7176
र्ग	-10.7176
स्टन्	-10.7178
▁ड्र	-10.7179
▁परित्यक्त	-10.7179
▁समर्था	-10.7181
▁कर्तु	-10.7183
▁किञ्च	-10.7184
निधि	-10.7187
▁विंशति	-10.7187
▁विचारः	-10.7187
▁मासिक	-10.719
यतो	-10.7191
▁चतुर	-10.7191
भावेन	-10.7193
▁वक्र	-10.7194
९९	-10.7195
मुच्य	-10.7195
▁पीडा	-10.7196
▁गच्छाम	-10.7196
▁त्रास	-10.7196
▁वस्तूनां	-10.7196
हौस्	-10.7196
▁प्रवृत्ति	-10.7198
▁इन्स्टाल्	-10.7199
um	-10.7199
▁स्नात्वा	-10.72
▁१९८९	-10.72
शृङ्खला	-10.72
▁संयोजन	-10.7201
▁क्रीडितुं	-10.7203
▁Re	-10.7206
▁आंखों	-10.7208
बाध	-10.721
▁नेहरू	-10.7214
▁IDE	-10.7215
▁यज्ञे	-10.7216
▁ज्ञाति	-10.7216
र्मा	-10.7221
▁L	-10.7221
▁चेतुं	-10.7221
पट	-10.7222
▁चमू	-10.7222
▁एड्	-10.7223
▁नहुष	-10.7223
▁नमस्कार	-10.7223
क्या	-10.7224
▁क्षणेन	-10.7224
लेखन	-10.7226
७०	-10.7228
▁तण्डुल	-10.7229
L	-10.7231
ृषि	-10.7233
सव	-10.7236
नन्	-10.7236
महाविद्यालय	-10.7241
▁पैर	-10.7244
▁निर्णायक	-10.7246
▁भूम्या	-10.7247
लेक्	-10.7247
दंष्ट्र	-10.7252
▁मर्म	-10.7253
पाणि	-10.7255
▁खग	-10.7255
च्छा	-10.7257
▁देवेश	-10.7258
▁सन्तः	-10.7259
▁क्ल	-10.726
▁वाली	-10.7262
ानुप	-10.7263
▁पदम्	-10.7263
▁राजानः	-10.7266
▁साध्य	-10.7268
▁ब्रूया	-10.7272
क्रिय	-10.7274
▁गच्छामः	-10.7275
पाश	-10.7275
age	-10.7276
तायां	-10.7277
अमेरिकन्	-10.7278
▁राजस्थान	-10.728
▁भिन्ना	-10.7282
ोऽर्जुन	-10.7283
मन्यत	-10.7283
▁उपकरण	-10.7283
▁कलिङ्ग	-10.7283
▁स्थापिता	-10.7283
मापन्न	-10.7284
संस्करण	-10.7286
▁परियोजनाया	-10.7286
▁वारि	-10.7288
▁नमः	-10.7293
▁कथय	-10.7295
▁सुरा	-10.7296
▁महर्षे	-10.7297
▁श्रम	-10.7297
▁गगन	-10.7297
▁१९८५	-10.7298
▁१९७२	-10.7298
▁पतितं	-10.7298
नद	-10.7299
ुत्तम	-10.7299
▁आधृत्य	-10.7301
वाल	-10.7302
▁20	-10.7302
▁सर्वकार	-10.7303
▁,"	-10.7305
▁कैकेयी	-10.731
विक्रय	-10.7312
▁अद्भुत	-10.7314
क्षेत्रम्	-10.7314
▁नराधिपः	-10.7315
▁क्रेडिट्	-10.7315
ोपाय	-10.7318
▁कार्या	-10.7321
▁शितैः	-10.7321
प्रान्ते	-10.7322
विद्य	-10.7323
▁दीना	-10.7323
िकायाः	-10.7323
जानीहि	-10.7325
ाशन	-10.7325
▁int	-10.7327
रपि	-10.7328
▁व्ययः	-10.7329
ात्मान	-10.733
▁न्यायालय	-10.7331
ानुग	-10.7332
▁नाभि	-10.7332
▁राजसत्तम	-10.7335
▁चात्र	-10.7336
▁अवसर	-10.7337
कामा	-10.7341
▁जाते	-10.7344
▁मेन्यु	-10.7344
▁युक्तो	-10.7345
▁क्षतिः	-10.7346
▁गद	-10.735
ुक्त	-10.7352
▁यस्त्व	-10.7353
कृतः	-10.7354
▁शासक	-10.7356
लोका	-10.7361
स्तार	-10.7363
▁जानाम	-10.7367
▁धा	-10.7367
ज़े	-10.7368
▁संगीत	-10.737
ज्ञानं	-10.737
नियन्त्रण	-10.7373
▁आदेशं	-10.7374
सामग्री	-10.7374
▁परेषां	-10.7375
टू	-10.7377
समूहः	-10.7379
▁नगराणि	-10.738
वन्तो	-10.7382
▁निपातित	-10.7391
▁प्रेष्य	-10.7391
गृहे	-10.7393
▁द्वितीया	-10.7393
@	-10.7396
▁आयोवा	-10.7396
▁रजनी	-10.7397
++	-10.7397
▁पुरोहित	-10.7397
▁सूचयन्ति	-10.7399
▁अद्यतन	-10.74
▁देवर्षि	-10.7402
▁प्रेषितवान्	-10.7402
समान	-10.7405
स्तप	-10.7406
▁प्रसव	-10.7408
▁अनुभवन्ति	-10.7409
ाञ्छ	-10.741
▁महीपते	-10.7411
▁यूयम्	-10.7414
▁7	-10.7415
▁अगस्त्य	-10.7416
▁यज	-10.7416
▁बन्ध	-10.7416
▁वसति	-10.7421
▁मनुष्याणा	-10.7423
▁पाण्डुर	-10.7424
▁नामक	-10.7427
▁पतिः	-10.7427
▁जनेभ्यः	-10.7429
▁वक्तु	-10.7431
▁सुहृदा	-10.7435
▁हिमालय	-10.7436
▁ब्रि	-10.7439
▁श्रेष्ठो	-10.744
▁द्विधा	-10.7441
▁इत्याख्य	-10.7442
न्यू	-10.7443
▁विजयाय	-10.7445
▁जगाद	-10.7447
▁पोप्	-10.7448
▁क्षत्रधर्म	-10.7448
क्रीडकाः	-10.7452
▁पर्यटन	-10.7453
▁शोधन	-10.7456
▁विफल	-10.7457
▁कलह	-10.7459
म्प	-10.746
विह	-10.7461
ाभवत्	-10.7463
▁किन्त्व	-10.7465
▁नोप	-10.7466
▁एकमेव	-10.7467
ीकरोति	-10.7467
▁एतत	-10.7468
▁राज्यम्	-10.7469
ोऽभ्य	-10.7469
मृ	-10.7471
त्रे	-10.7472
प्रभृति	-10.7474
▁ट्रे	-10.7477
यदा	-10.7479
त्याग	-10.7479
▁विस्मितः	-10.748
▁फ़ार्	-10.7481
▁एतादृशं	-10.7484
▁पुत्रक	-10.7487
स्वन	-10.7488
राय	-10.7492
ाच्छ	-10.7492
द्वि	-10.7493
▁अन्येभ्य	-10.7494
▁देवदेव	-10.7496
▁प्रत्यभाषत	-10.7497
द्भिर्	-10.7497
▁त्याग	-10.7497
६६	-10.7498
▁उत्पत्तिः	-10.7498
▁स्थितौ	-10.7501
▁आजगाम	-10.7503
वज्र	-10.7503
विकल्प	-10.7504
▁चेष्ट	-10.7507
▁केन्द्रीय	-10.7508
▁मेलन	-10.751
र्पण	-10.7515
मिन्	-10.7517
▁गृहस्य	-10.7517
▁औट्पुट्	-10.752
▁त्वाम	-10.7522
वरी	-10.7522
▁उद्भूत	-10.7522
▁सहज	-10.7523
▁मैक्रो	-10.7524
▁ख्रीष्टस्य	-10.7526
▁भोज्य	-10.7526
▁रक्षा	-10.7528
▁पूजां	-10.7531
▁राजानो	-10.7537
९०	-10.7541
▁कुर्वाण	-10.7543
टिन्	-10.7543
▁धीमान्	-10.7544
▁आवश्यकानि	-10.7545
▁शङ्का	-10.7546
▁मौल्य	-10.7546
▁भ्राम	-10.7548
▁आप्	-10.755
वाजि	-10.7551
▁पन्थान	-10.7552
तुल	-10.7553
वित्त	-10.7553
चाम्पियन्शिप्	-10.7556
▁राजर्षि	-10.7558
▁तटे	-10.7558
ेथा	-10.756
▁बाल्	-10.756
▁निराश	-10.7564
चालन	-10.7564
▁ब्राह्मणः	-10.7565
चिन्तय	-10.7566
▁साम्राज्य	-10.7569
▁सामान्यं	-10.7571
वर्ति	-10.7573
अन्ताराष्ट्रिय	-10.7578
गस्त्य	-10.7578
मतं	-10.7579
▁मृद	-10.758
▁तप्त	-10.7581
▁मुञ्च	-10.7582
▁स्वाद	-10.7582
▁स्थानान्तरित	-10.7584
▁ध्यानं	-10.7591
▁रहस्य	-10.7594
▁इतः	-10.7596
▁अगृह्णात्	-10.7597
▁इतीयं	-10.7597
टेक्	-10.7597
▁स्थापयित्वा	-10.7597
यतां	-10.7598
▁व्यग्रः	-10.7598
▁मूत्र	-10.7599
▁भीमेन	-10.7599
▁एवमुक्ता	-10.7601
▁ऐस्	-10.7603
▁स्थित्वा	-10.7604
वच्च	-10.7607
▁सहस्राक्ष	-10.7608
▁class	-10.7608
▁शान्तनव	-10.7608
▁तन्त्रांश	-10.7609
दध	-10.761
▁कुटुम्ब	-10.7611
हू	-10.7612
▁स्वरूप	-10.7613
▁हनूमान्	-10.7617
विश्वास	-10.7618
▁लेभे	-10.7621
वाच	-10.7622
▁स्वपुत्र	-10.7622
▁हाल्	-10.7625
रेड्	-10.7626
करणम्	-10.7627
स्तिष्ठ	-10.7628
▁मानक	-10.7628
▁स्ट्रिङ्ग्	-10.763
▁गुरुः	-10.763
▁बलिना	-10.7632
▁आगामि	-10.7633
ताया	-10.7633
ाभिमुख	-10.7637
प्रज्ञ	-10.7639
▁गान्धार	-10.7639
▁फ़ै	-10.764
▁अन्ध	-10.7641
▁दद्या	-10.7645
▁आरोहण	-10.7645
ार्थी	-10.7647
ut	-10.765
▁खेल	-10.765
▁बाला	-10.765
▁धनंजयम्	-10.7651
ारण्य	-10.7652
▁समर	-10.7652
स्थिति	-10.7652
am	-10.7655
मोक्ष	-10.7656
बर	-10.7658
▁वारं	-10.7658
तटे	-10.766
पुरोगमाः	-10.766
▁प्रतीक	-10.7667
▁गम	-10.7669
▁तपस्विन	-10.767
▁ग्रामीण	-10.767
चित्रं	-10.7673
ामो	-10.7674
ट्टा	-10.7676
त्रिंश	-10.7676
▁भ्रष्ट	-10.7676
▁सङ्गीतस्य	-10.7679
▁नार्	-10.768
माश्रम	-10.7681
वेगेन	-10.7682
सफलतया	-10.7682
ारि	-10.7684
▁श्रेयो	-10.7686
▁कन्दुकं	-10.7687
▁शरैर्	-10.7687
विवाह	-10.7687
▁आल	-10.7691
गढ	-10.7696
▁राघवस्य	-10.7697
▁प्यारिस्	-10.7699
▁रचयितुं	-10.77
▁पश्चिमदिशि	-10.7703
▁ब्रह्मचर्य	-10.7703
ोद्भव	-10.7703
▁असि	-10.771
ङ्गे	-10.7712
▁माल्	-10.7713
▁प्रणम्य	-10.7713
▁अवर्तत	-10.7714
▁प्रादेशिक	-10.7714
▁मुखं	-10.7714
ामर	-10.7715
▁FrontAccounting	-10.7716
त्थ	-10.7716
▁पठन	-10.7718
▁क्रीडन्ति	-10.7719
▁नेशनल्	-10.772
पुरं	-10.772
▁गच्छतु	-10.7721
▁जाताः	-10.7722
रुद	-10.7724
परो	-10.7728
▁स्रोत	-10.7729
▁सीतया	-10.7729
▁कतिपयानि	-10.7731
▁सहायता	-10.7732
ग्राहक	-10.7732
▁विकार	-10.7734
नुत्तम	-10.7735
▁भ्रमण	-10.7735
ञ्जय	-10.7736
▁९०	-10.7736
▁New	-10.7739
प्रजा	-10.774
▁विज्ञापन	-10.7741
ञ्जन	-10.7743
▁विषाद	-10.7744
क्षिप्त	-10.7746
व्यम्	-10.7746
▁विद्ध	-10.7748
▁तेज	-10.775
लान्	-10.775
▁हन्त	-10.7752
▁जलाशय	-10.7753
ोऽर्थ	-10.7755
▁निर्यात	-10.7756
इति	-10.7757
▁मध्यप्रदेश	-10.776
▁व्यथित	-10.776
▁देवान्	-10.7763
हार्	-10.7764
▁सुतो	-10.7767
ोक्तं	-10.7767
▁न्यूनः	-10.7769
ृत	-10.7771
पार्	-10.7772
टक	-10.7775
▁i	-10.7776
ियन्	-10.7776
सेवायाः	-10.7777
▁सामर्थ्य	-10.7777
ोरसि	-10.7779
▁विरुद्धम्	-10.7781
ोग्र	-10.7781
▁प्रभव	-10.7782
▁कृतास्त्र	-10.7783
निर्देश	-10.7783
फ़ील्ड्	-10.7785
▁जग	-10.7789
▁विन	-10.7793
भीत	-10.7795
▁विलम्ब	-10.7796
▁रुचिर	-10.7796
▁पदाति	-10.7797
▁लक्ष्मणेन	-10.7798
▁श्राद्ध	-10.7802
▁बिल	-10.7802
▁१९७७	-10.7803
▁१९८८	-10.7803
▁१९८६	-10.7803
जुष्ट	-10.7804
▁धैर्य	-10.7805
▁वैश्रवण	-10.7806
▁ऊपर	-10.7811
शताब्द्या	-10.7811
▁प्रीत्या	-10.7812
कान्त	-10.7812
▁स्वीकर्तुं	-10.7813
ोऽन्य	-10.7813
▁Student	-10.7816
▁प्रददौ	-10.7818
▁बले	-10.7819
▁सीमित	-10.7819
▁कृपण	-10.782
▁समुद्रस्य	-10.7821
▁परम्परा	-10.7821
▁वालिन	-10.7823
▁बौ	-10.7823
चर्म	-10.7824
▁द्रोणेन	-10.7829
▁बाध	-10.7832
▁निः	-10.7834
▁जनसमूह	-10.7836
▁वर्तमानस्य	-10.7836
▁निर्देशकः	-10.784
मात्मानं	-10.784
▁पोर्ट्	-10.7841
▁वर्म	-10.7841
▁शक्नुम	-10.7842
▁तदैव	-10.7843
▁पुरं	-10.7844
कर्षण	-10.7847
▁बाधित	-10.7847
▁number	-10.7848
▁अपेक्षा	-10.785
▁पच	-10.7855
▁यथाकाम	-10.7856
▁रुक्म	-10.7858
▁थ	-10.7858
५८	-10.7858
▁युगल	-10.7858
७१	-10.7859
च्छ्र	-10.7859
▁मुक्ता	-10.7863
ासन्	-10.7864
युगस्य	-10.7866
भीम	-10.7869
▁अन्तिमं	-10.787
▁वृद्धा	-10.7871
▁क्षिप्त	-10.7873
ांसि	-10.7876
▁सञ्चिकायाः	-10.7881
▁द्विगुण	-10.7886
+	-10.7888
H	-10.789
काम्	-10.7891
▁स्पर्धासु	-10.7891
प्रासाद	-10.7892
▁वाक्यानि	-10.7892
▁सम्पर्कं	-10.7893
▁मोद	-10.7898
अभिलेख	-10.7898
िकां	-10.79
▁सफलता	-10.7902
▁आग्नेय	-10.7906
▁भवितुमर्हति	-10.7906
▁१९७८	-10.7907
▁भवेदिति	-10.7907
▁ब्रुवत	-10.7908
▁प्राणिना	-10.7909
▁विधीयते	-10.7911
▁देव्या	-10.7911
▁प्रतिजग्राह	-10.7912
▁तमा	-10.7912
▁रेस्	-10.7912
▁इत्यादिभिः	-10.7915
▁डेटा	-10.7916
मानव	-10.7917
मिदमब्रवीत्	-10.7917
२९	-10.7918
मग्नि	-10.792
▁कर्तव्यम्	-10.792
▁चित्रसेन	-10.7921
▁श्रोतुं	-10.7922
मारुह्य	-10.7922
▁यशस्विनी	-10.7925
▁नै	-10.7925
▁बालकः	-10.7928
▁वर्यस्य	-10.793
▁शत्रून्	-10.7932
४६	-10.7933
▁रक्षो	-10.7934
▁प्रातः	-10.7935
▁ब्रिटन्	-10.7936
▁सिद्धान्त	-10.7938
▁ब्राण्ड्	-10.7939
▁दुष्	-10.794
▁युधिष्ठिरो	-10.794
▁स्थापन	-10.794
▁मृगया	-10.794
▁शुल्कं	-10.7941
्यौ	-10.7945
▁योजनां	-10.7948
▁ध्रुवम्	-10.7949
▁धारा	-10.7951
▁श्लाघ	-10.7951
तेन	-10.7953
पुण्य	-10.7954
▁विस्तर	-10.7956
रिक	-10.7958
▁दीर्घकालीन	-10.7958
▁पाषाण	-10.7961
हितं	-10.7962
ब्रह्म	-10.7967
▁स्वगृह	-10.7968
▁अधीने	-10.7968
▁पूरय	-10.7973
▁स्पर्धां	-10.7974
▁भगव	-10.7976
मुत्	-10.7977
▁प्लव	-10.798
▁संवर्त	-10.7981
नृत	-10.7986
पल	-10.7989
च्य	-10.7989
लार्	-10.7989
माता	-10.7993
क्रयण	-10.7993
▁फा	-10.7996
▁कट	-10.7996
लाल्	-10.7999
घन	-10.8
विशिष्ट	-10.8003
▁दाशार्ह	-10.8006
▁दृष्ट्या	-10.8007
िल	-10.8007
▁धान्य	-10.8008
मन्यु	-10.8008
मधि	-10.8009
प्रकारक	-10.801
ावर्त	-10.801
▁फ़ङ्क्षन्	-10.8011
▁ब्रुवाण	-10.8011
▁स्क्रोल्	-10.8011
▁माद्रीपुत्र	-10.8013
▁सम्बन्धः	-10.8015
▁महामनाः	-10.8015
▁लब्ध्वा	-10.8015
▁हैदर्	-10.8015
▁प्राप्स्यति	-10.8015
▁सर्वकारस्य	-10.8017
▁यच्छति	-10.8019
लोभ	-10.8019
उद्यान	-10.802
▁जेम्स्	-10.802
तेज	-10.8022
▁प्रदीप्त	-10.8022
▁विरथ	-10.8023
▁जर्मनीदेशस्य	-10.8024
समं	-10.8025
▁हेतो	-10.8025
▁प्रतिष्ठा	-10.8028
माख्या	-10.8028
▁एवम्	-10.8029
▁उत्कीर्ण	-10.8029
▁सुमन्त्र	-10.8029
▁क्रीडासु	-10.8031
नेस्	-10.8031
टौन्	-10.8032
▁सन्देश	-10.8032
et	-10.8032
▁अमन्यत	-10.8034
▁विस्तरेण	-10.8034
▁कर्नाटक	-10.8035
ध्वनि	-10.8035
दृष्टि	-10.8035
▁भयानक	-10.8035
िणा	-10.8037
कन्या	-10.8037
▁मेल	-10.8037
▁अभियोग	-10.8039
ाध्यक्ष	-10.804
▁सुमहान्	-10.804
▁यावद	-10.8042
▁अन्त्य	-10.8043
ययौ	-10.8045
▁अन्विष्य	-10.8045
विपण	-10.8046
▁गच्छेत्	-10.8047
▁इण्डियन्	-10.8049
▁गणना	-10.8052
मर्हति	-10.8052
▁सुमहत्	-10.8056
ीन	-10.8058
▁मिस्	-10.8058
▁अग्रिमे	-10.8063
चय	-10.8063
▁परिवर्त	-10.8064
क्रीडायाम्	-10.8067
▁अधर्म	-10.8068
▁रव	-10.8068
▁ऋषय	-10.8073
▁बृहद्	-10.8076
▁क्षिप	-10.8079
▁त्रय	-10.8081
▁चित्रण	-10.8083
भूय	-10.8087
▁शैली	-10.8088
न्यथा	-10.8088
नेल्	-10.809
ोऽत्र	-10.8091
दम	-10.8092
▁अना	-10.8092
▁दुर्गस्य	-10.8093
▁तदानीं	-10.8096
▁पुनर्निर्माण	-10.8097
▁दिवाकर	-10.8099
▁विघ्न	-10.8101
▁जाति	-10.8101
▁परियोजना	-10.8102
सूची	-10.8105
▁श्याम	-10.8106
▁निहता	-10.8106
औट्	-10.8107
पत्ति	-10.811
ाप्युदाहरन्तीम	-10.8117
▁सृञ्जय	-10.8118
▁अस्थापयत्	-10.8118
▁डौन्लोड्	-10.8118
▁bar	-10.8119
▁प्रायश	-10.8119
▁प्रथित	-10.8119
ितैः	-10.812
▁अनुभवामि	-10.8123
▁तरसा	-10.8123
ेता	-10.8124
▁वेतन	-10.8124
कृष्ट	-10.8124
रीस्	-10.8127
धर्मेण	-10.8127
्युवाच	-10.8128
ावस्था	-10.8129
▁विबुध	-10.813
▁क्यालिफ़ोर्निया	-10.813
▁अभिनीत	-10.8131
तैल	-10.8132
▁गुह्य	-10.8134
ाह्वय	-10.8136
▁डाट्	-10.8136
कोप	-10.8137
धीरे	-10.8137
कीर्त	-10.8138
मस्य	-10.8138
ाशा	-10.814
विव्याध	-10.8141
वर्चस	-10.8142
▁अतिथि	-10.8144
▁संस्करण	-10.8149
उत्सवः	-10.8153
मर्जुन	-10.8156
▁परिरक्ष	-10.8159
▁विमर्शक	-10.816
मात्म	-10.8161
विशारद	-10.8164
▁सीताया	-10.8164
▁दोषः	-10.8166
▁जीवन्ति	-10.8173
ान्तक	-10.8173
मात्रं	-10.8174
यस्व	-10.8175
▁मन्यु	-10.8179
▁विनिहत	-10.818
▁धर्मराजो	-10.8181
▁फ़िल्म्	-10.8184
मात्रा	-10.8194
▁समागताः	-10.8194
▁ब्याङ्क्	-10.8195
▁पश्यता	-10.8197
▁यन्	-10.8199
▁कृश	-10.8199
▁प्रेषय	-10.82
▁भक्षय	-10.8205
६१	-10.8207
फलक	-10.8207
स्कन्ध	-10.8211
▁बह्व	-10.8212
▁रथिन	-10.8213
▁अस्मिन	-10.8213
▁भाटक	-10.8213
▁यीशुर	-10.8214
▁लम्ब	-10.8216
▁मेक्	-10.8216
गान्	-10.8216
विस्तार	-10.8217
▁देशः	-10.8217
▁आयत	-10.8218
युक्तस्य	-10.8222
▁अस्थि	-10.8224
▁निम्नलिखित	-10.8225
▁कर्तुमर्हसि	-10.8225
▁पर्वतः	-10.8226
▁तिस्र	-10.8226
▁बभाषे	-10.8227
▁अवरोध	-10.8228
▁विदेश	-10.823
प्सु	-10.823
ैका	-10.823
ितान्	-10.8231
▁हुत	-10.8231
▁तक	-10.8233
▁वदत	-10.8233
▁समाप्यते	-10.8235
▁प्रतिमासं	-10.8237
▁प्रथमस्य	-10.8237
▁भूतपूर्व	-10.8239
हौ	-10.8239
▁वर्धन	-10.824
▁प्रताप	-10.8242
▁वैध	-10.8242
▁लक्ष्यं	-10.8244
▁पृथु	-10.8244
▁पिहित	-10.8245
▁परमेश्वर	-10.8247
कालः	-10.8248
िप्	-10.8248
▁काश्यप	-10.8248
▁उपवास	-10.825
▁शुभम्	-10.8251
▁आर्य	-10.8253
▁प्रवक्ष्याम	-10.8257
▁शुचिः	-10.8257
▁मैत्री	-10.8258
क्षये	-10.8263
ापराध	-10.8266
स्वामि	-10.8267
▁आरम्भात्	-10.8267
लक्षणम्	-10.8267
▁मतं	-10.8269
नानि	-10.8269
ट्री	-10.827
▁रघुनन्दन	-10.8272
▁जननी	-10.8272
कार्यालय	-10.8274
स्तस्मिन्	-10.8276
र्नि	-10.8277
▁प्रणय	-10.8277
▁रत्नानि	-10.8277
सर्वकारः	-10.828
क्रे	-10.8284
जानामि	-10.8284
▁लिखितं	-10.8285
सृष्ट	-10.8288
संस्थान	-10.829
वर्त्	-10.829
▁कृष्णो	-10.8295
▁शुल्क	-10.8297
▁सुतं	-10.8303
सप्ताह	-10.8306
ग्रस्त	-10.8306
ाशय	-10.8308
नसूय	-10.8309
लिय	-10.8312
▁आवश्यकम्	-10.8313
▁बाहू	-10.8314
पाक	-10.8318
▁सुलभं	-10.832
पश्चिम	-10.8322
▁यादव	-10.8323
▁तापमानं	-10.8324
▁वर्षं	-10.8324
▁बहव	-10.8326
स्तम	-10.8326
▁सैन्यस्य	-10.8328
▁निष्कासित	-10.8332
कौन्सिल्	-10.8334
▁वार्तालाप	-10.8334
▁अत्यल्प	-10.8334
▁चिन्तयामास	-10.8334
▁देशाः	-10.8335
तट	-10.8335
▁शतशोऽथ	-10.8335
▁तत्क्षणमेव	-10.8336
▁व्याकुल	-10.8336
▁कथ्यन्ते	-10.8338
▁स्थापयतु	-10.8339
▁सैन्यानि	-10.834
▁तावुभौ	-10.8342
▁कार्यस्य	-10.8342
▁यौ	-10.8344
नया	-10.8344
▁निर्गत	-10.8344
▁इतर	-10.8347
▁स्वीकृतवान्	-10.8347
▁रिपब्लिकन्	-10.8348
सम्पन्ना	-10.8349
र्हि	-10.8351
▁स्निग्ध	-10.8352
मतस्य	-10.8352
ेषा	-10.8352
▁पोत	-10.8359
त्वम्	-10.836
सङ्घः	-10.8362
्यमानं	-10.8364
▁परीक्षा	-10.8364
हानि	-10.8366
▁तत्सम्बद्ध	-10.8366
▁पल्लव	-10.8368
▁test	-10.8368
ीकरणस्य	-10.837
स्तीक्ष्ण	-10.837
▁मेरु	-10.8373
पुङ्गव	-10.8373
▁घोषणा	-10.8374
▁सन्त	-10.8374
ञ्	-10.8376
प्रसारण	-10.8381
▁नरो	-10.8382
शताब्द	-10.8386
▁इतीमा	-10.8386
तम्	-10.8387
▁अङ्गद	-10.8389
मन्दिरम्	-10.839
समीपे	-10.839
षी	-10.8391
▁कमल	-10.8392
▁ततश्च	-10.8401
▁रक्षणार्थं	-10.8401
इत्य	-10.8403
▁प्रस्ताव	-10.8404
▁प्रतियोगिता	-10.8406
▁आवास	-10.8406
पिङ्ग्	-10.8407
▁शृङ्खला	-10.8411
▁विशुद्ध	-10.8411
कोण	-10.8413
▁X	-10.8414
▁स्पेस्	-10.8415
▁आदेशः	-10.8415
वाद्य	-10.8416
ब्स्	-10.8417
ीस्	-10.8417
बिन्दु	-10.8419
िके	-10.8421
▁आचर	-10.8423
ष्टौ	-10.8423
▁कू	-10.8424
▁तत्त्वेन	-10.8426
मागतः	-10.8428
▁टैप्	-10.8428
फो	-10.8429
हास	-10.843
▁प्रण	-10.8431
वर्जित	-10.8431
▁मामक	-10.8433
निर्णय	-10.8435
लित	-10.8435
शैल्या	-10.8436
रुह्य	-10.8436
वर्ल्ड्	-10.8436
३५	-10.8437
▁!	-10.8437
▁युष्माभिः	-10.8437
▁बुद्धिं	-10.8438
सङ्गणक	-10.8439
सहितं	-10.8442
▁समूहस्य	-10.8443
बिया	-10.8443
▁जार्ज्	-10.8443
▁महीतले	-10.8444
▁१९८१	-10.8444
▁१९६४	-10.8445
▁१९७५	-10.8445
कारा	-10.8447
▁प्रकल्प	-10.8448
▁हैदराबाद्	-10.8448
▁प्रयतन्ते	-10.8448
▁क्षुर	-10.845
भ्युप	-10.845
▁शरजाल	-10.845
▁गच्छन्	-10.8451
▁फुफ्फुस	-10.8452
▁अनुकूल	-10.8453
▁टिप्पणी	-10.8455
▁आचरन्ति	-10.8455
रेक्	-10.8459
▁परैः	-10.8459
सम्भव	-10.8461
▁आज्ञा	-10.8465
परियोजना	-10.8465
मभवत्	-10.8466
▁परिपूर्ण	-10.8468
निर्घोष	-10.8472
जान्	-10.8472
▁गीतस्य	-10.8475
▁new	-10.8475
▁यशो	-10.8477
▁हन्या	-10.848
तिक्रम	-10.8481
▁अतएव	-10.8481
▁सुखी	-10.8482
▁इद	-10.8483
ऽद्य	-10.8483
▁गन्धर्वा	-10.8484
भया	-10.8487
▁यीशुस्त	-10.8489
आय	-10.8489
▁विशेषेण	-10.8492
वार्ता	-10.8493
५००	-10.8493
प्ले	-10.8494
तेजा	-10.8502
▁चक्षुषा	-10.8502
्ला	-10.8504
▁रति	-10.8504
मात्य	-10.8508
कर्मा	-10.8508
▁स्वजन	-10.8509
▁विरुद्ध	-10.8513
▁श्रेष्ठः	-10.8513
क्यु	-10.8515
तीर	-10.8515
९८	-10.8516
▁पूर्णं	-10.8519
▁अष्टम	-10.8519
▁तस्यै	-10.8523
▁सङ्	-10.8525
▁मुख्यालयः	-10.8526
ात्मन	-10.8528
▁नानु	-10.8529
देशम्	-10.853
▁अन्तरिक्ष	-10.8535
प्या	-10.8535
▁मुदा	-10.8541
वृत्तिः	-10.8541
▁तिरु	-10.8541
भक्ष्य	-10.8543
▁मुख्यः	-10.8545
▁सचिव	-10.8545
ार्ता	-10.8547
▁जग्मुः	-10.8553
द्भुत	-10.8554
▁अपेक्षते	-10.8555
▁शुश्राव	-10.8555
▁रचयन्तु	-10.8555
▁१९७६	-10.8556
▁अपितु	-10.8556
ासीन	-10.8556
सूत्र	-10.8557
▁निवारण	-10.8558
ञ्छ	-10.8558
▁उपविष्ट	-10.8559
क्लिक्	-10.856
▁सदस्या	-10.8561
कम	-10.8561
च्छेद	-10.8562
▁व्याधि	-10.8565
▁यदृच्छया	-10.8566
▁पराजित्य	-10.8566
▁सफलं	-10.8568
भवद्	-10.8568
परायण	-10.8572
▁विकिपीडिया	-10.8572
श्चास्य	-10.8578
▁वृक्षस्य	-10.8582
ाभ्याम	-10.8583
▁कानन	-10.8584
▁समाविष्ट	-10.8584
▁काश्मीर	-10.8591
▁सेल्	-10.8593
ीयम्	-10.8596
▁ब्रो	-10.8596
▁रम	-10.8597
▁अवा	-10.8598
▁user	-10.8599
ऽर्थ	-10.8599
▁रच	-10.86
▁त्वमेव	-10.8601
लभ	-10.8602
ैन	-10.8602
पुरी	-10.8603
▁पोस्ट्	-10.8612
▁गोल्स्	-10.8615
▁विनिमय	-10.8619
▁राम्	-10.862
▁हिंस	-10.8622
न्यायालय	-10.8622
धनुर्धर	-10.8625
पुरा	-10.8629
▁शिक्षण	-10.8631
▁दुःखिता	-10.8634
▁प्रतिनिधि	-10.8638
गल	-10.8639
वति	-10.8639
▁संविधान	-10.8642
▁दुर्योधनः	-10.8644
▁शूरः	-10.8645
मुनि	-10.8645
▁अस्	-10.8647
▁ग्रस	-10.8649
▁सन्देशं	-10.865
▁दशा	-10.865
मतिः	-10.8651
▁वीक्ष्य	-10.8652
पालन	-10.8653
फुट्बाल्	-10.8659
▁ब्रह्मणा	-10.8662
राज्	-10.8663
मेल्	-10.8664
▁पुरुषस्य	-10.8664
▁रख	-10.8666
स्यामि	-10.8666
▁संप्र	-10.8666
▁शिकागो	-10.8667
०५	-10.8668
▁आविष्कार	-10.8669
सुता	-10.867
▁तमवर्षपर्यन्तं	-10.8671
▁एकस्मात्	-10.8673
▁निर्दिशति	-10.8673
▁सुदुर्	-10.8674
वर्म	-10.8675
▁वर्णित	-10.8676
▁नैत	-10.8678
चलच्चित्रस्य	-10.8678
▁लोकपाल	-10.8678
▁आघात	-10.8679
▁जामदग्न्य	-10.8679
ent	-10.8681
▁परिवर्तते	-10.8682
▁अस्तीति	-10.8682
ोद्यत	-10.8683
लिक्	-10.8683
वांश्च	-10.8684
▁तदह	-10.8684
सत्य	-10.8685
▁परान्	-10.8685
▁प्रेक्षक	-10.8685
राशि	-10.8687
▁पुस्तकानि	-10.8689
▁कथयन्ति	-10.869
▁प्ले	-10.869
▁बू	-10.869
▁गायक	-10.869
▁अशोक	-10.8691
ैश्वर्य	-10.8692
▁इत्येतद्	-10.8693
२६	-10.8695
व्स्	-10.8696
▁केन्द्रित	-10.8697
व्ययः	-10.8698
लोचन	-10.8698
▁भूरि	-10.8699
ृष	-10.87
▁वायुः	-10.8701
▁एक्स	-10.8701
स्टिक्	-10.8701
▁मूल्याङ्कन	-10.8702
▁राजमार्ग	-10.8705
▁वाहिनी	-10.8706
मूर्ति	-10.8708
▁एवमुक्तो	-10.8708
ोचित	-10.8709
ाभिहत	-10.8709
▁राक्षसानां	-10.871
माने	-10.871
▁मित्रं	-10.871
▁व्यतीत	-10.8714
▁प्रतिनिधित्वं	-10.8715
ाधिपति	-10.8716
▁लक्षणं	-10.8718
लता	-10.8718
▁संरचना	-10.8718
▁मतम्	-10.8719
▁पोलो	-10.872
▁दह	-10.8722
▁समाप्तम्	-10.8722
▁शोभ	-10.8722
विभागे	-10.8722
मही	-10.8726
▁अदृश्य	-10.8726
▁समभवत्	-10.8726
सर्ग	-10.8728
ग्राह्य	-10.8728
क्षेत्राणि	-10.8729
ोत्तमम्	-10.8732
▁एवमुक्त	-10.8734
▁प्रार्थय	-10.8735
▁चाब्रवीत्	-10.8736
मार्गः	-10.8737
▁कार्यक्रमः	-10.8738
▁विद्यमाना	-10.874
▁प्रमाद	-10.8742
▁वानरः	-10.8742
▁शूरो	-10.8742
▁हन्ता	-10.8742
ताम	-10.8743
श्वा	-10.8744
पर्ण	-10.8745
विस्तर	-10.8748
युक्तानां	-10.8752
पत्त	-10.8756
जै	-10.8758
▁फ़्री	-10.8759
▁भर	-10.876
▁प्रसीद	-10.8764
शास्त्रीय	-10.8764
माल्य	-10.8765
रोस्	-10.8766
ञ्जा	-10.8768
द्वेष	-10.8768
▁गुणाः	-10.8769
वक्त्र	-10.8769
पितामह	-10.877
▁नियुक्त	-10.877
दौ	-10.8771
फर्	-10.8772
णः	-10.8774
F	-10.8774
▁पुण्या	-10.8776
▁आद	-10.8776
▁द्विष	-10.8777
▁अस्साम्	-10.8781
▁रमणीय	-10.8781
ट्रो	-10.8782
▁हाथों	-10.8782
▁महाद्युतिः	-10.8783
▁न्यवेदयत्	-10.8783
मती	-10.8783
स्थलं	-10.8784
▁मुख्यपात्र	-10.8784
▁पिधान	-10.8784
▁ईदृश	-10.8785
▁दिशम्	-10.8785
ङ्गद	-10.8786
▁प्रह्लाद	-10.8786
▁विश्रुतः	-10.8786
▁अक्षराणि	-10.8788
▁ताभ्या	-10.8789
तरः	-10.8789
▁चिह्नं	-10.8789
▁नेतु	-10.879
▁रज	-10.8793
▁मूल्यानि	-10.8793
श्म	-10.8793
▁उत्तराधिकारी	-10.8793
ेतर	-10.8794
▁सरोवर	-10.8794
दीन्	-10.8795
▁वधं	-10.8799
स्थे	-10.88
▁नेतृत्व	-10.8802
▁दर्प	-10.8803
▁सुमहा	-10.8803
▁पूर्वज	-10.8803
▁वहन्ति	-10.8804
▁Firefox	-10.8804
▁उपदेश	-10.8804
▁प्रभृति	-10.8804
▁मू	-10.8804
▁उत्तरे	-10.8805
िद्	-10.8807
▁वारुण	-10.8807
▁गुजरात	-10.8807
▁तुलना	-10.8808
▁सङ्क्रमण	-10.8813
▁महेश्वर	-10.8813
▁सेतु	-10.8814
प्रकारस्य	-10.8814
▁अपश्यत्	-10.8815
▁सामान्यः	-10.8816
▁शिक्षक	-10.8819
ल्ली	-10.8819
▁कुमार्	-10.8819
▁वक्त्र	-10.8822
▁स्वा	-10.8826
मूलं	-10.8826
अली	-10.8827
▁कुपित	-10.8828
संध	-10.8832
▁कर्मचारिणः	-10.8833
नन्त	-10.8833
▁मुद्रित	-10.8835
ांस्तान्	-10.8835
सत्र	-10.8835
▁महर्षयः	-10.8836
▁सम्पत्ति	-10.8838
▁रामे	-10.8843
नित्यं	-10.8844
▁निर्माणे	-10.8844
क्रम्य	-10.8844
गते	-10.8848
▁संकल्प	-10.8848
▁तिल	-10.8849
▁अभावः	-10.885
र्थे	-10.885
गोल	-10.8851
▁न्यूनीकृत	-10.8855
लिस्ट्	-10.8858
श्चर	-10.8861
▁तर्ज	-10.8862
विरोध	-10.8865
प्रस्थ	-10.8866
दृष्ट्वा	-10.8867
▁कल्पना	-10.8867
तेजसा	-10.8869
दार्	-10.887
▁रेकार्ड्	-10.8876
हाल्	-10.8878
▁सर्वेभ्यः	-10.8879
उत्सव	-10.8879
सैन्यं	-10.8884
स्थापन	-10.8889
खि	-10.8892
▁ग्रहण	-10.8893
प्रश्न	-10.8895
▁बाम्बे	-10.8896
▁दुरात्मनः	-10.8897
▁१९७४	-10.8897
▁महारणे	-10.8899
स्पोकन्	-10.8899
लियो	-10.8899
▁अनुसृत्य	-10.89
▁गृहम्	-10.8901
▁कथन	-10.8902
▁सुग्रीवो	-10.8902
देय	-10.8902
▁आव	-10.8904
▁भ्रान्त	-10.8905
स्तरीय	-10.8906
व्यसन	-10.8908
▁देवासुर	-10.8908
ation	-10.8908
ोपमः	-10.8909
▁हिन्दू	-10.8909
चित्राणि	-10.8909
३३	-10.8909
▁सत्सु	-10.891
▁H	-10.8912
▁पाण्डवम्	-10.8912
भूमौ	-10.8913
▁प्रतिद्वन्द्विन	-10.8915
पद्यते	-10.8915
▁उत्तमम्	-10.8916
▁मनोरञ्जन	-10.8916
िमा	-10.8917
मात्रेण	-10.8917
▁आयोजिता	-10.8917
वाम	-10.8918
मद्	-10.8918
▁t	-10.8919
महि	-10.8919
▁धारयति	-10.8919
▁पुरुषा	-10.8922
स्का	-10.8925
▁मदीय	-10.8925
▁होटेल्	-10.8927
▁यावत	-10.893
▁भाषित	-10.8931
▁बाहुभ्या	-10.8932
साहस्र	-10.8932
जगाम	-10.8934
ाहवे	-10.8936
मेयात्मा	-10.8936
▁जिह्वा	-10.8937
▁समर्थित	-10.8937
वर्णा	-10.8938
शान्त	-10.8938
संशयम्	-10.8939
▁दुःखितः	-10.894
▁प्राणिन	-10.8942
न्याय	-10.8945
न्महा	-10.8948
▁बिन्दु	-10.8949
संख्या	-10.8951
भागस्य	-10.8953
जेन्	-10.8955
त्यर्थं	-10.8955
▁साधारण	-10.8955
शिक्षा	-10.8957
थै	-10.8958
वर्षे	-10.8958
सहस्रेण	-10.8958
▁शिक्षित	-10.8959
▁तट	-10.8959
▁प्रभूत	-10.896
क्य	-10.8965
मायान्त	-10.8966
▁विनीत	-10.8969
▁शरान्	-10.897
▁समर्पय	-10.897
▁प्रहस्त	-10.8972
क्षन्	-10.8974
ावरण	-10.8974
▁नैके	-10.8977
▁पर्ण	-10.8977
▁आपक	-10.8983
▁समेत	-10.8986
शूल	-10.8986
▁कथाः	-10.8987
च्छन्न	-10.8989
▁स्पर्धाः	-10.8991
नुसारं	-10.8993
स्थापित	-10.8993
▁सत्कृत	-10.8994
ाकृति	-10.8994
▁होम्	-10.8997
▁दत्तम्	-10.8998
▁त्रिपुरा	-10.8998
▁उत्तीर्ण	-10.9
▁देवस्य	-10.9002
लन्	-10.9003
▁पुरस्कारं	-10.9005
▁सकारात्मक	-10.9005
▁सर्वकारः	-10.9005
▁सुदृढ	-10.9005
▁वैदिक	-10.9005
ासनम्	-10.9007
ैरभि	-10.9009
▁कृतो	-10.9011
▁बवेरिया	-10.9012
▁अलिखत्	-10.9012
▁ओक्लहोमा	-10.9012
ोत्पल	-10.9012
▁हनूमन्त	-10.9012
▁रुदती	-10.9012
▁चित्रित	-10.9013
▁कालान्तरे	-10.9013
▁जायन्ते	-10.9014
▁एतौ	-10.9015
ट्रे	-10.9015
▁मृत्युदण्ड	-10.9015
पन्	-10.9016
▁मराठी	-10.9017
▁बद्ध्वा	-10.9019
▁स्पष्टतया	-10.9019
▁शरवर्षेण	-10.902
▁6	-10.9021
▁शपथ	-10.9022
▁महाभुज	-10.9022
मार्केट्	-10.9027
▁अत्य	-10.9027
▁महाभारत	-10.9028
विमानस्थानकं	-10.9029
▁भवत्या	-10.9029
▁करुण	-10.9031
▁त्रिभिः	-10.9032
▁कप्	-10.9035
निर्माणं	-10.9036
▁दिशा	-10.9036
▁पटल	-10.9037
वर्धनम्	-10.9039
▁आकर्ष	-10.9039
▁पत्रं	-10.9041
▁जप	-10.9043
▁परिवारस्य	-10.9045
▁सायकैः	-10.9048
▁पदा	-10.9048
सज्ज	-10.9049
▁कोल	-10.9049
▁आरोह	-10.9052
▁वाचं	-10.9052
▁रावणेन	-10.9053
▁कीर्तय	-10.9059
▁उत्तरं	-10.9059
▁विनष्ट	-10.9059
▁कृ	-10.9061
प्रकारः	-10.9062
▁दशभि	-10.9063
क्रीडाङ्गण	-10.9063
ाञ्	-10.9063
▁वर्षसहस्र	-10.9064
वमन्य	-10.9066
▁सम्बद्धः	-10.9066
▁हुताशन	-10.9067
▁प्राप्तानि	-10.9068
▁इच्छा	-10.9069
▁प्रशान्त	-10.907
▁कुलं	-10.9071
▁इत्येतम्	-10.9072
▁शरैर	-10.9072
▁इन्द्रिय	-10.9077
▁गुह	-10.9077
▁विधाय	-10.9079
▁नर्मदा	-10.9081
▁सुमहद्	-10.9081
▁लूप्	-10.9082
▁बहुमूल्य	-10.9084
▁सख्य	-10.9085
▁वीराः	-10.9088
▁मेने	-10.909
▁मूर्ति	-10.9091
मिच्छसि	-10.9091
▁अनुभूत	-10.9092
▁अष्टौ	-10.9094
▁पातित	-10.9095
▁पितु	-10.9095
▁प्रि	-10.9103
▁यात्रिक	-10.9104
ियम्	-10.9105
शोच	-10.9107
▁सुयोधन	-10.9108
स्टो	-10.9109
ानेव	-10.9109
▁चिन्तित	-10.911
सेवाः	-10.911
पाठेऽस्मिन	-10.911
▁व्यक्ति	-10.9112
घण्टा	-10.9114
▁स्मरण	-10.9115
समुद्र	-10.9116
ग्राह	-10.9116
▁हया	-10.9118
शासनस्य	-10.9118
▁मिश्रण	-10.912
▁वासुदेवस्य	-10.9123
व्याघ्र	-10.9124
सञ्चय	-10.9127
कार्मुक	-10.9128
▁चेह	-10.9128
िष्ट	-10.9128
प्रशिक्षण	-10.9128
वादन	-10.9128
▁कृत्रिम	-10.913
▁डिक्लेर्	-10.913
▁डेविड्	-10.913
तप्त	-10.913
▁उत्कृष्ट	-10.913
▁quotes	-10.9131
कण्टक	-10.9131
द्वीपे	-10.9131
▁संचिन्त्य	-10.9132
▁रोम	-10.9132
दूरदर्शन	-10.9132
ानन	-10.9133
▁वैकर्तन	-10.9133
तुम्	-10.9133
▁विलीन	-10.9133
▁प्रियम्	-10.9133
▁निवेदय	-10.9137
▁equal	-10.9138
ासां	-10.914
▁कुण्डल	-10.914
▁पञ्जाबी	-10.914
▁साक्षाद्	-10.9141
▁ग्र	-10.9141
मनाः	-10.9144
कर्मणि	-10.9146
ादिभिः	-10.9147
०८	-10.9149
▁रेकोर्ड्	-10.9149
पूर्वकं	-10.915
▁दशम	-10.9155
▁कव	-10.9156
▁प्रारभत	-10.9156
▁भीरु	-10.9157
▁पशूनां	-10.9161
▁नेत्रे	-10.9162
पात्रं	-10.9163
▁ड्राप्	-10.9163
▁चिन्तन	-10.9164
▁वानराणा	-10.9164
▁वनस्पति	-10.9167
▁शब्दं	-10.9167
जीवित	-10.9169
▁पूर्वे	-10.9169
▁साधय	-10.9173
▁दुःखेन	-10.9174
▁मातङ्ग	-10.9177
▁अभाव	-10.9179
खण्डे	-10.9182
▁भक्त्या	-10.9182
▁गोल	-10.9182
मवाप्नोति	-10.9183
▁चैक	-10.9183
पतन्	-10.9184
िनौ	-10.9187
▁मान्य	-10.9187
माज्ञाय	-10.9188
▁भवे	-10.9188
ग्स्	-10.919
ूष	-10.9191
मन्त्री	-10.9193
विशेषं	-10.92
▁वर्षपर्यन्तं	-10.9202
गदा	-10.9205
ार्णव	-10.9206
ितुमर्हसि	-10.9206
पराक्रमः	-10.9207
▁संवादं	-10.9209
▁अन्वेषणं	-10.9209
▁प्रवेष्टुं	-10.921
▁मूर्	-10.9211
लोके	-10.9214
हेतु	-10.9215
नीत	-10.9216
गृह्य	-10.9217
मुग्र	-10.9221
ागमन	-10.9224
▁हिंसा	-10.9224
▁अर्ज	-10.9225
निपात	-10.9226
दुम	-10.9227
▁रक्षण	-10.9228
▁नामाङ्कितः	-10.923
▁परीक्षणं	-10.9233
▁पर्वतीय	-10.9233
१९४८	-10.9234
▁पत्राणि	-10.9235
▁भवितव्य	-10.9236
पटल	-10.9236
▁तन्त्र	-10.9237
▁प्रशंसित	-10.9239
ाक्षी	-10.924
▁अस्म	-10.9242
▁फि	-10.9244
ार्थम	-10.9245
▁निर्देशितं	-10.9248
▁संनतपर्वभिः	-10.9249
▁डैलाग्	-10.9249
▁शुभाशुभ	-10.9249
▁श्रूयता	-10.9249
▁म्रियते	-10.925
आफ़िस्	-10.925
▁१९७३	-10.925
▁त्वक्	-10.925
▁सिक्किम्	-10.9251
काङ्ग्रेस्	-10.9251
▁महत्त्वं	-10.9252
▁गतो	-10.9252
अपरं	-10.9254
गतम्	-10.9254
परः	-10.9255
▁नृपम्	-10.9255
नाम्नः	-10.9255
कीर्ति	-10.9256
येद्	-10.9258
▁अर्जुनः	-10.9258
▁दत्वा	-10.9258
दायक	-10.9259
▁गच्छन्त	-10.9259
सेस्	-10.9259
शियन्	-10.926
▁पङ्क	-10.9261
▁विशालः	-10.9265
▁इरान्	-10.9265
▁रजत	-10.9266
▁लैङ्गिक	-10.9266
पीडित	-10.9267
निय	-10.9268
▁वदतां	-10.9269
▁आयोजन	-10.9271
▁संस्करणं	-10.9271
▁युद्धस्य	-10.9271
▁जितवान्	-10.9273
▁यात	-10.9278
युर्	-10.9278
▁तस्मा	-10.9279
ाबाद्	-10.9282
▁सूद	-10.9282
▁गिरा	-10.9283
▁सन्दर्भे	-10.9283
योगेन	-10.9283
वाहक	-10.9284
युतानि	-10.9286
▁अट	-10.9288
▁ततस्तस्य	-10.9291
ाश्रमपद	-10.9291
▁बुद्धिः	-10.9294
▁पञ्चाल	-10.9295
चारी	-10.9296
चेतनः	-10.9297
▁प्रतिज्ञात	-10.9299
बन्धु	-10.9299
खिल	-10.9302
▁वाणी	-10.9303
रिष्ट	-10.9304
न्यास	-10.9305
▁समुदाय	-10.9308
▁वयमत्र	-10.9308
२००	-10.9314
▁पितामहम्	-10.9314
▁निःशुल्क	-10.9316
▁स्टी	-10.9316
▁उल्लेख	-10.9317
▁वेदा	-10.9318
▁धन्यवाद	-10.9321
७५	-10.9321
▁=	-10.9323
▁निरुद्ध	-10.9324
▁कार्ड्	-10.9325
▁तिष्ठत	-10.9325
ध्वे	-10.9328
▁पूर्वस्या	-10.9331
मुखा	-10.9332
ोपहत	-10.9335
▁पार्थिवाः	-10.9335
तर्	-10.9335
▁बृह	-10.9339
श्चन्द्र	-10.9345
भागं	-10.9347
सन्ध	-10.9347
▁निश्च	-10.9347
▁नियन्त्रण	-10.9349
▁प्रयोजन	-10.935
▁संस्थाः	-10.935
दाह	-10.9351
▁out	-10.9351
ऽन्य	-10.9352
क्षि	-10.9356
ाहृत	-10.9356
▁कूट	-10.9357
ानुसारेण	-10.9357
निष्ठ	-10.9359
▁चान्य	-10.9359
शिर	-10.936
मार्ज	-10.9361
▁समीक्ष	-10.9363
▁पृथ्वीराज	-10.9364
▁ऋते	-10.9364
न्यः	-10.9365
▁बाध्य	-10.9365
मीटर्	-10.9367
वर्धनः	-10.9367
▁साधनं	-10.9368
▁शिथिल	-10.9369
▁महामुनिः	-10.9369
▁इटालियन्	-10.9369
▁सुषेण	-10.9369
▁रघु	-10.937
▁मृषा	-10.937
ङ्गी	-10.937
▁स्थापयन्तु	-10.937
शाखा	-10.937
▁मेधावी	-10.937
▁त्रिदिव	-10.9371
▁ददातु	-10.9371
▁परिणीतवान्	-10.9371
ur	-10.9371
▁इतोपि	-10.9372
▁वाद्य	-10.9372
▁विकल्पाः	-10.9373
▁परिपालन	-10.9374
▁मुहम्मद्	-10.9374
▁कण्ठ	-10.9376
दाय	-10.9377
ारण	-10.9379
▁उपरितन	-10.938
च्चापि	-10.938
वर्येण	-10.9381
▁आकृति	-10.9381
केन्	-10.9382
▁नियमितरूपेण	-10.9382
भौ	-10.9383
सिङ्घ्	-10.9384
विधा	-10.9384
ोऽग्नि	-10.9385
▁अभिमन्यु	-10.9385
▁Edit	-10.9386
्येव	-10.9386
चिद	-10.9387
किन्	-10.9389
र्देव	-10.9389
▁खनिज	-10.9391
▁on	-10.9393
▁परो	-10.9394
▁छात्रः	-10.9395
विदुष	-10.9396
▁पावकः	-10.9397
▁लक्ष्यते	-10.9398
▁कौण्टी	-10.9399
▁श्रोत्र	-10.94
वत्यः	-10.9405
प्रवीर	-10.9406
▁प्रतिवेदन	-10.9406
रिंदम	-10.9407
▁गन्तुम्	-10.9408
यद	-10.9409
▁सुदारुण	-10.9409
वृष	-10.9412
ात्मजा	-10.9416
▁पूर्व्वं	-10.9416
भाषासु	-10.9418
स्ट्रा	-10.9418
व्यग्र	-10.9419
▁समागम	-10.9419
टन	-10.942
ऽर्जुन	-10.9422
मुखे	-10.9423
ge	-10.9425
▁स्थितो	-10.9425
▁परामर्श	-10.9427
कोड्	-10.9428
▁समर्थन	-10.9429
विषयक	-10.9429
चर्या	-10.9429
रूपम्	-10.943
▁संस्थापित	-10.9431
▁ययुः	-10.9431
▁मञ्च	-10.9431
पय	-10.9431
ब्रू	-10.9432
▁शङ्कर	-10.9434
▁प्रोक्तं	-10.9434
▁पञ्चसु	-10.9435
▁तवा	-10.9436
ास्त्व	-10.9436
▁गृह्णाति	-10.9436
▁जातो	-10.9439
▁पालित	-10.9441
▁गमिष्यति	-10.9443
▁ददृशुः	-10.9444
ऽऽत्म	-10.9444
र्प	-10.9444
डिक्	-10.9446
मार	-10.9446
▁ग्या	-10.9448
ैतद	-10.9448
▁गर्	-10.9449
▁राक्	-10.945
स्थाय	-10.9451
ुल्	-10.9452
▁चिन्तयन्	-10.9458
भारते	-10.9459
▁कुर्युः	-10.946
ort	-10.9461
▁आगताः	-10.9461
भो	-10.9462
▁साहस	-10.9463
स्थानस्य	-10.9463
पादप	-10.9464
विरुद्ध	-10.9465
▁दुर्योधनस्य	-10.9465
ञ्च्	-10.9466
▁प्रतिरोध	-10.9467
ाश्रमे	-10.9467
यान्ति	-10.9468
ोष	-10.9468
▁सीते	-10.9468
जनेभ्यः	-10.9468
▁आवेदन	-10.9469
साम	-10.947
मेट्	-10.9471
ङ्कर	-10.9472
▁नैट्	-10.9474
मश्नुते	-10.9475
व्यू	-10.9475
▁आरक्षकाः	-10.9477
▁मिश्रित	-10.9477
▁विस्मयं	-10.9479
▁विपक्ष	-10.9479
▁जयद्रथ	-10.948
ौषध	-10.948
ाद्धि	-10.9481
मथो	-10.9481
▁निग्रह	-10.9482
बस्	-10.9483
▁चण्डीगढ	-10.9487
भिवाद्य	-10.9487
▁शतके	-10.9488
▁अक्षय	-10.9491
२१	-10.9491
▁वैश्विक	-10.9491
▁कुबेर	-10.9491
▁कैलास	-10.9491
▁सहैव	-10.9491
▁स्नुषा	-10.9491
कल्मष	-10.9491
▁उष्णवलय	-10.9491
यस्य	-10.9492
▁प्रावर्तत	-10.9492
रूढ	-10.9493
▁उभे	-10.9493
G	-10.9493
▁श्येन	-10.9493
ाधीन	-10.9494
▁नहीं	-10.9495
▁न्यवसन्	-10.9496
कोष	-10.9497
क्षम	-10.9497
▁प्रियः	-10.9498
▁मानद	-10.9499
▁बलिन	-10.9499
▁गेम्	-10.9499
▁दद्यात्	-10.95
▁उद्घाट्यते	-10.9501
ईस्ट्	-10.9501
▁आधिक्येन	-10.9502
▁स्मृत	-10.9506
ैरुप	-10.9507
▁आगच्छन्ति	-10.951
▁कस्या	-10.9517
▁स्टा	-10.9517
घट	-10.9518
र्क्	-10.9518
▁अपाय	-10.9518
▁बाणान्	-10.9519
▁व्यक्तं	-10.9521
त्तु	-10.9521
▁इस्लाम्	-10.9522
▁पतति	-10.9522
▁भैरव	-10.9524
▁प्रशस्त	-10.9525
▁अधीन	-10.9529
स्थो	-10.9529
▁शाल्व	-10.9531
▁विभीषणः	-10.9531
वस्तूनां	-10.9531
पार्क्	-10.9534
▁एतावता	-10.9534
स्तरस्य	-10.9536
▁गया	-10.9538
▁हानि	-10.9543
▁पूर्व्व	-10.9545
ेरी	-10.9545
▁सेनेट्	-10.9546
▁निर्जित	-10.9546
▁नेह	-10.9546
▁पेट	-10.9551
▁अन्तर्गत	-10.9551
▁लय	-10.9554
म्यान्	-10.9555
▁चलच्चित्राणि	-10.9557
▁पक्व	-10.9558
केषु	-10.9558
▁कार्ये	-10.9559
ेऽहं	-10.9559
▁तस्मिन्न	-10.956
▁चलचित्र	-10.956
▁ऊर्जा	-10.9565
▁भारतीया	-10.9565
▁विवरण	-10.9565
▁ज्ञातम्	-10.9565
▁पत्तन	-10.9567
विल	-10.9568
▁उद्देश्य	-10.9568
दिव्य	-10.957
▁निपतित	-10.957
जीवनस्य	-10.957
ापेक्षया	-10.9572
▁ब्याण्डी	-10.9573
▁विसृज्य	-10.9573
▁ल्या	-10.9573
▁प्रकोष्ठ	-10.9574
्यर्थ	-10.9576
िकल्	-10.9577
विशेषेण	-10.9578
भूमेः	-10.9579
▁प्रसृत	-10.9581
नेता	-10.9582
▁प्राप्तवत्	-10.9584
▁गमनं	-10.9585
▁अनया	-10.9586
युक्तेषु	-10.9587
ृण	-10.9587
▁धन्य	-10.9588
▁अधिकतम	-10.959
न्तीह	-10.959
कृतयः	-10.9593
ह्न	-10.9593
▁सन्तो	-10.9595
▁करना	-10.9596
वासिन	-10.9601
▁विवृत	-10.9602
▁आर्डर्	-10.9603
▁समभि	-10.9606
मव्ययम्	-10.9607
▁विशेषज्ञ	-10.9607
्यर्थं	-10.9608
U	-10.961
निश्	-10.9611
▁अथैन	-10.9614
▁उन्मत्त	-10.9615
▁प्रहसन्निव	-10.9615
कस्	-10.9615
रीन्	-10.9615
▁डिजिटल्	-10.9616
▁प्रदद	-10.9616
▁१९६५	-10.9616
▁अपरे	-10.9618
कुञ्जर	-10.9619
▁प्रयोगं	-10.9621
▁धरन्ति	-10.9621
पद्म	-10.9622
यन्निव	-10.9626
▁एकाकी	-10.9627
▁हताश्व	-10.9628
▁यिरूशालम	-10.963
▁यमुना	-10.9633
▁कर्त्तुं	-10.9633
▁वैष्णव	-10.9635
लक्ष	-10.9636
▁जटा	-10.9636
▁कम्यून्	-10.9637
▁पृथा	-10.9639
▁निपुण	-10.964
दारुण	-10.964
िने	-10.964
▁सम्पूर्णतया	-10.964
▁गन्तव्य	-10.964
याश्च	-10.9642
▁दर्शनीय	-10.9642
विश्वविद्यालयः	-10.9644
निर्माणस्य	-10.9646
▁द्र	-10.9646
▁कुन्तीपुत्रो	-10.9647
पराध	-10.9651
▁सञ्चिकाः	-10.9654
▁स्नायु	-10.9655
▁दलानि	-10.9655
▁महिष	-10.9655
याने	-10.9655
तीत	-10.9656
▁विच	-10.9656
▁आन्ध्रप्रदेश	-10.9659
▁राज्ञ	-10.9661
मयो	-10.9661
▁करे	-10.9661
ुवा	-10.9661
▁धाव	-10.9663
▁ददृशे	-10.9663
कृत्वा	-10.9664
दर्शी	-10.9664
शक्तेः	-10.9666
▁चक्षु	-10.9667
ेतां	-10.9671
वेक्ष	-10.9671
यूथप	-10.9673
कालात्	-10.9673
▁आदिम	-10.9674
नुग्रह	-10.9674
▁फलतः	-10.9675
▁तृतीयः	-10.9676
▁दिनानि	-10.9678
▁प्रकाशते	-10.9679
▁आविष्कृत	-10.968
▁पेय	-10.9681
क्रन्द	-10.9681
▁रोगेण	-10.9682
२८	-10.9683
▁जीवने	-10.9683
पुत्रस्य	-10.9683
▁तनय	-10.9685
सर्वाङ्ग	-10.9685
्तुं	-10.9685
ुग्र	-10.9685
▁ईश्वरः	-10.9686
जनेषु	-10.9689
▁मृत्तिका	-10.969
प्रवृत्त	-10.9691
नुप	-10.9698
कन्दर	-10.9698
शाल	-10.9698
▁रत	-10.9698
▁जनेश्वर	-10.9699
शतं	-10.97
वरं	-10.9703
▁लोकप्रियता	-10.9704
तामिति	-10.9706
▁पट्ट	-10.9706
▁तमिळुनाडु	-10.9709
▁यदु	-10.9709
ांस्त	-10.9709
▁उद्घाट्य	-10.9711
▁समागम्य	-10.9712
▁शक्त्या	-10.9712
तीत्य	-10.9713
▁पुस्तक	-10.9714
le	-10.9715
▁प्रान्त	-10.9717
र्जित	-10.9719
▁मुद्राप	-10.9726
थ्य	-10.9728
वृत्तेः	-10.9729
चूर्ण	-10.9731
▁शिष्या	-10.9731
▁संरक्षित	-10.9731
▁पण	-10.9734
▁बीभत्सु	-10.9734
▁प्राकृत	-10.9735
▁समाहित	-10.9735
▁खु	-10.9735
ूरु	-10.9735
गङ्गा	-10.9739
▁उभावपि	-10.974
▁आच्छादित	-10.974
▁जरासंध	-10.974
प्रशासन	-10.974
▁तमापतन्त	-10.9741
९५	-10.9742
ाभ्यन्तरे	-10.9742
भृ	-10.9743
▁कर्तुम	-10.9744
सङ्घटन	-10.9745
▁पीत्वा	-10.9746
▁देवतानां	-10.9747
मुत्तर	-10.975
नाटक	-10.9751
▁तदिद	-10.9756
▁अङ्गुल	-10.9756
▁षोडश	-10.9757
▁उपचार	-10.9758
▁इन्पुट्	-10.9759
भङ्ग	-10.976
▁कर्णे	-10.9761
ap	-10.9761
▁चिन्तयति	-10.9761
▁८५	-10.9762
२३	-10.9762
▁बुद्धिमान्	-10.9764
युगे	-10.9767
ोषित	-10.9767
▁आनीत	-10.9768
फ़्ट्	-10.977
धरः	-10.9773
तव्यं	-10.9774
▁कन्नड	-10.9774
सर्वकार	-10.9777
▁प्रसन्नः	-10.9777
▁विशाला	-10.9777
▁रक्तं	-10.9778
▁वाहिनीम्	-10.9778
▁श्वः	-10.9779
पृष्ट	-10.9781
▁सर्वमेव	-10.9782
▁प्रहर्ष	-10.9783
डोर्	-10.9784
संशय	-10.9786
▁सङ्ख्यां	-10.9788
सभा	-10.9791
लोचनः	-10.9792
ls	-10.9793
▁गै	-10.9794
सदृशं	-10.9794
नील	-10.9794
▁समुदायः	-10.9796
▁सुव्रत	-10.9798
▁तमं	-10.9803
▁द्रौपद्या	-10.9804
सेण्ट्	-10.9807
▁सन्तान	-10.9809
▁कवि	-10.9811
▁ह्येष	-10.9814
▁केतु	-10.9814
▁वृष्णि	-10.9815
लैट्	-10.9815
▁चेद्	-10.9815
भूषित	-10.9818
मानानां	-10.9819
निर	-10.982
खान्	-10.9822
▁मेदिनीम्	-10.9825
ण्ण	-10.9826
नट	-10.9827
मिदम्	-10.9828
▁वध्यमाना	-10.9828
ोपकरण	-10.9828
▁तमो	-10.983
▁प्रकाराः	-10.9831
▁संशोधन	-10.9832
बीज	-10.9833
भास	-10.9834
शीर्ष	-10.9835
▁प्रियदर्शन	-10.9838
▁लोकप्रियं	-10.9838
भिप्राय	-10.984
▁चिरम्	-10.984
टिस्	-10.9842
▁दक्षिणतः	-10.9842
९६	-10.9846
▁निवासिनः	-10.9848
र्चिष	-10.9849
६२	-10.9849
्येन	-10.985
▁अनुमतिः	-10.985
▁स्वच्छता	-10.9853
▁प्ला	-10.9854
▁कौरवाणा	-10.9856
▁सत्रे	-10.9856
▁प्राणा	-10.9856
▁त्वत्	-10.9858
ाश्	-10.9859
▁प्रजापतिः	-10.9862
मेतद	-10.9862
ज्ञो	-10.9863
▁केकय	-10.9864
▁इटली	-10.9864
▁यत्त	-10.9865
▁वाशिङ्ग्टन्	-10.9866
▁सामूहिक	-10.9866
▁तमदशक	-10.9867
▁ऊर्ध्वं	-10.9867
▁सार्ध	-10.9867
▁पैरों	-10.9868
▁संयुक्तराज्य	-10.9869
▁प्रदातुं	-10.987
▁शूकर	-10.987
▁परित्राण	-10.987
▁द्विजश्रेष्ठ	-10.9872
▁क्रीडितवान्	-10.9873
▁शप्त	-10.9873
मज	-10.9875
ब्याण्ड्	-10.9875
▁भविष्यामि	-10.9875
व्ययस्य	-10.9876
ुष्य	-10.9877
परिसर	-10.9878
व्यूह	-10.9879
▁भवतो	-10.988
▁टैम्स्	-10.9881
▁थे	-10.9881
▁केन्वास्	-10.9881
▁सन्दर्भेषु	-10.9881
▁वृक्षा	-10.9882
▁XAMPP	-10.9882
▁कौतूहल	-10.9882
क्रो	-10.9883
▁प्रीतो	-10.9884
▁गृहीतवान्	-10.9884
▁कच्चिद्	-10.9884
▁जनयितुं	-10.9886
▁सव्य	-10.9887
तस्तस्य	-10.9887
▁हनुमान्	-10.989
▁मागध	-10.989
▁मेऽ	-10.9891
पञ्ज	-10.9897
सरोवरः	-10.9898
▁धीरे	-10.9902
name	-10.9905
ोपयोग	-10.9908
ुम	-10.9908
▁सजीव	-10.9908
▁उदाहरणानि	-10.9909
लङ्क	-10.9912
थर्	-10.9913
▁कल्याणि	-10.9914
ब्रवीद्	-10.9916
▁g	-10.9918
▁आन्दोलन	-10.9919
सन्धि	-10.9919
▁निर्माणार्थं	-10.992
▁अङ्कित	-10.9921
▁वरदान	-10.9921
विवाद	-10.9921
र्न्	-10.9921
▁स्वयम	-10.9922
▁अहिंसा	-10.9925
▁महोदय	-10.9926
क्रीडां	-10.9931
र्तु	-10.9932
▁अर्थव्यवस्था	-10.9932
संकल्प	-10.9933
▁कृतार्थ	-10.9936
उत्	-10.9936
▁आश्वस्ति	-10.9937
डियो	-10.9937
▁सर्वसैन्य	-10.9939
वर्षाणि	-10.9941
कुण्ड	-10.9945
नन्दन	-10.9946
▁जनार्दनः	-10.9948
ब्रा	-10.9948
▁विनोद	-10.9954
▁एड	-10.9955
▁योग्यता	-10.9961
ह्या	-10.9961
६७	-10.9962
▁यूसर्	-10.9962
▁मन्दिरस्य	-10.9964
▁मृता	-10.9968
▁वाक्यम	-10.9968
पती	-10.9969
जह	-10.9969
श्छ	-10.9969
▁संगम	-10.997
id	-10.9971
रेखाया	-10.9971
दृ	-10.9972
▁क्ष	-10.9981
▁दुर्गा	-10.9981
साम्राज्यं	-10.9982
▁नापि	-10.9984
फ़्ल	-10.9989
साध्य	-10.999
▁शब्दो	-10.999
▁विद्यमानः	-10.9992
कार्यक्रम	-10.9994
▁गन्धमादन	-10.9994
▁शौर्य	-10.9994
▁निपपात	-10.9994
▁मेनिरे	-10.9995
▁उद्घाटयन्तु	-10.9995
▁OS	-10.9995
ोत्तमः	-10.9995
▁आविश्वं	-10.9995
▁क्षितौ	-10.9995
▁क्षिति	-10.9996
▁१९६८	-10.9996
▁भुङ्क्ते	-10.9996
▁सोमदत्त	-10.9996
सैड्	-10.9997
र्मम	-10.9997
केन्द्रम्	-10.9998
▁समुद्रतल	-11
▁पृथिवीपते	-11
▁प्राविशत्	-11.0001
दृक्	-11.0004
▁आक्रम्य	-11.0004
मिच्छति	-11.0005
▁जितेन्द्रियः	-11.0005
▁गां	-11.0006
वत्स	-11.0006
▁कण्डीशन्	-11.0008
▁चीन	-11.0008
▁जनवरीमासे	-11.0009
कर्मणः	-11.001
उत्पादन	-11.0012
ेश्	-11.0017
▁बाङ्ग्लादेश	-11.0017
▁शूटिङ्ग्	-11.0018
▁प्रशासन	-11.0018
▁अवसाद	-11.0021
राज्ञा	-11.0023
शियल्	-11.0023
ैर्वा	-11.0023
ीना	-11.0025
द्वयस्य	-11.0026
▁चिकीर्ष	-11.0028
अण्ड्	-11.0028
ूर	-11.0029
स्पर्ध	-11.0031
▁शुनक	-11.0035
श्वमेध	-11.0035
▁सम्मिलित	-11.0036
▁विलियम्	-11.0036
▁मेदिनी	-11.0037
▁जगतः	-11.0037
▁ज्ञातं	-11.0037
रश्मि	-11.0038
खात	-11.0039
▁विलप	-11.004
धिष्ठित	-11.004
▁तत्तु	-11.0042
▁हम	-11.0042
मानसः	-11.0043
िला	-11.0044
दलेन	-11.0045
▁निर्ममे	-11.0046
माणः	-11.0047
घट्ट	-11.0049
▁आगच्छ	-11.0049
▁निक्षिप्त	-11.005
▁वर्तमानः	-11.0051
▁गायन	-11.0051
▁विमुख	-11.0053
ोऽहम	-11.0055
ोत्पादन	-11.0055
▁देवेन्द्र	-11.0057
िष्यन्ते	-11.0057
▁स्कोर्	-11.0057
▁ब्लू	-11.0058
समीप	-11.006
▁दातुम्	-11.0062
▁मुद्रण	-11.0064
ex	-11.0066
▁लुब्ध	-11.0067
ार्थाय	-11.0068
▁माला	-11.007
▁कुर्म	-11.0075
वाण	-11.008
▁पिशाच	-11.0082
▁अदृश्यत	-11.0082
भावः	-11.009
ोच्च	-11.009
र्भवति	-11.0091
▁विभागे	-11.0092
ानना	-11.0092
▁अन्तर्जाले	-11.0096
▁यमौ	-11.0096
स्तुल्य	-11.0098
▁क्रि	-11.01
▁विशालं	-11.0101
पूजा	-11.0101
▁एतादृशाः	-11.0102
राणि	-11.0103
्युप	-11.0104
ब्याक्	-11.0107
▁समुद्रतट	-11.0108
▁भारतीयः	-11.0108
ातुर	-11.0108
▁कुन्तीपुत्र	-11.0112
▁सेव्	-11.0114
▁नकारात्मक	-11.0116
ाहर	-11.0117
▁अधिकांशं	-11.0118
द्वये	-11.0122
▁यमसादनम्	-11.0124
▁मैसूरु	-11.0124
▁कञ्चन	-11.0124
मुपाद्रवत्	-11.0124
▁उच्यन्ते	-11.0125
पार्टी	-11.0125
▁द्रष्टा	-11.0125
▁१९५२	-11.0126
▁ब्रह्मचारी	-11.0126
ासने	-11.0126
▁वर्तमाना	-11.0126
▁नित्यशः	-11.0127
▁बेल्जियम्	-11.0127
▁निर्माता	-11.0127
▁तुभ्यं	-11.0128
▁घोषितम्	-11.0128
तले	-11.0128
्यथ	-11.0129
▁उद्घाटितं	-11.0129
▁शक्रस्य	-11.0129
करा	-11.013
▁गङ्गाया	-11.013
ोत्थित	-11.0131
▁मरुत	-11.0133
▁कुरुश्रेष्ठ	-11.0133
▁ब्ल्याक्	-11.0133
▁श्रुति	-11.0134
सञ्चार	-11.0134
▁प्रादात्	-11.0135
▁जालपुटं	-11.0136
प्रयत्न	-11.0137
▁पवित्रं	-11.0139
▁द्रष्टुम्	-11.014
▁खन	-11.014
वर्षेभ्यः	-11.0141
▁लिखितवान्	-11.0143
समृद्ध	-11.0143
▁अनुमत	-11.0143
▁निहते	-11.0144
▁सामग्री	-11.0145
वर्ध	-11.0147
टरि	-11.0148
▁प्रयच्छति	-11.0148
▁शक्रो	-11.0149
▁ज्वलन	-11.015
▁विषयेषु	-11.015
▁क्षेत्राणि	-11.0151
नन्तर	-11.0152
ीकृतः	-11.0155
▁मातुः	-11.0158
प्रवास	-11.0159
▁निर्मातुम्	-11.0165
▁बलवन्त	-11.0166
ly	-11.0167
▁यतस्त	-11.0169
▁लोहित	-11.0176
पुराण	-11.0178
▁अथा	-11.0178
कुण्डल	-11.0179
गेट्	-11.018
▁महाकाय	-11.018
पूजित	-11.0181
▁प्रकरणं	-11.0181
तमे	-11.0182
जानाति	-11.0184
▁दुर्गं	-11.0185
▁मर्त्य	-11.0186
▁कारय	-11.0187
▁प्रेषण	-11.0187
▁पन्था	-11.0189
▁निष्क	-11.0192
▁भु	-11.0193
▁नग्न	-11.0193
▁चालक	-11.0194
▁निश्चयः	-11.0194
वाणी	-11.0194
▁समाप्य	-11.0194
▁पेज्	-11.0197
▁उत्पन्ना	-11.0197
▁मल्ल	-11.0198
▁टेबल्	-11.0199
भर्त	-11.0205
▁इय	-11.0205
क्षिप्य	-11.0206
▁केशवः	-11.0206
मीश्वर	-11.0208
वाञ्छ	-11.0208
▁गृहीतः	-11.0209
ाधिकारिणः	-11.021
▁दर्शयामास	-11.0211
▁प्रदर्श	-11.0213
ादिषु	-11.0214
▁भीता	-11.0215
ाद्भुत	-11.0221
▁कानि	-11.0222
दह	-11.0222
▁मौर्य	-11.0222
धम	-11.0223
▁परिव	-11.0226
▁प्राप्तकाल	-11.0227
▁धर्म्म	-11.0229
रैट्	-11.0229
मन्दिर	-11.0231
तत्र	-11.0232
▁ब्राह्मणान्	-11.0232
▁सुहृद	-11.0237
▁मान्यता	-11.0237
ोत्पाद	-11.0238
गीतानि	-11.0238
▁समीक्षा	-11.0239
▁दृढं	-11.024
रावण	-11.0241
माध्यम	-11.0241
वर्गस्य	-11.0241
युक्तम्	-11.0244
▁प्री	-11.0246
▁बुद्धिर	-11.0247
योजक	-11.0248
▁यच्छ	-11.025
चेस्	-11.0252
▁रथात्	-11.0253
▁विहितं	-11.0253
▁क्रीडकानां	-11.0253
▁वन्द	-11.0254
▁सगर	-11.0254
रक्षसाम्	-11.0255
>	-11.0255
▁जार्जिया	-11.0256
▁द्रष्टव्य	-11.0256
▁मातापितरौ	-11.0256
▁हृषीकेश	-11.0256
▁रामलक्ष्मणौ	-11.0256
▁राजसूय	-11.0256
▁प्रोजेक्ट्	-11.0256
▁वक्तव्य	-11.0256
▁चालयितुं	-11.0257
▁जीर्ण	-11.0258
▁१९६७	-11.0258
▁पलाय	-11.0258
▁यतमान	-11.0258
▁पृथग्	-11.0259
▁स्थापितं	-11.0259
▁विधिवद्	-11.0259
ण्टा	-11.0259
▁निवासस्थान	-11.026
▁ऋक्ष	-11.0261
▁पश्चिमबङ्गाल	-11.0261
▁भूमिका	-11.0261
र्घ	-11.0264
सिटि	-11.0264
ळ्	-11.0265
▁अनुचित	-11.0266
▁नकुलः	-11.0267
▁बेन्	-11.0267
पट्ट	-11.0267
▁संनि	-11.0268
$	-11.0269
▁बन्द	-11.027
▁क्षत्रियाणा	-11.027
ोद्योग	-11.0271
▁काम्बोज	-11.0273
स्यैव	-11.0275
▁पृच्छति	-11.0279
▁भास	-11.0281
पर्वतेषु	-11.0281
▁कल्पते	-11.0283
फ़ेर्	-11.0283
करोत्	-11.0285
भावन	-11.0285
ावधि	-11.0287
▁न्याशनल्	-11.0287
शिव	-11.0288
वधे	-11.0288
बिन्	-11.0289
▁नीत	-11.0289
रेन्स्	-11.0289
मनुज	-11.029
▁हौस्	-11.0291
▁हाथ	-11.0293
वर्ती	-11.0296
▁व्यसनं	-11.0296
▁मतदान	-11.0296
ैरा	-11.0299
▁थो	-11.0299
परीक्षण	-11.03
▁व्याध	-11.0301
फोर्ड्	-11.0302
कर्करोगेण	-11.0303
त्येष	-11.0304
विदां	-11.0308
▁स्थापिताः	-11.0308
ीनाम्	-11.0311
वन्तं	-11.0318
▁नौकाश्रय	-11.0319
▁पितुर	-11.032
▁औषधानि	-11.0321
फै	-11.0323
▁दिवा	-11.0323
लघु	-11.0325
प्ला	-11.0325
▁तत्स्थाने	-11.0325
▁जलम्	-11.0326
▁शव	-11.0326
▁इत्याख्ये	-11.0328
मुत्तम	-11.0328
हास्य	-11.0331
▁निपत	-11.0331
▁मल्लयुद्ध	-11.0332
डम्	-11.0334
पत्रे	-11.0335
▁वानरा	-11.0336
▁पातयामास	-11.0337
व्यथ	-11.0337
▁कारणानि	-11.0339
देवी	-11.034
▁नैष	-11.0341
▁उत्स	-11.0341
ाम्बुद	-11.0341
यस	-11.0342
ुत	-11.0342
ट्टु	-11.0344
▁अशोकस्य	-11.0345
त्मक	-11.0345
▁शब्देन	-11.0347
▁जग्मुर्	-11.0348
▁कल्	-11.0351
▁नूनम	-11.0352
▁यथावृत्त	-11.0354
कर्त	-11.0355
▁अप्य	-11.0357
येयुः	-11.0358
▁त्वम्	-11.0358
तत	-11.0359
माणं	-11.0359
▁विक्रयणं	-11.0361
सूचना	-11.0363
▁कुरवः	-11.0364
▁स्पर्धायाः	-11.0364
▁प्राणि	-11.0364
क्षिप	-11.0364
ऽभवत्	-11.0366
▁इत	-11.0367
▁उत्साह	-11.0368
योगं	-11.0369
तारं	-11.0369
▁सकत	-11.0373
दृश्यत	-11.0376
शर्	-11.0377
▁स्ट्र	-11.0377
गतः	-11.0378
।।।।	-11.0379
ायत	-11.0379
▁आश्रित	-11.0379
स्तान	-11.038
▁रक्तवर्ण	-11.0385
▁लोको	-11.0387
मङ्गल	-11.0388
▁आस्ट्रिया	-11.0389
▁स्व्यकरोत्	-11.0389
▁बच्चन्	-11.0389
▁फीट्	-11.0389
▁पर्जन्य	-11.0389
▁पराजयत	-11.0389
▁प्रचण्ड	-11.0389
▁उद्घट्यते	-11.039
▁वारयामास	-11.039
▁प्रायतत	-11.039
▁१९६३	-11.039
▁सत्यसंध	-11.0391
▁पुत्रस्ते	-11.0391
▁धावन	-11.0392
▁अन्यतमं	-11.0392
▁१९३०	-11.0393
▁धृत्वा	-11.0393
गः	-11.0394
ेण्ट्	-11.0394
समस्याः	-11.0395
▁केन्	-11.0396
▁वैयक्तिक	-11.0396
ेमे	-11.0399
▁लता	-11.0402
गायक	-11.0402
▁वृद्धिं	-11.0403
श्रेणी	-11.0403
ग्ने	-11.0406
उत्तर	-11.0407
▁पृष्टवान्	-11.0407
▁अवदन्	-11.0407
द्रोह	-11.0407
▁भग	-11.0413
▁तोमर	-11.0413
▁षष्टि	-11.0413
ानामिव	-11.0413
▁प्रवृद्ध	-11.0414
मेवं	-11.0416
मेवा	-11.0418
समारोह	-11.0419
▁पूज्य	-11.0423
निर्वाचने	-11.0424
▁धर्मभृता	-11.0424
▁धारण	-11.0424
▁गङ्ग	-11.0424
▁अनुभवति	-11.0426
▁महाघोर	-11.0428
▁न्यस्त	-11.0429
▁प्रयतमान	-11.0429
ात्मकः	-11.0429
▁विभागस्य	-11.0429
श्रय	-11.0433
िट्ज़र्ल्याण्ड्	-11.0433
ाविष्ट	-11.0433
▁समास	-11.0434
स्तस्मात्	-11.0439
▁युज्यते	-11.0442
▁निरीक्ष	-11.0442
▁प्रच	-11.0444
▁वर्णं	-11.0444
गुणं	-11.0444
▁षड	-11.0444
ूल	-11.0445
दिनानि	-11.0447
राव्	-11.0448
▁ईश्वरो	-11.045
ान्तिक	-11.0452
▁अश्वत्थामा	-11.0453
पेटिका	-11.0453
गद	-11.0455
मुद्यत	-11.0456
वोच	-11.0457
▁खा	-11.0457
र्जुनः	-11.0459
निर्वाचन	-11.0459
▁आक्स	-11.046
िनीम्	-11.0462
▁निशित	-11.0462
लोकाना	-11.0464
▁नूतना	-11.0468
▁प्रशंस	-11.0469
▁तैर्	-11.0469
विश्वविद्यालय	-11.047
▁मुच्यते	-11.0471
कारेण	-11.0472
गाः	-11.0477
▁न्याय्य	-11.0479
७२	-11.048
द्विप	-11.048
▁अश्वमेध	-11.0484
▁सुतम्	-11.0485
▁विस्फोट	-11.0486
ेष्वेव	-11.0486
▁आसनानि	-11.0487
▁भोजनस्य	-11.049
केतु	-11.0496
▁प्रदाय	-11.0496
▁सोमक	-11.0499
▁कृताञ्जलिः	-11.05
ट्रि	-11.0501
संयुत	-11.0502
▁महार्ह	-11.0504
स्वनः	-11.0507
▁स्वामिन	-11.0509
ालयः	-11.0509
निल	-11.0509
्री	-11.0509
▁नाराच	-11.0509
▁do	-11.0511
हते	-11.0511
▁क्रैस्त	-11.0516
▁वैदेह	-11.0516
कोर्	-11.0517
▁स्थानान्तर	-11.0517
▁रोच	-11.0519
शीला	-11.0519
▁हरिः	-11.0521
▁ट्रै	-11.0523
ाहत	-11.0523
सिण्ड्रोम्	-11.0524
▁चाहिए	-11.0524
▁स्नातकपदवीं	-11.0524
▁शारद्वत	-11.0524
याति	-11.0525
ity	-11.0527
▁अल्पकाल	-11.0527
राज्येषु	-11.0528
▁पद्भ्या	-11.0528
▁विद्य	-11.0528
▁वर्येण	-11.0528
नाना	-11.0529
साधनानि	-11.053
▁राजशार्दूल	-11.053
ेतद्	-11.053
▁परिश्रम	-11.0531
▁एतै	-11.0531
चयन	-11.0531
▁चार्ल्स्	-11.0532
▁कल्पयति	-11.0533
ोपपन्न	-11.0536
नीक	-11.0536
▁गुरो	-11.0536
शिप्	-11.0536
युक्तो	-11.0536
सत्तमः	-11.0537
▁पेरियार्	-11.0538
▁वृकोदर	-11.054
▁एक्लिप्स्	-11.054
गुहाः	-11.0541
आपण	-11.0542
▁प्रबोध	-11.0545
मुपस्थित	-11.0545
▁जानी	-11.0549
▁तस्मिन्नेव	-11.0549
▁४५	-11.055
कृषि	-11.0552
रित	-11.0552
▁द्वितीये	-11.0552
▁मतेन	-11.0553
▁दुःखित	-11.0555
निमेष	-11.0555
▁पुरुषर्षभः	-11.0557
▁अन्येषाम	-11.0557
▁दैनिक	-11.0559
तराः	-11.0561
▁निहतः	-11.0562
रेशन्	-11.0562
▁अनुप	-11.0563
ावपि	-11.0564
▁इतिहासः	-11.0565
टेस्ट्	-11.0565
मुक्ता	-11.0567
विराम	-11.0568
▁उत्पादनं	-11.0569
वंशः	-11.0572
▁मयूर	-11.0574
▁विसर्ज	-11.0574
▁वधाय	-11.0575
यामासुः	-11.0576
▁ईश्वरीय	-11.058
वसन	-11.0581
द्वयेन	-11.0582
▁रथा	-11.0582
▁क्रमाङ्क	-11.0583
संज्ञ	-11.0584
ैर्य	-11.0584
साह	-11.0587
लस्	-11.0588
▁आचार	-11.0589
स्पर्धाः	-11.0591
▁मोहित	-11.0591
▁दलः	-11.0592
त्यन्त	-11.0592
ाभ्र	-11.0593
▁प्रतिभा	-11.0596
▁ब्राह्म	-11.06
पेय	-11.06
▁निर्णयः	-11.0605
धारिण	-11.0605
स्थाः	-11.0606
३९	-11.0607
विदः	-11.0609
प्रै	-11.0611
ठा	-11.0613
मते	-11.0614
अधि	-11.0614
नार्य	-11.0615
पक्षे	-11.0615
तस्ते	-11.0616
▁समावेश	-11.0618
▁भूतानाम	-11.0619
▁बेस्	-11.062
भाषत	-11.062
▁कील	-11.062
▁असमर्थ	-11.0623
मालोक्य	-11.0629
▁दर्श	-11.0632
महारथ	-11.0633
वंशीय	-11.0633
गणान्	-11.0637
▁पुत्रौ	-11.0638
संरचना	-11.0639
▁दक्षिणं	-11.064
च्छर	-11.0641
▁३२	-11.0641
▁त्वद्	-11.0642
ाप्त	-11.0644
मञ्च	-11.0645
▁कारा	-11.0646
धावन	-11.0646
▁मुदित	-11.0646
▁एतादृशी	-11.0647
ाघात	-11.0647
▁पुत्रशोक	-11.0648
▁हन्तु	-11.0648
ङ	-11.065
▁अन्तिमः	-11.065
वुड्	-11.0654
▁क्रयणं	-11.0655
स्पोर्ट्स्	-11.0658
▁राक्षसान्	-11.066
▁७५	-11.066
▁इन्स्टाकार्ट्	-11.0661
▁सङ्कलन	-11.0661
▁प्राप्नुयुः	-11.0661
▁रथोपस्थ	-11.0661
▁क्रिस्मस्	-11.0661
▁मद्यपान	-11.0662
▁कस्मिंश्चित्	-11.0662
चित्	-11.0664
▁वङ्ग	-11.0664
▁O	-11.0665
▁१९४०	-11.0665
▁जानीथ	-11.0665
▁उपयुञ्जते	-11.0666
▁लभेत्	-11.0669
▁विन्दति	-11.067
▁प्रतिभाति	-11.0671
▁त्वदीय	-11.0671
▁नयति	-11.0672
▁उदाहरणं	-11.0673
▁फार्	-11.0673
▁कर्करोग	-11.0673
ुश्च	-11.0674
▁कबन्ध	-11.0674
▁http	-11.0674
▁शिशु	-11.0676
धान्य	-11.0678
पङ्क्ति	-11.0678
▁यान्त	-11.0678
सचिव	-11.0679
त्वम	-11.0679
▁कं	-11.068
▁कुरुसत्तम	-11.068
ीषु	-11.0682
उद्योग	-11.0683
▁पुरुषोत्तम	-11.0684
कर्दम	-11.0686
▁पुरे	-11.0687
▁तयोर्	-11.0687
नुकम्प	-11.0687
▁वैशिष्ट्य	-11.0688
▁स्थलं	-11.0688
विंशति	-11.0689
▁परित	-11.069
▁किञ्चिद्	-11.0692
युतम्	-11.0693
▁कारक	-11.0694
खाद्य	-11.0695
्रष्टु	-11.0695
गै	-11.0695
संग	-11.0696
▁अनुबन्ध	-11.0696
▁उद्याने	-11.0697
▁भूमिकां	-11.0698
पद्य	-11.0699
▁बक	-11.0699
line	-11.0701
▁पताका	-11.0702
▁दुर्जय	-11.0703
▁एकाग्रता	-11.0703
▁जलबन्ध	-11.0705
▁श्रुतिः	-11.0706
▁देवलोक	-11.0708
▁पश्चाद	-11.0708
▁गृहस्थ	-11.0708
▁क्रीडां	-11.0709
▁अयोध्या	-11.071
ासाद्य	-11.0711
सुरक्षा	-11.0711
फलानि	-11.0712
घातिन	-11.0713
▁सोपान	-11.0713
जैन	-11.0714
ासीन्	-11.0715
मैन्	-11.0716
▁विसृष्ट	-11.0717
मास्थित	-11.0717
प्रोग्राम्	-11.0717
ानीव	-11.0718
▁योजय	-11.0721
धरा	-11.0723
परिच्छद	-11.0723
मनसो	-11.0724
नल	-11.0725
▁शरवर्ष	-11.0726
▁सर्वकारेण	-11.0727
▁मुसल	-11.0727
▁द्विजा	-11.0728
▁अनुशिक्षण	-11.0728
ग्रीव	-11.0729
▁जगत	-11.073
▁पूरयितुं	-11.0732
यानम्	-11.0734
▁स्नातक	-11.0734
केन्द्रं	-11.0734
घा	-11.0738
▁मन्दिराणि	-11.074
▁योगी	-11.0741
▁रचितम्	-11.0741
वाक्	-11.0742
ात्मानम	-11.0742
▁हस्ते	-11.0745
प्पा	-11.075
ध्म	-11.0751
▁भूषण	-11.0751
▁रन्स्	-11.0753
▁क्ला	-11.0753
▁मुख्या	-11.0754
▁निरीक्ष्य	-11.0755
▁प्रश्नान्	-11.0759
▁अजनि	-11.076
योक्	-11.076
▁क्लि	-11.0761
पीडितः	-11.0762
बिल्	-11.0765
▁मण्डलस्य	-11.0766
ce	-11.0767
▁पीठ	-11.0767
जायते	-11.0772
मागत	-11.0773
ानृत	-11.0774
▁स्ल	-11.0775
▁पञ्चालाना	-11.0776
▁क्षुधा	-11.0782
▁सत्तम	-11.0784
विवरण	-11.0789
▁भाषण	-11.0789
▁क्वा	-11.0789
ाभिर	-11.0793
वर्षं	-11.0794
▁केचि	-11.0794
ण्टन्	-11.0795
ण्टो	-11.0798
▁बेङ्गलूरु	-11.08
▁आरुरोह	-11.08
▁अनिवार्य	-11.08
▁रङ्गसेचन	-11.08
सल	-11.08
▁एप्पल्	-11.08
▁धनुरादाय	-11.08
▁राजपूत	-11.0801
▁विषण्ण	-11.0801
▁गोधूम	-11.0801
भग्न	-11.0801
▁१९६६	-11.0803
▁वर्धिता	-11.0803
४१	-11.0804
▁प्रातःकाले	-11.0804
खान	-11.0804
▁रक्षां	-11.0805
▁वर्धन्ते	-11.0805
▁प्रसह्य	-11.0805
▁अकार्षीत्	-11.0806
▁अवगच्छति	-11.0806
▁ट्रा	-11.0807
▁सूचनां	-11.0807
▁१९२०	-11.0809
मृते	-11.0809
▁विवर्ध	-11.081
▁प्रशंसन्ति	-11.081
▁क्षान्त	-11.081
▁कुरून्	-11.0811
▁एवम	-11.0812
▁प्रत	-11.0814
भ्रातृ	-11.0814
ch	-11.0816
थिय	-11.0817
ोत्तरं	-11.0818
युता	-11.0818
▁N	-11.0818
▁पाण्डुसुत	-11.0818
▁त्वत्त	-11.0819
इतीदं	-11.082
ध्रुव	-11.082
▁दिवौकसः	-11.0821
▁क्षयं	-11.0822
▁महावेग	-11.0822
मन्दिरस्य	-11.0827
सरोवर	-11.0828
▁विकल्पान्	-11.0828
▁मण्डूक	-11.0828
ोऽति	-11.0829
▁सेवां	-11.0829
▁दह्यमान	-11.083
▁ऋ	-11.0832
▁लिखति	-11.0833
▁पाणिना	-11.0834
प्रभव	-11.0838
▁सिद्धार्थ	-11.0838
▁ब्रह्माण	-11.0838
ार्जव	-11.0838
▁प्रत्यय	-11.0841
▁वायुना	-11.0842
ानल	-11.0842
▁वर्णः	-11.0843
▁स्त्रियो	-11.0846
▁कास	-11.0847
▁क्षीर	-11.0847
▁स्वां	-11.0848
स्तौ	-11.0848
▁मेष	-11.0849
▁नग	-11.0851
▁भवेद	-11.0852
▁कोल्	-11.0852
तस्थौ	-11.0854
▁मदद	-11.0856
यन्त्य	-11.086
▁प्रतिष्ठितम्	-11.086
▁सुयोधनः	-11.0862
▁नगरी	-11.0864
ाढ्य	-11.0864
and	-11.0864
▁w	-11.0865
ैस्तु	-11.0866
▁गौरवं	-11.0868
माप्नोति	-11.0869
▁पिण्ड	-11.0872
वर्षेषु	-11.0873
ाङ्गी	-11.0874
स्ट्रोक्	-11.0874
▁ततस्ता	-11.0875
▁लोकान	-11.0878
▁५००	-11.0878
▁ह्रद	-11.0878
▁श्रीलङ्का	-11.0881
▁संधि	-11.0882
शाप	-11.0884
▁परिध	-11.0885
▁करणीय	-11.0885
▁मक्	-11.0886
िन्या	-11.089
▁स्थले	-11.0892
पताक	-11.0895
रोह	-11.0896
▁रथान्	-11.0898
▁चन्दन	-11.0901
भट्ट	-11.0904
कार्यक्रमेषु	-11.0906
क्रीडकः	-11.0908
अल्	-11.0909
▁वाल्	-11.091
▁व्यवस्थितः	-11.091
वस्त्राणि	-11.0911
▁तावद्	-11.0914
परिवारस्य	-11.0916
▁विख्यात	-11.0916
▁फ्ल	-11.0917
▁सहितं	-11.0918
यह	-11.0918
▁भगवन्त	-11.0919
ध्यापक	-11.092
▁अमु	-11.0926
तृतीय	-11.0926
out	-11.0928
▁जनस्य	-11.0929
हिते	-11.0929
ट्र	-11.0932
स्त्रं	-11.0933
▁आहूत	-11.0936
▁कच	-11.094
रता	-11.094
▁फ़्लोरिडा	-11.0941
▁MHRD	-11.0941
▁double	-11.0941
▁मूर्ध्नि	-11.0941
▁सौमित्रे	-11.0941
▁अघोषयत्	-11.0941
▁इत्युच्यते	-11.0942
▁विन्ध्य	-11.0942
▁स्फीत	-11.0942
▁जीसस्	-11.0943
▁समाप्तेः	-11.0944
▁रायल्	-11.0944
▁महत्त्व	-11.0945
▁जमीन	-11.0945
शू	-11.0948
▁उत्तरप्रदेश	-11.0948
▁अरब्	-11.0948
▁गर्ज	-11.095
राजमार्गः	-11.0951
▁करिष्यसि	-11.0951
▁पृच्छतु	-11.0951
▁प्रकट	-11.0952
▁लोकेऽस्मिन्	-11.0952
नन्तरं	-11.0955
वू	-11.0955
▁दास्यति	-11.0957
▁निषाद	-11.0958
▁दास्यामि	-11.0958
▁अन्यस्मिन्	-11.0958
पिक्	-11.0958
श्रेष्ठं	-11.0959
▁प्रभावितः	-11.0959
सङ्क्रमण	-11.0959
दू	-11.0959
▁अनुज्ञात	-11.096
▁द्विजाः	-11.0961
द्रोण	-11.0961
प्रसिद्ध	-11.0961
चू	-11.0961
परिष्कृत	-11.0962
व्यवसाय	-11.0963
दत्	-11.0964
त्रयं	-11.0964
नागरिक	-11.0965
कृष्य	-11.0965
▁सञ्चिकायां	-11.0967
▁पुष्पाणि	-11.0967
▁धर्मवित्	-11.0969
▁गावः	-11.0969
▁करणीयः	-11.0972
▁मन्यमान	-11.0972
ग्रीक्	-11.0973
यिङ्ग्	-11.0973
वित	-11.0973
▁अर्जुनस्य	-11.0974
स्तेऽ	-11.0975
▁fin	-11.0976
पवित्र	-11.0977
त्तम	-11.0977
▁वस्तुनः	-11.0978
साहित्य	-11.0978
प्रयुक्त	-11.0978
वाहनः	-11.0978
न्तक	-11.0979
▁तक्षक	-11.0979
▁वार्त्ता	-11.098
▁ग्रन्थालय	-11.098
ात्मजम्	-11.0981
माया	-11.0983
बभूव	-11.0983
ज्वाल	-11.0984
परिग्रह	-11.0985
▁पट	-11.0986
र्त्त	-11.0987
▁महावीर	-11.0987
▁पेनल्	-11.0988
▁सम्बद्धा	-11.0988
वरा	-11.0988
जनन	-11.0991
कुले	-11.0993
लोचना	-11.0993
▁धरणी	-11.0994
▁स्वामित्वं	-11.0994
▁कूर्च	-11.0994
▁वीक्ष	-11.0995
▁वेदना	-11.0995
▁बिहार	-11.0996
▁इत्येताः	-11.0999
▁सुल्तान्	-11.0999
▁अकाडेमी	-11.1001
▁भूमे	-11.1006
पालक	-11.1006
समायुक्त	-11.1007
▁ब्रुवन्	-11.1009
▁अतिरिक्तं	-11.1013
▁तच्छ	-11.1018
▁दिनेषु	-11.1018
▁अधिकारः	-11.1019
▁प्रेषयितुं	-11.1019
▁पाप्	-11.1024
▁प्रमुखे	-11.1025
▁फ़ो	-11.1026
▁चतुर्णां	-11.1026
▁कृषक	-11.1028
मिष्ट	-11.1029
लेखक	-11.103
▁रूपाणि	-11.1033
▁प्रभावं	-11.1033
शूर	-11.1038
ेतानि	-11.1039
▁बोर्	-11.1039
शुद्ध	-11.1041
▁सुधार	-11.1041
▁पार्था	-11.1042
▁क्षेत्रज्ञ	-11.1043
▁अङ्कैः	-11.105
विश्य	-11.1052
▁लेखा	-11.1054
ाभ्यनुज्ञात	-11.1054
▁सूच्यां	-11.1057
▁करिष्याम	-11.1059
कोटा	-11.1065
नामानि	-11.1069
▁संयत	-11.1071
वृत्तं	-11.1072
र्यमाण	-11.1073
पशु	-11.1073
▁पात्रम्	-11.1074
त्यर्थ	-11.1076
शिय	-11.1077
▁bracket	-11.1079
भाषया	-11.108
▁चलन	-11.1081
ब्रुवन्	-11.1082
संवाद	-11.1082
चाम्पियन्	-11.1084
▁पेरामीटर्	-11.1084
://	-11.1084
▁कांश्चन	-11.1084
▁ग्राह	-11.1085
▁साध्व	-11.1085
▁पुण्डरीकाक्ष	-11.1085
▁दिनाङ्कपर्यन्तं	-11.1086
तपस्वि	-11.1086
दः	-11.1087
लोड्	-11.1087
▁जनसंख्या	-11.1087
▁सुसंक्रुद्ध	-11.1088
▁काच	-11.1088
▁इत्यस्यान्तः	-11.109
▁प्रदत्ता	-11.109
▁दक्षिणभारत	-11.109
तयः	-11.1092
प्रकाराणां	-11.1092
▁द्विषता	-11.1092
▁टङ्कयामि	-11.1092
तत्त्वज्ञ	-11.1096
ाशीविष	-11.1096
▁प्रमाणपत्र	-11.1096
▁ववर्ष	-11.1097
▁ददृशुर्	-11.1097
N	-11.1097
▁क्लो	-11.1098
▁द्वन्द्व	-11.1098
▁सहामात्य	-11.1099
▁निषिद्ध	-11.1101
▁दोषान्	-11.1102
▁उपलभ्यमान	-11.1102
नक्षत्र	-11.1104
▁निवृत्ति	-11.1105
▁परिपालय	-11.1106
▁प्रतिकृति	-11.1106
▁आख्यायिका	-11.1106
जिन	-11.1106
ैर्महा	-11.1108
▁दुहिता	-11.1108
टैम्	-11.1109
▁श्वशुर	-11.1111
वृष्ट्या	-11.1112
रोल्	-11.1112
▁सम्मुख	-11.1112
▁दिक्षु	-11.1113
▁विभक्तम्	-11.1113
▁हासन्	-11.1113
मथाब्रवीत्	-11.1113
▁देवालय	-11.1113
▁तान्य	-11.1115
क्ति	-11.1116
धाय	-11.1116
ब्रवीद	-11.1118
▁सौन्दर्य	-11.1118
▁चर्च	-11.1119
▁उच्चैः	-11.1121
▁जिता	-11.1122
प्राप्ति	-11.1122
▁गुड्	-11.1125
धीन	-11.1126
00	-11.1126
▁वाष्प	-11.1127
▁उपयोगाय	-11.1127
पीठ	-11.1128
▁सुराः	-11.1128
▁तरुण	-11.1129
▁ब्लाक्	-11.1129
निस्	-11.1129
▁शेषं	-11.1131
▁आयाति	-11.1131
▁क्षतेः	-11.1131
▁तर्क	-11.1132
▁विजित	-11.1136
ाजगाम	-11.1136
▁रम्या	-11.1137
▁तमवर्षे	-11.1137
▁लाल	-11.1137
▁निन्दा	-11.1139
धर्मः	-11.1139
बाय्	-11.1139
▁अवाप	-11.114
▁दूरभाष	-11.1141
▁अवस्था	-11.1144
▁वासवः	-11.1147
▁ट्र	-11.1147
▁कुरुतः	-11.1147
▁प्राप्ति	-11.1147
देवस्य	-11.1147
▁ततस्त्व	-11.1148
रज	-11.1151
मुखः	-11.1151
▁टेक्	-11.1151
▁भरतः	-11.1152
▁V	-11.1153
▁गतेषु	-11.1153
▁दर्शनम्	-11.1153
▁आयोजनं	-11.1153
चक्राम	-11.1153
सुतः	-11.1155
▁देशकाल	-11.1156
र्वीर	-11.1157
स्येह	-11.1157
▁आचरण	-11.1158
निगम	-11.116
हिल्	-11.116
प्रतिनिधि	-11.1161
नाम्नी	-11.1161
▁बालकानां	-11.1162
▁Name	-11.1163
▁संग्रह	-11.1164
▁राज्ञी	-11.1166
▁क्रुद्धा	-11.1166
ैटिस्	-11.1166
साम्राज्य	-11.1168
साम्	-11.1168
मब्रवीद्	-11.1169
वाहिन्या	-11.1169
वर्तत	-11.1169
ate	-11.1169
ानुभव	-11.1169
▁ग्ल	-11.117
तद्	-11.117
लिक	-11.1171
▁वेरियेबल्स्	-11.1175
▁प्रणत	-11.1179
▁किङ्ग्डम्	-11.118
ध्वजः	-11.1182
▁महेष्वासो	-11.1183
वर्णं	-11.1183
▁भवन्तौ	-11.1185
▁अश	-11.1185
▁5.	-11.1187
ig	-11.1187
▁पुत्राः	-11.1188
मुद्यम	-11.119
▁इमान्	-11.1192
न्यून	-11.1195
▁लेयर्	-11.1198
▁गीता	-11.1198
▁आनयेत	-11.1201
▁रावणि	-11.1202
हरि	-11.1203
ारोहण	-11.1204
▁यूयम	-11.1205
▁भारतसर्वकार	-11.1206
मुत्स	-11.1206
कूल	-11.1206
ink	-11.121
८३	-11.121
▁गतम्	-11.1212
वर्ज	-11.1213
▁म्याक्	-11.1213
वेल	-11.1214
▁बिग्	-11.1216
▁re	-11.1217
▁श्रेणी	-11.1217
मार्गस्य	-11.1218
▁निगम	-11.1219
ोपविष्ट	-11.1224
▁युगान्त	-11.1225
ाश्चापि	-11.1225
▁जीवितम्	-11.1225
वर्गे	-11.1227
▁प्रकाशन	-11.1227
▁फिरूशिन	-11.1229
▁आंशिक	-11.1229
▁जानीमः	-11.1229
मवाप्नुयात्	-11.1229
▁पर्यवारयन्	-11.1229
▁पक्षिण	-11.123
▁उत्पद्यते	-11.123
▁देहल्या	-11.123
▁सर्वाधिका	-11.123
रोन्	-11.123
▁दशलक्षं	-11.1231
ाज्	-11.1232
▁कीवर्ड्	-11.1232
▁12	-11.1232
स्फुर	-11.1233
▁इमेज्	-11.1234
▁सावित्री	-11.1235
▁अवोचत्	-11.1235
▁शतसहस्र	-11.1236
▁अत्रान्तरे	-11.1237
दित	-11.1238
▁विक्रीत	-11.1238
मुक्तं	-11.1239
संवृत	-11.1239
युज्य	-11.1239
▁स्थापयामि	-11.124
▁प्रतिकूल	-11.1242
▁विच्छिन्न	-11.1242
भूषिता	-11.1244
▁राजंस्त	-11.1244
८७	-11.1244
▁Java	-11.1244
▁चेदि	-11.1244
ीकृतम्	-11.1245
▁सङ्गणकस्य	-11.1246
▁प्रदर्शितं	-11.1246
▁फो	-11.1247
भक्ति	-11.1248
▁३००	-11.1249
▁वर्णयति	-11.1251
▁कस्मात्	-11.1252
▁कम्	-11.1253
▁सङ्कीर्ण	-11.1253
▁अभिवाद्य	-11.1254
गात्	-11.1254
▁भव्य	-11.1255
▁गच्छता	-11.1256
▁वैट्	-11.1257
नाशंसे	-11.1257
▁शिरसि	-11.1259
यता	-11.1259
▁दासी	-11.126
▁कार्बन्	-11.1262
मनुप्राप्त	-11.1264
ष्ट्र	-11.1264
▁बिभ	-11.1267
▁दद	-11.1267
ीश्वरः	-11.1267
▁मैथुन	-11.1269
▁फ्रे	-11.1274
कम्पन	-11.1274
मानीय	-11.128
▁तीर	-11.1282
०१	-11.1282
स्माभिः	-11.1284
▁दक्षिणां	-11.1284
वृत्तान्त	-11.1285
सम्पत्	-11.1285
▁सप्तभिः	-11.1287
▁विभागः	-11.1287
▁शर्म	-11.1288
th	-11.129
घटक	-11.129
▁स्यूत	-11.1291
ीर	-11.1293
▁सम्भूत	-11.1293
▁गाव	-11.1294
▁शाश्वती	-11.1294
▁हन्	-11.1295
प्रत्य	-11.1295
यैव	-11.1295
रुद्ध	-11.1296
स्तपसा	-11.1296
मयी	-11.1296
क्षोभ	-11.1297
मुपागमत्	-11.1298
प्रतिमा	-11.1299
▁शासित	-11.1301
▁आरभन्त	-11.1302
▁काण्ड	-11.1302
थ्रो	-11.1306
▁विल्	-11.1308
ज्जन	-11.1309
▁ह्	-11.1312
▁संन्य	-11.1312
शासित	-11.1312
स्त्रा	-11.1314
तस्त	-11.1316
प्रतिक्रिया	-11.1316
▁संस्कार	-11.1319
ाभिभूत	-11.1321
▁कुण्ड	-11.1321
सित	-11.1322
ागम्य	-11.1323
▁परया	-11.1325
▁निर्व	-11.1325
▁इम	-11.1325
▁ज्ञातुम्	-11.1326
▁if	-11.1331
ादीनां	-11.1331
▁यदर्थ	-11.1333
▁मनीषिणः	-11.1333
▁धृतराष्ट्रो	-11.1334
▁पञ्चदश	-11.1335
▁पातय	-11.1337
▁°	-11.1338
▁समुत्	-11.1338
▁समानं	-11.134
धर्मो	-11.1341
▁पीडय	-11.1345
▁इत्यादीन	-11.1345
▁१५०	-11.1347
ैकेन	-11.1347
ter	-11.1349
पद्यन्त	-11.1352
▁विविशु	-11.1354
▁रक्ष्य	-11.1355
संपन्न	-11.1356
स्वाद	-11.1356
यिता	-11.1358
▁क्रीडित	-11.136
▁शक्तिः	-11.1364
वस्था	-11.1367
▁ब्राह्मणाः	-11.1368
▁योगिन	-11.1371
पीडिताः	-11.1372
महाराज	-11.1373
▁यीशुं	-11.1375
सुतो	-11.1376
▁विक्टोरिया	-11.1376
▁निश्चिनोति	-11.1376
▁महत्वपूर्ण	-11.1376
▁दुराधर्ष	-11.1376
▁मातलि	-11.1376
▁कृष्णद्वैपायन	-11.1376
▁क्रीणाति	-11.1376
▁प्राप्नोमि	-11.1376
▁विलोक्य	-11.1377
खण्डस्य	-11.1377
▁वेत्ति	-11.1377
▁वृषसेन	-11.1377
▁१९४९	-11.1377
वत्या	-11.1378
▁१९६२	-11.1378
▁शिवाजी	-11.1379
▁org	-11.138
▁परिगृह्य	-11.1381
नैट्	-11.1382
▁शक्यो	-11.1382
▁पूर्णा	-11.1383
▁अनृत	-11.1383
▁यथार्थतया	-11.1384
▁धनद	-11.1385
▁चतुर्षु	-11.1387
▁कैकेय्या	-11.1388
▁अभिगम्य	-11.1389
▁तेना	-11.1391
▁निर्माय	-11.1391
▁कलि	-11.1392
▁खल्व	-11.1392
नद्या	-11.1394
गन्तुं	-11.1394
ानुग्रह	-11.1395
▁एडिट्	-11.1395
भविष्यद्	-11.1395
▁पितॄणा	-11.1395
▁जनयन्ति	-11.14
▁पथ्य	-11.1401
टर्मिनल्	-11.1404
▁४००	-11.1405
तन्त्रांश	-11.1405
सृजत्	-11.1406
द्वीपस्य	-11.1407
▁हृष्टा	-11.1409
▁प्रयोगः	-11.141
▁भूतं	-11.1411
▁अधिकेषु	-11.1413
ीदृश	-11.1415
▁Item	-11.1415
ानुगत	-11.1415
हिंस	-11.1417
▁मोटर्	-11.1418
दर्प	-11.1418
▁कृपः	-11.142
▁शुभ्र	-11.1421
▁पुष्पक	-11.1422
▁श्वा	-11.1422
ैको	-11.1423
▁रथस्थ	-11.1423
▁दिनाङ्क	-11.1423
ेमां	-11.1424
▁हू	-11.1427
५६	-11.1427
पङ्क	-11.1428
▁गूढ	-11.1428
▁साधित	-11.1429
▁समीपम्	-11.143
▁निमज्ज	-11.1431
निश्चयम्	-11.1434
विशेषान्	-11.1434
ङ्कु	-11.1434
मागम्य	-11.1437
▁मन्त्रिण	-11.1439
▁ह्यू	-11.144
▁मुखे	-11.1441
माकाश	-11.1442
▁सुल्तान	-11.1444
▁सम्राट्	-11.1446
वारयत्	-11.1446
▁प्रहस्य	-11.1447
प्रबन्धक	-11.1448
दुर्गं	-11.1448
न्मम	-11.1448
संनिभम्	-11.1449
ख्यात	-11.145
▁स्तरं	-11.1451
ानेन	-11.1452
▁प्रबन्धन	-11.1453
ाभवन्	-11.1455
▁विचारण	-11.1456
भवनं	-11.1456
▁स्टूडियो	-11.1456
▁अवधि	-11.1461
▁हस्ति	-11.1463
▁प्रचल	-11.1463
▁देहि	-11.1466
▁शश	-11.1468
तमेषु	-11.1469
▁स्तब्धः	-11.147
▁क्रोधं	-11.147
दर्थ	-11.1471
१००	-11.1471
▁विपणि	-11.1472
प्रण	-11.1474
▁प्रयुक्ता	-11.1474
मिश्र	-11.1474
६५	-11.1475
▁यदिद	-11.1475
▁9	-11.1476
▁परिणामः	-11.1477
ेयुर्	-11.148
लव	-11.148
यश	-11.1482
▁रौ	-11.1483
▁अवलोक	-11.1483
▁चीनादेश	-11.1485
प्रतियोगितायाः	-11.1485
श्छिन्न	-11.1487
क्षिपन्	-11.1488
▁चितः	-11.1491
▁मग्न	-11.1492
पद्यत	-11.1493
▁होता	-11.1493
▁दलेन	-11.1495
ानुचर	-11.1496
▁धनेन	-11.1498
▁कृतस्य	-11.1499
ाशी	-11.1501
जिन्	-11.1501
▁कार्यक्रमे	-11.1502
▁लद्दाख	-11.1505
▁युद्धकला	-11.1505
मनी	-11.1505
ष्यामि	-11.1508
▁विद्यमानानि	-11.1508
सृत्य	-11.1509
्यन्ति	-11.151
▁क्रास्	-11.1511
▁गार्	-11.1512
ाभ्याम्	-11.1512
▁ग्रामे	-11.1515
बेल्	-11.1516
चारिणः	-11.1517
log	-11.1518
▁तूष्णी	-11.1519
ियं	-11.1519
▁पापस्य	-11.152
▁सनातन	-11.152
ित्व	-11.1521
मूर्ध	-11.1523
▁पौरव	-11.1523
▁निशि	-11.1524
ऋ	-11.1524
लेस्	-11.1525
▁ग्रि	-11.1525
▁जनगणनानुसारम्	-11.1525
▁प्राप्तवदस्ति	-11.1525
▁क्रौञ्च	-11.1525
▁प्रायश्चित्त	-11.1525
▁गृह्णन्ति	-11.1525
▁जीवन्त	-11.1525
▁इस्रेल्	-11.1525
गौ	-11.1525
▁यथासुखम्	-11.1525
▁राजर्षे	-11.1526
क्का	-11.1526
▁उपयोक्तारः	-11.1526
▁सर्वमाख्यात	-11.1526
▁अद्यावधि	-11.1526
▁१९५७	-11.1527
▁दृष्ट्वैव	-11.1527
▁निर्दह	-11.1527
▁सूचीबद्ध	-11.1527
▁दौ	-11.1527
▁उपयुञ्जन्ति	-11.1528
▁पितॄन्	-11.1528
▁फ्रान्स्	-11.1529
▁मलिन	-11.153
▁रोलर्	-11.153
ासीद	-11.153
▁निराकृत	-11.153
▁महामतिः	-11.153
▁तथेति	-11.1531
▁ईशान्य	-11.1532
▁नूतनाः	-11.1533
काया	-11.1535
▁आवृत	-11.1535
▁be	-11.1535
▁भासते	-11.1535
▁स्थापितवान्	-11.1536
▁नित्यदा	-11.1537
▁सुकुमार	-11.1537
▁मलेशिया	-11.1541
▁तेऽपि	-11.1542
मत्त	-11.1543
▁main	-11.1544
जने	-11.1545
▁पत्रिकाया	-11.155
सूत	-11.155
ोद्यम	-11.1551
▁पृथ्वी	-11.1551
▁फै	-11.1554
▁दर्शयन्ति	-11.1554
विशेषैः	-11.1555
उपयोग	-11.1557
▁लेक्	-11.1558
▁वचस्त	-11.1559
अथवा	-11.1559
णेन	-11.156
ान्वितः	-11.156
▁पुनरपि	-11.1561
▁समभवद्	-11.1562
▁यैः	-11.1564
सिद्धान्त	-11.1565
परीक्षाया	-11.1565
▁धेनु	-11.1566
▁पतङ्ग	-11.1566
▁निर्माणस्य	-11.1567
▁OK	-11.1568
ात्मवान्	-11.1572
सङ्ग्रहालय	-11.1572
र्तुं	-11.1573
भोजनं	-11.1574
▁अन्यतम	-11.1574
भुक्त	-11.1575
कूप	-11.1576
▁पाण्डवस्य	-11.1579
▁The	-11.158
▁भरतो	-11.1583
▁सम्बद्धानि	-11.1583
▁द्वाव	-11.1584
▁अवध्य	-11.1584
▁सुदर्शन	-11.1587
भ्यागत	-11.1587
▁चिन्तितः	-11.1589
ानुपा	-11.1589
सेवित	-11.159
ाल्प	-11.159
परायणाः	-11.159
▁वाले	-11.1591
ाहुर्	-11.1592
क्रमेण	-11.1595
▁निर्णयं	-11.1596
शाह्	-11.1597
▁मस्तिष्कस्य	-11.1597
▁कबड्डी	-11.1598
करी	-11.1599
वतः	-11.1601
हृद	-11.1602
▁पाताल	-11.1604
ेष्ठ	-11.1607
▁राज्यानि	-11.1608
▁ग्राण्ड्	-11.161
चलच्चित्रं	-11.161
ान्येव	-11.1612
▁पर्यटक	-11.1612
▁जगति	-11.1613
▁चर्चा	-11.1615
शिक्षण	-11.1618
फ़ोर्ड्	-11.1619
रिवा	-11.1619
लिन	-11.162
▁यश	-11.162
▁सभार्य	-11.1622
▁वाह	-11.1624
▁दातव्य	-11.1629
ट्यूब्	-11.163
तीय	-11.1631
▁सङ्गृहीत	-11.1634
▁सङ्ग्रह	-11.1635
गामि	-11.1636
▁बालानां	-11.1636
रणे	-11.1636
वस्त्रं	-11.1637
दिशि	-11.1639
दुष्ट	-11.164
यिष्य	-11.1643
▁व्ययस्य	-11.1646
धर्मज्ञ	-11.1646
▁साम	-11.1647
▁वनेषु	-11.1647
ऽथ	-11.165
▁तिष्ठन्त	-11.1651
▁मण्डलेषु	-11.1652
▁लेखक	-11.1652
▁३६	-11.1654
६४	-11.1655
च्छत्र	-11.1655
▁मूल्यम्	-11.1658
ल्यू	-11.1658
▁संस्थापकः	-11.166
▁धर्मपुत्र	-11.1662
▁जीवन्	-11.1663
▁किञ्चिद	-11.1665
गच्छन्ति	-11.1666
बुध	-11.1666
▁यदह	-11.1667
▁पत्रिका	-11.1668
गताः	-11.1668
▁शासनम्	-11.1669
ग्नौ	-11.167
▁यस्त	-11.1671
▁अस्मभ्य	-11.1671
जायत	-11.1671
▁प्राकार	-11.1673
प्रचार	-11.1675
▁प्राप्नुया	-11.1676
▁यथातथम्	-11.1677
▁युष्मभ्य	-11.1677
▁लोकार्पितम्	-11.1677
▁टोक्यो	-11.1677
▁शत्रूणा	-11.1677
▁इस्लामिक्	-11.1677
▁नश्य	-11.1677
▁तदतिरिच्य	-11.1677
▁जिष्णु	-11.1677
▁प्रचुर	-11.1678
▁नोर्	-11.1678
▁अवरुद्ध	-11.1678
▁श्रीकृष्ण	-11.1679
▁व्यक्तेः	-11.1679
▁भुक्त्वा	-11.168
नर्थ	-11.1681
▁सुखदुःख	-11.1681
▁कृतकृत्य	-11.1682
नामकः	-11.1682
योजना	-11.1682
▁देवगन्धर्व	-11.1683
▁युगपत्	-11.1683
▁दयित	-11.1683
▁परीक्षित	-11.1683
धर्मा	-11.1684
▁सुस	-11.1684
ागतः	-11.1685
▁प्रख्यात	-11.1685
दिग	-11.1685
▁समुचित	-11.1686
संग्रह	-11.1686
▁प्रजनन	-11.1686
▁प्रच्छन्न	-11.1687
▁रोह	-11.1688
८९	-11.1689
▁स्पा	-11.1691
तन्	-11.1691
त्राण	-11.1692
▁निश्चितवान्	-11.1694
ात्मिका	-11.1695
▁आजीवन	-11.1697
९४	-11.1697
▁सीसन्	-11.1698
क्रमे	-11.1699
▁अनुरक्त	-11.1699
▁कोशिका	-11.17
४५	-11.1702
▁विधवा	-11.1703
त्वर	-11.1704
▁च्यवन	-11.1706
▁स्वल्प	-11.1706
कोट्	-11.1708
कान्सर्	-11.1709
फ़्रान्स्	-11.1709
सङ्कट	-11.1709
▁कौन्तेयः	-11.1711
▁फु	-11.1711
▁जानासि	-11.1713
▁तटीयप्रदेश	-11.1715
समुदायस्य	-11.1715
सेक्स्	-11.1718
▁ओन्	-11.1719
▁वैद्यकीय	-11.1719
▁ओब्जेक्ट्स्	-11.172
▁वितत	-11.1723
▁क्षर	-11.1723
▁कदन	-11.1724
्याम्	-11.1725
▁समाधान	-11.1727
शासनम्	-11.1728
▁कुर	-11.1729
▁अकौण्ट्	-11.173
▁भगवता	-11.1731
▁वशी	-11.1731
▁यज्ञस्य	-11.1731
ङ्गार	-11.1732
पुत्रो	-11.1736
▁राजस्व	-11.1737
ज्वल	-11.1737
▁तडाग	-11.1738
भ्रष्ट	-11.1738
समूहाः	-11.1739
▁शक्रेण	-11.174
णाम्	-11.174
▁नाट्य	-11.1742
धर्मराज	-11.1747
तेऽ	-11.1749
▁स्क्रीन्	-11.1751
▁दुरासद	-11.1752
▁मादकद्रव्य	-11.1752
▁मुद्राः	-11.1752
▁गर्ह	-11.1752
निवासिनः	-11.1753
▁राघवम्	-11.1756
मवेक्ष	-11.1757
ण्टर्	-11.1757
व्रण	-11.1758
▁भिन्नं	-11.1759
विप्र	-11.1761
चिह्नं	-11.1763
ास्तदा	-11.1764
▁ओर्	-11.1764
विदो	-11.1765
वेदना	-11.1766
▁सङ्गम	-11.177
▁समुत्पन्न	-11.177
▁आद्य	-11.1775
ल्लोकान्	-11.1775
▁भूमिप	-11.1778
स्त्वरित	-11.1778
दृश्यन्त	-11.1779
▁दिष्ट	-11.1779
पुरस्कारः	-11.178
▁मृत्युं	-11.178
सैनिकैः	-11.1787
▁शर्मा	-11.179
िल्ला	-11.179
▁पाठं	-11.1791
ेको	-11.1792
ार्दित	-11.1794
▁ददत	-11.1794
▁श्रीमान	-11.1795
▁निर्जिता	-11.1795
भावं	-11.18
▁तापमान	-11.18
▁सिद्धा	-11.18
ेदानी	-11.18
▁अद्वितीय	-11.1801
वने	-11.1803
न्तरिक्ष	-11.1808
विच्	-11.181
हेतोः	-11.181
▁एकान्त	-11.1812
▁स्तरः	-11.1813
▁आह्वय	-11.1814
▁नीलवर्ण	-11.1815
बियन्	-11.1815
पतित	-11.1818
निष्	-11.182
शित	-11.182
सुतं	-11.1821
▁निवार्य	-11.1821
▁चाभि	-11.1824
▁सायं	-11.1825
▁यातु	-11.1825
▁पितरो	-11.1828
▁शशास	-11.183
▁ओण्टारियो	-11.183
▁भौतिक	-11.183
▁उलूक	-11.183
▁निर्मान्ति	-11.183
▁वसुधाधिप	-11.1831
▁स्थाणु	-11.1831
▁कतिचन	-11.1831
▁शृङ्गेरी	-11.1831
▁परिवर्तयन्तु	-11.1832
हय	-11.1832
▁गृहाणि	-11.1832
▁रशियन्	-11.1832
▁प्राधान्य	-11.1832
▁पुणे	-11.1832
वण	-11.1832
▁फाक्स्	-11.1832
▁१९६१	-11.1833
▁गुरव	-11.1834
▁आह्वान	-11.1835
▁ब्रह्मर्षि	-11.1835
▁स्मृताः	-11.1835
▁हरियाणा	-11.1838
स्ततस्ततः	-11.1839
▁इत्यस्ति	-11.1839
▁विस्तारः	-11.184
दिग्ध	-11.184
▁६४	-11.184
ip	-11.1841
▁प्रत्यागत्य	-11.1841
▁लिखतु	-11.1842
▁type	-11.1843
▁रमते	-11.1844
▁अकथयत्	-11.1845
▁रश्	-11.1849
▁विलय	-11.185
चोळ	-11.1851
▁भग्ना	-11.1851
▁कृतवन्तौ	-11.1853
ागत्य	-11.1854
▁भरतस्य	-11.1856
▁उपेक्ष	-11.1858
श्चाप	-11.1859
न्नं	-11.1859
▁गमनात्	-11.1859
▁स्वशरीर	-11.1859
▁ततोऽर्जुन	-11.186
यसे	-11.186
त्यपि	-11.1861
पश्यत	-11.1862
▁न्यूनता	-11.1863
ादीनि	-11.1863
▁वणिज	-11.1866
हिन्दु	-11.1866
विषयेषु	-11.1866
मानय	-11.1866
▁उदाहरणार्थम्	-11.1868
▁मायया	-11.187
▁आदर्श	-11.1872
▁दारा	-11.1873
▁अभिप्राय	-11.1873
▁फेन	-11.1873
▁कम	-11.1873
▁इस्	-11.1875
वर्षस्य	-11.1875
▁द्वारका	-11.1876
▁समुत्थित	-11.1876
लन	-11.1878
ानामपि	-11.1881
जीविनः	-11.1881
▁शस्य	-11.1882
भयंकर	-11.1887
▁ततोऽस्य	-11.1887
▁लोकप्रियः	-11.1887
▁भाण्डार	-11.1887
▁हार	-11.1889
एव	-11.189
वृतः	-11.1891
उपरि	-11.1891
▁दूरी	-11.1892
वर्मा	-11.1892
▁किरीटिना	-11.1894
काष्ठ	-11.1898
▁गच्छेत	-11.1898
क्लि	-11.1899
चतुर्थ	-11.19
▁तिष्ठन्	-11.1902
र्भव	-11.1903
देवालय	-11.1905
विग्रह	-11.1907
▁कृतवान	-11.1908
▁आरभन्ते	-11.1908
ीयानि	-11.1909
निर्दिष्ट	-11.1909
भ्या	-11.1909
▁निहित	-11.191
जस्	-11.1912
▁तदपि	-11.1914
▁तावकाना	-11.1914
ाचर	-11.1915
▁शक्तो	-11.1915
▁शू	-11.1916
स्थलम्	-11.1921
▁तोल	-11.1922
▁युयुत्सु	-11.1923
▁लक्ष्मणो	-11.1927
▁r	-11.1931
▁शङ्क	-11.1932
▁प्रकोप	-11.1934
▁जनप्रिय	-11.1934
▁भि	-11.1937
▁सूचीं	-11.194
▁स्मृतम्	-11.1941
▁ह्यसि	-11.1942
▁सुदारुणम्	-11.1942
परिषदः	-11.1943
सङ्ख्याया	-11.1943
▁कुरुराज	-11.1946
▁सोन	-11.1948
▁निन्दित	-11.1949
▁पक्षिणः	-11.1949
देवता	-11.195
उत्पाद	-11.195
ुक्	-11.1951
दाता	-11.1952
▁पाल्	-11.1953
वानसि	-11.1954
यात्रिक	-11.1956
▁विशालाक्ष	-11.196
▁नाशय	-11.1961
ोपमा	-11.1962
▁क्यू	-11.1964
▁रोगिणः	-11.1964
▁मिथ	-11.1964
▁तद्वत्	-11.1964
टिंग्	-11.1965
▁तरण	-11.1966
▁वसा	-11.1966
शक्तिं	-11.1967
▁त्वय	-11.1968
▁पाण्डुपुत्राणा	-11.197
ऽस्मि	-11.1975
▁अनुमान	-11.1975
ाधारित	-11.1976
▁नूतनानि	-11.1977
निहत	-11.1978
▁आज्ञापय	-11.1981
▁आटो	-11.1982
मेकां	-11.1984
चोदयत्	-11.1984
demo	-11.1986
ॊ	-11.1987
▁from	-11.1987
▁चिनुमः	-11.1987
▁सव्यसाची	-11.1987
नियोग	-11.1987
▁वृक्क	-11.1987
▁विक्रेतु	-11.1988
मुद्गर	-11.1988
▁१९५५	-11.1988
नैव	-11.1988
आफिस्	-11.1989
▁सारांश	-11.1989
▁विश्वासः	-11.199
▁सोढु	-11.1992
▁प्रेक्षमाण	-11.1997
▁योऽसौ	-11.1997
▁आगच्छन्	-11.1998
ागता	-11.1998
ra	-11.1998
▁विवाहितः	-11.1999
▁कथमिति	-11.1999
शिरस	-11.2
▁मूसा	-11.2
ुक्तं	-11.2
▁कार्यक्रमस्य	-11.2003
▁विश्वामित्रो	-11.2006
तोय	-11.2008
राध	-11.2009
विश्वविद्यालयात्	-11.2009
▁राजनीति	-11.201
▁पशवः	-11.201
▁संभव	-11.201
▁सार्द्ध	-11.201
▁श्रेष्ठा	-11.2011
क्षति	-11.2013
▁फ़ोर्	-11.2013
▁विविक्त	-11.2014
▁प्रदीप	-11.2015
ies	-11.2015
▁अर्जित	-11.2017
०६	-11.2019
पाल्	-11.202
▁एतयोः	-11.202
वेतन	-11.202
▁नृपसत्तम	-11.2021
भवत	-11.2023
युर	-11.2023
युताः	-11.2024
सामर्थ्य	-11.2024
कम्पेनी	-11.2025
सम्प्रदाय	-11.2025
४९	-11.2025
▁सम्मिलितः	-11.2025
z	-11.2027
इत्यत्र	-11.2028
▁कृतज्ञ	-11.2028
▁भीतः	-11.2028
स्तीति	-11.2029
शिलालेख	-11.2029
ोच्यते	-11.203
▁प्रकरणानि	-11.203
नियत	-11.2032
▁त्रयो	-11.2034
▁नरेश्वर	-11.2034
वत्सल	-11.2035
▁ज्ञातव्य	-11.2036
▁यस्माद्	-11.2037
ानुगुणं	-11.2037
▁वर्गीकृत	-11.2038
▁कोलम्बिया	-11.2038
ितानां	-11.204
▁कर्मण	-11.204
▁निविष्ट	-11.2041
ट्टी	-11.2042
▁भावना	-11.2042
व्ययं	-11.2043
▁निर्भय	-11.2043
▁परत्र	-11.2045
शास्त्रस्य	-11.2045
▁कृथाः	-11.2045
▁मेद	-11.2047
▁विश्वसितु	-11.2048
ोपदेश	-11.2049
▁तेभ्यो	-11.2051
▁नाल	-11.2052
▁तदनन्तरम्	-11.2054
▁विभाजन	-11.2055
ऋण	-11.2057
▁मण्डलानि	-11.2059
ाचरण	-11.2059
८५	-11.206
▁प्रोटीन्	-11.2061
▁विद्वांसः	-11.2061
ेदिति	-11.2063
मन्द	-11.2063
▁विह्वल	-11.2065
▁लेखनं	-11.2065
▁पश्यसि	-11.2066
▁लाघव	-11.2067
▁प्रहसन्	-11.2067
▁परीक्षाया	-11.2069
▁निवारय	-11.2069
फ़्	-11.207
क्रा	-11.2071
▁नृपात्मज	-11.2072
▁वानरेन्द्र	-11.2073
ाशनि	-11.2073
▁नियोजय	-11.2073
अरे	-11.2076
ub	-11.2077
्तव्य	-11.2077
▁समुद्रे	-11.2077
▁अधिकारी	-11.2079
ैर्बहुभि	-11.2079
ादौ	-11.2082
प्रबन्धन	-11.2084
बालक	-11.2088
▁रोम्	-11.2091
▁पोर्ट	-11.2092
ज्जात	-11.2093
▁शार्दूल	-11.2093
▁प्रारब्ध	-11.2097
धर्म्म	-11.21
शक्तिः	-11.2101
▁यशस्वि	-11.2102
ादयः	-11.2111
लेखा	-11.2113
▁अक्बर	-11.2114
▁निर्वाचिता	-11.2114
▁नामकाय	-11.2115
▁जालस्थान	-11.2116
▁सफलः	-11.2116
▁राजधर्म	-11.2117
▁निवृत्ते	-11.2118
▁प्रपात	-11.2118
▁वसत	-11.212
▁स्वकीया	-11.2123
जालपुट	-11.2124
प्रभः	-11.2124
शाम्य	-11.2126
करणस्य	-11.2126
पद्धति	-11.213
ेच्च	-11.2131
▁भुजग	-11.2131
स्पर्धासु	-11.2132
▁यथार्थं	-11.2133
०३	-11.2135
▁कौन्तेयो	-11.2137
तनु	-11.2139
▁दीर्घतम	-11.2139
योद्ध	-11.2141
सदन	-11.2142
▁कुन्त्या	-11.2142
▁कपिः	-11.2144
उपत्यका	-11.2144
गेम्	-11.2144
▁एतस्मात	-11.2145
▁प्रार्थित	-11.2145
मरा	-11.2145
पात्राणि	-11.2145
▁राष्ट्रपतिः	-11.2145
▁इङ्ग्लण्ड्	-11.2145
▁छित्त्वा	-11.2145
▁तमाब्द	-11.2146
▁योहन	-11.2146
▁दमयन्ती	-11.2146
▁छायाचित्र	-11.2146
▁निष्कासयितुं	-11.2147
▁गालव	-11.2147
▁पिनाक	-11.2148
ेनेव	-11.2148
▁१९५८	-11.2148
▁सौवर्ण	-11.2149
▁बहुशो	-11.2149
▁मरुत्त	-11.215
▁विमुच्य	-11.2151
श्चिर	-11.2153
▁महीयते	-11.2153
▁प्रयतताम्	-11.2153
▁उपयोक्तु	-11.2153
▁प्रकृत्या	-11.2153
▁कियन्त	-11.2155
▁चिन्तयतु	-11.2155
▁दस्यु	-11.2156
पीड्य	-11.2156
▁विजित्य	-11.2157
▁मृगय	-11.2157
भिमन्यु	-11.2159
▁प्रयच्छन्ति	-11.2159
▁गण्यते	-11.2159
ख्य	-11.216
▁प्रचलित	-11.216
▁मनोहर	-11.216
▁फ़ेडरल्	-11.216
ानभि	-11.2161
▁अतीत	-11.2162
▁स्वकार्य	-11.2165
▁तस्मान्	-11.2165
▁मृ	-11.2166
▁वदतु	-11.2166
मतिक्रम्य	-11.2166
पतत्	-11.2167
▁एतदिच्छाम	-11.2167
▁निर्मितवान्	-11.2168
▁निर्गुण	-11.2169
राष्ट्रियनिकुञ्ज	-11.217
▁अधिकविवरणार्थं	-11.2172
▁पार्षतः	-11.2173
▁आरोपित	-11.2173
▁द्वैपायन	-11.2174
पदम्	-11.2174
▁मारिताः	-11.2177
द्वै	-11.2177
शास्त्रज्ञ	-11.218
▁चिकित्सायाः	-11.218
▁विप्रा	-11.2181
▁static	-11.2182
दद	-11.2182
▁कान्त	-11.2183
▁कुर्	-11.2183
द्रा	-11.2184
▁क्रिश्चियन्	-11.2184
▁अव्यक्त	-11.2184
▁दधि	-11.2184
▁जहाँ	-11.2184
व्यावसायिक	-11.2186
▁पुनस्त	-11.2186
सम्भ्रान्त	-11.2186
मरिंदमम्	-11.2186
स्मारक	-11.2186
▁फलित	-11.2186
वीडियो	-11.2188
▁नामकम्	-11.2189
▁ऊह	-11.2191
▁पदक	-11.2191
▁क्रू	-11.2191
▁तमसा	-11.2193
मुच	-11.2198
▁भिक्ष	-11.2203
▁दीप्ता	-11.2204
▁नियोजित	-11.2204
▁विद्व	-11.2206
▁गावो	-11.2207
▁स्वान्	-11.2207
ुपाय	-11.2209
▁वधे	-11.221
स्त्य	-11.2211
▁सत्वर	-11.2211
▁नष्टं	-11.2214
▁200	-11.2217
▁धनुर	-11.2218
▁लङ्काया	-11.2218
कुम्भ	-11.2218
▁पावन	-11.2219
स्तपो	-11.222
▁विस्मृत	-11.222
▁8	-11.2222
मश्व	-11.2222
▁मोघ	-11.2223
▁हानिः	-11.2223
हिंसा	-11.2224
▁विन्द	-11.2225
▁अशोकः	-11.2225
यत्र	-11.2226
ष्टुं	-11.2226
ग्नी	-11.2226
▁पराजिताः	-11.2227
▁मृतं	-11.223
▁एतस्याः	-11.2231
रियर्	-11.2231
क्ली	-11.2232
ोत्साह	-11.2232
क्षिण	-11.2236
▁लघ्व	-11.2236
▁कर्त	-11.2237
▁शय्या	-11.2238
▁कष्टं	-11.224
▁वर्धित	-11.2242
च्युतः	-11.2245
▁लेखकः	-11.2246
पदे	-11.2246
हरन्	-11.225
▁किङ्ग्	-11.225
▁साध्वी	-11.225
रक्षा	-11.2251
मभूत्	-11.2252
▁विभुः	-11.2256
▁मह्यम्	-11.2257
धारित	-11.2257
ीश्वरस्य	-11.2257
ाकाङ्क्ष	-11.2258
▁सभी	-11.2258
पश्यत्	-11.2259
▁परलोक	-11.2263
▁यथाऽऽ	-11.2264
▁राजकुमार	-11.2265
▁उर	-11.2268
▁जन्तु	-11.2269
▁शल्यक्रिया	-11.227
रूपिण	-11.227
▁प्रमत्त	-11.2271
▁याजक	-11.2271
बलम्	-11.2273
▁गुल्म	-11.2273
▁विश्रुत	-11.2273
▁आयात	-11.2273
▁संशप्तक	-11.2275
शास्त्रे	-11.2276
▁विस्फोटक	-11.2277
लाक्	-11.2277
▁मध्यप्रदेशस्य	-11.2278
पुट्	-11.2278
स्ताव	-11.2278
ाच्चैव	-11.228
▁वर्षद्वय	-11.2282
▁गृहाण	-11.2282
▁मुनय	-11.2283
महात्मनः	-11.2284
निवृत्त	-11.2284
भवति	-11.2284
▁तूर्ण	-11.2284
▁अर्ह	-11.2286
हरत्	-11.2287
▁निश्चितं	-11.2287
▁उत्तराखण्ड	-11.2287
७४	-11.229
▁हृता	-11.229
▁शरण	-11.2291
तदानीं	-11.2292
मानी	-11.2293
▁प्रारम्भ	-11.2293
▁चालित	-11.2293
▁महाबाहुर	-11.2293
सेनापति	-11.2294
न्तां	-11.2294
भवन्ति	-11.2295
निर्मुक्त	-11.2295
▁०	-11.2295
▁कारित	-11.2296
▁पुरंदर	-11.2299
४७	-11.2301
पत्रस्य	-11.2303
िष्यथ	-11.2304
▁तत्त्वं	-11.2307
▁Tool	-11.2307
▁ब्रज़िल्	-11.2307
▁अलावुद्दीन	-11.2307
▁नुत्त्वा	-11.2307
▁पुरस्तात्	-11.2307
▁मारीच	-11.2307
▁इब्राहीम	-11.2307
▁विवादास्पद	-11.2307
▁विवाहविच्छेद	-11.2307
▁१९४५	-11.2309
▁अभवताम्	-11.2309
▁इदानीमपि	-11.2309
▁निवेदित	-11.2309
▁नीत्वा	-11.2309
टिक्स्	-11.2312
ार्जित	-11.2312
▁न्यास	-11.2313
▁सिविल्	-11.2315
▁शल्यो	-11.2315
▁ढ	-11.2316
रन्ति	-11.2317
नेतुं	-11.2319
▁अनुवर्तते	-11.232
▁पिञ्ज	-11.232
शिष्ट	-11.232
▁ट्रान्स्	-11.2321
पेट्	-11.2321
▁निरूप	-11.2322
▁वर्धयति	-11.2322
द्रव्याणि	-11.2324
▁कृष्णवर्णीय	-11.2324
▁१०००	-11.2324
▁महाव्रत	-11.2327
टीव्	-11.233
णाय	-11.233
▁स्वयंवर	-11.2332
as	-11.2334
▁चालुक्य	-11.2334
▁साल	-11.2335
▁प्रतिबन्ध	-11.2335
तायै	-11.2336
▁पावकम्	-11.2337
▁वेला	-11.2338
कर्तार	-11.2338
ासक्त	-11.2339
▁फैर्	-11.234
▁लैन्	-11.2343
ीव्	-11.2344
▁बाद	-11.2344
वरो	-11.2346
▁J	-11.2346
▁दिशश्च	-11.2346
▁प्रशासनिक	-11.2347
▁ओलम्पिक्	-11.2348
सन्देश	-11.2348
▁ब्रह्मण्य	-11.2349
▁मत्तो	-11.2349
▁याहि	-11.2349
im	-11.235
आफ़्रिका	-11.235
▁आयोजित	-11.235
▁डु	-11.235
उपनिवेश	-11.235
▁वधू	-11.2354
लिमिटेड्	-11.2355
▁क्रियन्ते	-11.2356
गिर	-11.2356
ेष्यति	-11.2357
▁रक्तस्राव	-11.2361
▁विसृज	-11.2361
प्रदेशात्	-11.2361
▁यत्नेन	-11.2365
राष्ट्रीय	-11.2366
▁दाता	-11.2368
स्तीर्थ	-11.2369
ाश्चर्य	-11.237
वनानि	-11.2373
▁महात्मने	-11.2373
ोद्देश	-11.2374
▁मदर्थ	-11.2374
▁इतीदम	-11.2377
ष्यते	-11.2377
▁प्रसारित	-11.2377
▁राक्षसैः	-11.2378
▁ओपन्	-11.2379
▁सरोवरः	-11.2379
▁दानवा	-11.2381
सरण	-11.2382
मिलि	-11.2382
▁तेभ्य	-11.2383
▁दूरस्थ	-11.2386
हम	-11.2386
हद	-11.2387
▁पृष्ठभागे	-11.2391
▁यूप	-11.2391
▁निष्कासितः	-11.2392
▁क्षत्रियो	-11.2393
▁कस्मा	-11.2394
▁सेण्टर्	-11.2395
▁वर्गीकरण	-11.2396
त्ति	-11.2398
▁नय	-11.2399
▁चिता	-11.24
▁बना	-11.2401
भरण	-11.2402
▁व्यथ	-11.2403
मुद्दिश्य	-11.2406
▁लिखितानि	-11.2409
▁डालर्	-11.241
▁शक	-11.2414
▁उच्चविद्यालय	-11.2416
▁प्रपद्य	-11.2418
पर्वतानां	-11.2418
वचो	-11.2419
तोरण	-11.242
प्रेक्ष	-11.2421
▁राष्ट्रियदलस्य	-11.2422
▁शासनात्	-11.2423
परिवर्तनं	-11.2425
▁यन्त्रे	-11.2432
▁कुर्याद्	-11.2432
▁कीर्तित	-11.2434
पदवी	-11.2435
ांस्तत्र	-11.2435
विशेषे	-11.2435
▁रामाय	-11.2435
▁द्विचक्रिका	-11.2436
▁आक्	-11.2436
▁योद्ध	-11.2437
ध्वान	-11.2438
▁वीर्येण	-11.2439
▁सप्ताहे	-11.2439
▁प्रभुम्	-11.244
▁योधाः	-11.2441
▁कदली	-11.2442
▁सस्यानि	-11.2444
वार्य	-11.2445
एकं	-11.2446
स्तत	-11.2448
र्महाराज	-11.245
निश्चित	-11.245
▁समाप्तः	-11.245
▁ऋणस्य	-11.2451
▁जगतो	-11.2451
मूर्	-11.2451
नीया	-11.2454
▁आत्मनः	-11.2454
▁ओप	-11.2455
▁स्थानक	-11.2455
खो	-11.2456
▁स्नात	-11.2456
कानन	-11.2457
▁तावक	-11.2457
▁श्रुता	-11.2457
ाहम	-11.2459
▁सत्या	-11.246
दुर	-11.2461
▁मण्डलं	-11.2461
▁अर्थशास्त्र	-11.2461
▁वाचः	-11.2461
समन्वितम्	-11.2462
▁इण्डो	-11.2464
▁आत्महत्या	-11.2467
▁उत्पत्ति	-11.2468
▁जनन	-11.2469
▁बाणा	-11.247
▁दृष्टो	-11.247
▁कर्हिचित्	-11.2471
▁रणाजिरे	-11.2471
▁सर्वशस्त्रभृता	-11.2471
▁अकस्मात्	-11.2471
▁आतङ्क	-11.2471
▁पूजयामास	-11.2472
▁महापौर	-11.2472
▁दीक्षित	-11.2472
▁विवाहः	-11.2472
▁अवश्यमेव	-11.2473
▁साधयितुं	-11.2473
स्बर्ग्	-11.2473
▁कार्येषु	-11.2474
▁व्याहर	-11.2474
▁शीतकाल	-11.2475
वर्तिनः	-11.2475
▁बुद्ध्वा	-11.2475
▁अनुमन्यते	-11.2475
▁रिचर्ड्	-11.2475
सन्धारिका	-11.2476
ow	-11.2476
▁पृच्छामि	-11.2476
▁त्रीन्	-11.2477
▁आपूर्ति	-11.2477
▁विरुध्य	-11.2479
▁प्रष्टु	-11.248
ोपमाः	-11.2481
▁विडियो	-11.2482
▁गुहाः	-11.2482
चिन्तयत्	-11.2482
▁लुप्त	-11.2483
▁पराङ्मुख	-11.2484
▁शै	-11.2487
ावृता	-11.2488
▁कामन्वेल्त्	-11.2488
▁गृहेषु	-11.2489
▁दम्पती	-11.249
▁विन्	-11.249
▁अवलोकयन्तु	-11.249
▁महानाद	-11.2491
फ़ार्	-11.2492
एवं	-11.2492
जानी	-11.2492
तोमर	-11.2495
▁प्रतिपद्यते	-11.2497
▁नवीनतम	-11.25
निःसृत	-11.2501
विवेश	-11.2505
▁भेरी	-11.2505
▁खेद	-11.2506
▁बाधते	-11.2506
▁मार्गस्य	-11.2507
▁गीतम्	-11.2508
▁नायं	-11.2508
▁हनूमत	-11.2509
▁त्वरमाण	-11.2509
वधीत्	-11.2512
▁मन्दं	-11.2514
पङ्क्तौ	-11.2515
स्कूल्	-11.2515
▁सम्बद्धम्	-11.2516
X	-11.2516
वाणिज्य	-11.2516
पुरोहित	-11.2516
संशोधन	-11.2518
५१	-11.252
▁एरो	-11.2521
यूनियन्	-11.2521
▁भूतले	-11.2523
क्लिष्ट	-11.2524
रक्षित	-11.2525
▁स्वीकृतम्	-11.2526
विजेता	-11.2526
क्सी	-11.2526
▁विजयी	-11.2526
▁मौस्	-11.2527
▁धनुर्वेद	-11.2531
तिष्ठन्त	-11.2534
▁येषाम	-11.2534
▁विक्रयण	-11.2535
▁पथ	-11.2536
फ्र	-11.2536
ह्व	-11.2536
मार्त	-11.2537
▁अनुवर्त	-11.2537
ागमनं	-11.2538
द्वारं	-11.254
टिकल्	-11.254
▁युवान	-11.2541
▁कश्चिन्	-11.2541
▁पत्न्या	-11.2542
कोटि	-11.2543
▁मनोरम	-11.2543
यन्तो	-11.2543
ोष्ण	-11.2544
▁मुख्यानि	-11.2544
संस्पर्श	-11.2545
स्सा	-11.2546
लक्षित	-11.2546
▁बास्केट्बाल्	-11.2547
रिका	-11.2548
६८	-11.2548
नगरेषु	-11.2548
त्वाद्	-11.2549
कर्तृ	-11.2549
▁सत्यविक्रमः	-11.2549
गन	-11.255
▁डिस्क	-11.2552
▁श्रुतः	-11.2552
▁चित्रम्	-11.2553
धनुष	-11.2553
▁सम्पादन	-11.2553
▁भिन्नः	-11.2553
▁चिकित्सक	-11.2555
▁भ्रातुः	-11.2555
ामात्य	-11.2555
▁फैल्	-11.2556
तृण	-11.2556
▁भर्तुः	-11.2558
▁पोषण	-11.2559
ालये	-11.2559
▁भारती	-11.2562
रचयित	-11.2563
▁तयोर	-11.2563
सीमायाः	-11.2564
▁दुरासदम्	-11.2565
घोर	-11.257
बीर्	-11.2572
इस	-11.2573
▁आयोज	-11.2574
ण्ट्स्	-11.2574
▁वर्जय	-11.2576
▁विकर्ण	-11.2577
ऽव	-11.2578
ानिल	-11.2579
▁जानु	-11.2585
▁मुर	-11.2588
द्भिर	-11.2589
▁द्रुपद	-11.259
सेल्स्	-11.259
संस्थाभिः	-11.2591
▁चिकित्सालये	-11.2592
▁संत	-11.2593
मुपयुज्य	-11.2594
▁बाल्ये	-11.2596
चालक	-11.2596
▁मार्गेण	-11.2598
▁वेल्स्	-11.2598
५५	-11.2599
माश्रितः	-11.26
विव	-11.26
▁ग्राहकाः	-11.2602
०४	-11.2603
वैर	-11.2604
▁उपनिवेश	-11.2604
ैना	-11.2606
▁विभज	-11.2606
▁कश्चि	-11.2608
राजमार्ग	-11.261
ुस्ते	-11.2612
ऽऽत्मानं	-11.2612
▁भित्ति	-11.2612
शिरो	-11.2613
▁इरा	-11.2613
▁कुमारस्य	-11.2614
▁होल्	-11.2615
हान्	-11.2617
▁सैनिकान्	-11.2618
▁क्षु	-11.2619
▁धर्मतः	-11.2619
न्तीति	-11.2621
प्रमत्त	-11.2621
▁अध्याय	-11.2623
च्छद	-11.2624
सख	-11.2628
सभायाः	-11.2629
▁वृष्टिः	-11.2629
▁method	-11.2632
▁विष्णो	-11.2634
▁अद	-11.2635
▁लक्षित	-11.2635
▁शाह	-11.2636
▁tab	-11.2637
▁ओक्लाहोमा	-11.2637
▁पेन्सिल्वेनिया	-11.2637
▁हार्दिक्य	-11.2637
▁अभूवन्	-11.2637
▁फोल्डर्	-11.2637
▁date	-11.2638
▁पास्वर्ड्	-11.2638
▁न्यवसत्	-11.2638
▁Manager	-11.2638
र्भूत्वा	-11.2638
▁समार्पयत्	-11.2639
▁उच्चारण	-11.2639
▁विष्णोः	-11.264
कथां	-11.264
▁जानकी	-11.264
▁१९४६	-11.264
▁पय	-11.2641
▁सम्प्राप्य	-11.2642
▁प्रसुप्त	-11.2642
स्तथ	-11.2642
ायतन	-11.2642
▁नार्वे	-11.2643
▁मादकद्रव्याणां	-11.2643
युङ्क्त	-11.2643
▁विरूपाक्ष	-11.2643
▁इनिशियलैस्	-11.2644
▁विशिष्यते	-11.2644
▁कुछ	-11.2644
▁परिवारितः	-11.2644
▁तथ्य	-11.2645
▁उन्	-11.2645
▁ऋषीणा	-11.2646
▁खादन्ति	-11.2646
▁एकवर्ष	-11.2646
▁सदस्यता	-11.2649
ैर्वृत	-11.2649
▁उपविश्य	-11.265
▁सरलतया	-11.265
दंश	-11.2651
▁दर्शयन्	-11.2651
धत्त	-11.2652
ऽभवन्	-11.2652
▁प्रेषयति	-11.2653
▁सामुदायिक	-11.2653
ाय्ड्	-11.2655
▁अन्तर्जालस्य	-11.2655
नगरेण	-11.2656
भिरेव	-11.2658
ातिथ्य	-11.2658
▁भौगोलिक	-11.2659
▁डेटाबेस्	-11.2659
ञ्ज्	-11.2659
▁पुनरागमन	-11.2661
▁गणाः	-11.2662
▁गायन्ति	-11.2663
पूर्णा	-11.2664
▁निक्षिप	-11.2665
▁करणम्	-11.2666
प्रास	-11.2668
▁दातु	-11.2669
न्द्रिय	-11.2669
▁जाने	-11.2669
▁प्लवग	-11.267
▁धारयन्ति	-11.267
▁पौरुष	-11.267
ग्याल	-11.2671
▁सम्म	-11.2671
ऽभ्य	-11.2672
▁निनद	-11.2672
▁दुरात्मना	-11.2673
ास्मान्	-11.2673
▁इण्टर्फ़ेस्	-11.2674
शन्स्	-11.2675
▁प्रदिश	-11.2677
▁उपकरणानि	-11.2679
▁विषाण	-11.2681
▁महाराष्ट्रस्य	-11.2685
▁यथार्ह	-11.2685
तन्तु	-11.2686
▁तपस्विनी	-11.2686
▁प्रसार्य	-11.2687
रुज	-11.2688
▁किमर्थम्	-11.2688
मुस्लिम्	-11.2688
▁तूर्णम	-11.2689
विद्रोह	-11.2689
संतप्त	-11.2689
पक	-11.269
गमत्	-11.269
तवान्	-11.269
▁मन्त्रि	-11.2692
कथाः	-11.2693
▁राज्	-11.2693
▁चरन्त	-11.2694
चिकित्सालय	-11.2695
चिन्त	-11.2697
समाप्त	-11.2697
▁सतत	-11.2699
लिखित	-11.2701
▁भयावह	-11.2701
▁प्रथमतया	-11.2701
पण	-11.2702
▁चीर	-11.2705
ेन्स्	-11.2705
चेतसम्	-11.2706
▁तटीय	-11.2707
नपि	-11.2707
स्पर्धायाः	-11.2707
मानेन	-11.2708
विधे	-11.2708
धारय	-11.2709
भृत्य	-11.2711
▁चतुर्भि	-11.2717
शतक	-11.2717
परायणः	-11.272
▁पदे	-11.2721
▁ईश्वरं	-11.2722
▁आधिपत्य	-11.2724
▁ध्याय	-11.2727
▁सुहृद्	-11.2727
▁पर्वतस्य	-11.2729
▁तमह	-11.273
▁वृ	-11.273
अन्य	-11.2732
▁व्यतिक्रम	-11.2733
शीत	-11.2733
ोऽस्माकं	-11.2734
▁दृश्येत	-11.2734
▁सम्मेलन	-11.2735
यात्रायां	-11.2735
तदर्थं	-11.2739
युक्ते	-11.274
ामृत	-11.274
मानसा	-11.274
वासांसि	-11.2741
▁विद्यालयेषु	-11.2741
▁प्रकारस्य	-11.2741
▁प्रसङ्ग	-11.2741
▁लज्ज	-11.2741
▁सूचिका	-11.2743
▁विहार	-11.2744
८४	-11.2746
न्यो	-11.2746
▁बोर्ड्	-11.2747
▁महत्त्वपूर्णम्	-11.2747
▁नवभि	-11.2748
ङ्गर्	-11.2749
▁प्रणाली	-11.275
सहायक	-11.2751
▁जनयामास	-11.2753
युगल	-11.2756
५२	-11.2757
ादनन्तरं	-11.2757
मङ्ग	-11.2758
धनुः	-11.276
ुक्त्वा	-11.2761
४८	-11.2761
पस्	-11.2763
▁टङ्कनं	-11.2763
▁अभिनयं	-11.2764
गार	-11.2765
▁नृ	-11.2765
▁मतः	-11.2766
▁बेल	-11.2767
च्छत	-11.2767
▁लिब	-11.277
▁वाग	-11.2771
किरण	-11.2772
▁सत्ये	-11.2776
केभ्यः	-11.2776
▁मोर्	-11.2778
स्तन	-11.2779
▁अपरम्	-11.2779
मुखं	-11.2781
िच्छ	-11.2782
▁ओवर्	-11.2784
▁अनुवाद	-11.2785
जङ्घ	-11.279
वाला	-11.279
ज्ञाय	-11.279
▁विश्रान्त	-11.279
▁असुर	-11.2792
▁पुं	-11.2793
आन्दोलन	-11.2794
▁बन्धित	-11.2796
▁वयो	-11.2796
▁घटित	-11.2796
▁घातय	-11.2797
./	-11.2797
▁क्रिय	-11.2798
ाँ	-11.2804
सहस्राणां	-11.2804
स्त्वम	-11.2807
▁महाद्युते	-11.2807
▁कर्षयामि	-11.2807
▁पीछे	-11.2807
▁जहाङ्गीर	-11.2807
▁तथेत्युक्त्वा	-11.2807
▁द्रुतगत्या	-11.2807
▁भुञ्जते	-11.2807
▁आपत्कालीन	-11.2808
▁दीयमान	-11.2808
▁सेण्ट्रल्	-11.2808
▁कस्यचन	-11.2808
▁पेटर्न्	-11.2808
प्रभृतय	-11.2808
पार्श्वे	-11.2809
▁निकृत्त	-11.2809
▁जङ्गम	-11.2809
▁गन्	-11.2809
६३	-11.2809
▁हिन्दीभाषायाः	-11.281
दग्ध	-11.281
▁नरसिंह	-11.281
▁पठित्वा	-11.281
▁लिखत	-11.2811
▁त्यजामि	-11.2812
▁महामते	-11.2812
▁स्थाप्यते	-11.2813
▁विनिर्	-11.2813
▁गृहीतवन्तः	-11.2814
नेक्	-11.2815
▁कुर्वती	-11.2815
रेत	-11.2815
▁महासत्त्व	-11.2816
▁बुश्	-11.2816
▁कृष्णे	-11.2817
▁जन्मदिन	-11.2817
▁संव	-11.2818
▁अमोघ	-11.2818
▁दक्षिणपूर्व	-11.282
▁नक्षत्राणि	-11.282
▁मोदते	-11.2821
मनस	-11.2822
स्वभाव	-11.2822
▁अनुगुणं	-11.2823
▁रक्षात्मक	-11.2823
युज	-11.2824
▁साहाय्यार्थं	-11.2824
▁तपश्च	-11.2824
ोर्मि	-11.2825
▁ज़े	-11.2825
▁प्रमुच्यते	-11.2825
▁आक्षेप	-11.2826
▁अब्	-11.2827
▁अनुशंस	-11.2827
सम्बाध	-11.2827
भाषां	-11.2828
▁तत्कालीन	-11.2829
▁तस्मि	-11.283
▁पुष्टि	-11.2831
▁आपत्काल	-11.2832
▁ग्रीवा	-11.2833
▁विनयं	-11.2834
▁पाण्डवेन	-11.2834
▁धनुषा	-11.2835
▁शशंस	-11.2835
▁आण्टि	-11.2838
▁दीप्ति	-11.2838
▁पद्मिनी	-11.2838
▁उपनदी	-11.2838
▁वामभागे	-11.2839
▁Select	-11.2841
▁युगे	-11.2842
▁मुखस्य	-11.2843
विद्युत्	-11.2843
दर्श	-11.2844
ास्त्रेण	-11.2844
▁कर्त्तव्य	-11.2845
योन्	-11.2847
▁देहलीनगर	-11.2847
▁नौकाया	-11.2849
▁अपेक्षितं	-11.2849
सम्मित	-11.285
▁अनुज्ञापत्र	-11.285
▁धौम्य	-11.2852
▁ग्राहकः	-11.2853
▁चिन्तये	-11.2853
▁पाण्डवो	-11.2854
▁विक्रम्य	-11.2855
संयुक्तं	-11.2856
॑	-11.2857
▁सव्यसाचिन	-11.2857
धार्मिक	-11.2858
कल्याण	-11.2858
▁महाबलौ	-11.2859
ब्याङ्क्	-11.286
बुध्यत	-11.2861
ैरेव	-11.2861
▁शोकेन	-11.2861
यीशु	-11.2862
▁जानीम	-11.2864
वध्य	-11.2866
▁छाया	-11.2866
▁वेणु	-11.2866
दित्य	-11.2867
▁भ्रातृणा	-11.287
▁उद्देश्यं	-11.2871
▁पुलि	-11.2871
▁विक्रमेण	-11.2872
संचय	-11.2872
▁प्रत्यागत	-11.2873
▁प्रतीक्षा	-11.2874
▁सैन्येन	-11.2874
बोट्	-11.2875
▁सहभागिन	-11.2875
▁प्राप्तव्य	-11.2875
▁विजयः	-11.2876
पेटिकाया	-11.2876
नन्दनः	-11.2881
रेणु	-11.2881
▁सहदेवश्च	-11.2882
३८	-11.2884
▁तन्त्रज्ञान	-11.2885
क्षे	-11.2886
ाहुः	-11.2887
मस्माकं	-11.2888
▁आङ्ग्लाः	-11.2889
कर्तव्य	-11.2889
पुरम्	-11.289
अथ	-11.2892
un	-11.2892
▁क्षिप्रम	-11.2893
▁निष्क्रिय	-11.2894
▁दृष्टम्	-11.2895
ीकृता	-11.2895
▁निश्चयेन	-11.2895
मेल	-11.2897
पृष्ठे	-11.2897
पराजितः	-11.29
गतिः	-11.29
▁विश्वस	-11.2902
▁लभे	-11.2904
ाकर	-11.2905
हस	-11.2906
▁मुद्र	-11.2907
मध्यस्थ	-11.2907
भूद्	-11.2909
▁नकुलं	-11.2909
मास्	-11.291
▁इत्याख्या	-11.2912
ेश्वरम्	-11.2914
▁विस्तारित	-11.2917
▁विशिष्टा	-11.2918
▁वयस्क	-11.2919
▁नारदः	-11.2919
मुत्र	-11.292
निन्	-11.292
जना	-11.2922
▁आधिपत्यं	-11.2922
भ्यधिक	-11.2925
पुरे	-11.2926
▁नवम	-11.2929
▁आनीय	-11.2932
बेस्	-11.2933
▁वेतनं	-11.2933
▁वायुगुण	-11.2934
▁आगच्छाम	-11.2936
तीह	-11.2937
▁सम्प्रदाय	-11.294
यर्स्	-11.294
▁प्रहित	-11.2941
ाङ्गानि	-11.2944
प्रियं	-11.2948
रांसि	-11.295
छात्र	-11.2951
गव	-11.2952
वादित्र	-11.2954
ष्यति	-11.2954
▁दत्त्	-11.2957
▁ch	-11.2957
▁चीना	-11.2959
▁नानाविध	-11.2959
चरन्ति	-11.2962
प्रभम्	-11.2962
िणां	-11.2963
▁आदरं	-11.2963
णार्थं	-11.2964
▁निर्दिश	-11.2968
प्रमुखा	-11.297
तपस	-11.2972
ञ्छर	-11.2972
▁स्टेट्स्	-11.2972
दपि	-11.2973
▁व्ययं	-11.2974
▁वधः	-11.2975
जनपदे	-11.2975
शै	-11.2975
चक्षुष	-11.2975
▁नित्यमेव	-11.2975
▁न्यूनम्	-11.2976
▁अभियान	-11.2976
ॆ	-11.2979
▁Code	-11.2979
▁category	-11.2979
▁course	-11.2979
▁पौरजानपद	-11.2979
▁मार्जार	-11.2979
▁username	-11.2979
▁एड्वर्ड्	-11.298
▁कुर्वीत	-11.298
▁पञ्जीकृत	-11.298
▁नियन्त्रयितुं	-11.298
▁योजयित्वा	-11.298
alk	-11.298
▁निराकरोत्	-11.298
▁मेरुदण्ड	-11.2981
▁मनांसि	-11.2981
मभिप्रेक्ष्य	-11.2981
▁त्वरया	-11.2981
प्रेप्सु	-11.2981
▁पृथिवीपतिः	-11.2982
▁निवेद्य	-11.2982
न्ममाच	-11.2982
▁करिष्य	-11.2983
▁राष्ट्रपति	-11.2983
रिक्त	-11.2984
▁सङ्ख्याः	-11.2984
▁पठितुं	-11.2984
त्त्व	-11.2986
▁प्रशम	-11.2986
▁अत्रत्य	-11.2987
▁जितेन्द्रिय	-11.2987
▁इदमेव	-11.2988
▁शान्तनु	-11.2989
▁भवत्सु	-11.2989
▁जनय	-11.299
▁अक्बरः	-11.2991
▁डिस्कौण्ट्	-11.2991
▁फुट्बाल्	-11.2992
मुपाश्रित	-11.2992
▁प्रणष्ट	-11.2992
▁पीटर्	-11.2993
▁स्पष्टं	-11.2993
▁भेदः	-11.2994
▁विनियोग	-11.2995
▁ईजिप्ट्	-11.2995
▁देवल	-11.2996
दर्शिनः	-11.2996
▁काल्पनिक	-11.2997
▁औन्नत्य	-11.2997
चारित्र	-11.2998
माली	-11.2998
सिटी	-11.2999
▁इण्डेक्स्	-11.2999
घ्	-11.2999
▁प्रविष्टः	-11.3001
मालिनी	-11.3002
▁नास्त्य	-11.3002
प्रियः	-11.3004
गोप	-11.3005
युध्यन्त	-11.3006
क्षेत्राणां	-11.3006
▁ववृधे	-11.3007
▁कर्मसु	-11.3007
▁सुभद्रा	-11.3008
▁this	-11.3008
‘	-11.3012
▁वैवस्वत	-11.3012
निलय	-11.3012
स्वनम्	-11.3013
▁देवाश्च	-11.3013
▁द्रष्टुम	-11.3015
▁ग्रीष्मकाले	-11.3016
स्विल्	-11.3016
हेम	-11.3019
▁एण्ट	-11.302
▁निष्कासय	-11.3021
▁अभिलेखित	-11.3021
जिया	-11.3022
स्तत्त्व	-11.3022
▁मुक्तः	-11.3024
▁सखी	-11.3024
न्तरं	-11.3025
ल्लिख	-11.3025
भ्यश्च	-11.3026
▁जैविक	-11.3027
तेजसः	-11.3027
▁प्रीमियर्	-11.3029
▁व्यवस्थाप	-11.3029
वार्षिक	-11.3033
आल्बम्	-11.3034
लुब्ध	-11.3034
▁संश्रित	-11.3034
ानय	-11.3035
▁विज्ञेय	-11.3036
if	-11.3036
वायुगुण	-11.3037
round	-11.3039
▁एताव	-11.3039
नमस्कृत	-11.304
सिङ्घ	-11.304
▁कण्ड	-11.3041
▁पापेन	-11.3049
पट्टिका	-11.3052
निर्देशक	-11.3055
ीदं	-11.3059
▁निर्मल	-11.3059
शाक	-11.3061
▁पूत	-11.3062
▁विशिख	-11.3064
▁त्रिभि	-11.3066
▁म्यान्	-11.3066
▁खान	-11.3067
ूर्ध्व	-11.3067
ब्रो	-11.3068
▁W	-11.3068
दैव	-11.3069
▁योगस्य	-11.3069
सद	-11.3071
▁प्रती	-11.3074
▁ट्रि	-11.3075
up	-11.3076
गच्छन्	-11.3077
ेणैव	-11.3077
९२	-11.3079
▁संयोजयाम	-11.3081
धिपति	-11.3081
▁विधिः	-11.3082
▁लव	-11.3082
▁करिष्ये	-11.3085
करणात्	-11.3085
▁डिस्	-11.3085
शाख	-11.3085
ण्टी	-11.3085
वक्ष	-11.3085
निवारण	-11.3086
▁कोन्	-11.3086
क्रीडकानां	-11.3088
पीडा	-11.3089
▁प्रदर्शनस्य	-11.3091
दिव	-11.3093
▁बहिर	-11.3095
धूम	-11.3096
जेन	-11.3096
▁सेनायाः	-11.3096
▁उत्तरप्रदेशस्य	-11.3099
▁सन्देशः	-11.3101
▁क्रीडिता	-11.3103
मज्ज	-11.3105
▁स्वकर्म	-11.3106
कुरु	-11.3106
नोय्	-11.3106
▁नुदामः	-11.3109
ण्डिस्	-11.311
▁सम्भ्रान्त	-11.311
▁सर्वाधिकः	-11.3111
▁किरीट	-11.3112
करूपेण	-11.3114
▁फ़ु	-11.3114
लिंग्	-11.3114
पद्धतिः	-11.3115
▁तथ्यं	-11.3117
७३	-11.3118
ावस्थायां	-11.3118
िको	-11.312
ाग्निना	-11.3121
▁वृत्तपत्र	-11.3122
▁वैद्याः	-11.3122
▁निशाचरः	-11.3122
स्तावका	-11.3123
शल्य	-11.3124
▁e	-11.3125
▁दाह	-11.3129
०९	-11.3133
काङ्ग्	-11.3133
चालित	-11.3134
स्तरः	-11.3134
▁बाणेन	-11.3134
▁वृद्धः	-11.3137
शक्त्या	-11.3138
मारोप्य	-11.3141
▁धरा	-11.3141
▁पास	-11.3141
संयोग	-11.3142
▁दातव्यं	-11.3143
▁मापन	-11.3144
▁अधिकान्	-11.3144
▁विपणन	-11.3145
८६	-11.3145
मोर्	-11.3145
समाज	-11.3146
▁विप्रिय	-11.3147
▁सुरासुर	-11.3147
ide	-11.3148
४३	-11.3149
▁संयम	-11.315
मुपागतः	-11.3151
▁दीर्घता	-11.3151
चतुर्	-11.3152
▁कश्मल	-11.3155
▁सौजन्य	-11.3155
▁श्रद्दधान	-11.3155
▁प्रीयमाण	-11.3155
मिच्छन्ति	-11.3155
▁महोदधि	-11.3155
वप्लुत्य	-11.3155
▁page	-11.3156
मभ्ययात्	-11.3156
▁विश्वसनीय	-11.3156
▁सूचीकृत	-11.3156
▁दें	-11.3157
▁स्वपितु	-11.3157
भिरिव	-11.3158
▁द्रक्ष्यसि	-11.3158
▁चर्चां	-11.3161
▁चैन	-11.3162
मुद्र	-11.3162
▁क्ले	-11.3163
▁पशव	-11.3163
हृत्य	-11.3163
▁करवाम	-11.3164
▁स्वीकुर्वन्ति	-11.3164
यसि	-11.3164
▁महोदर	-11.3164
▁प्रार्थयन्त	-11.3167
▁एतन्म	-11.3168
▁महागज	-11.3168
▁चत्वार	-11.3169
मण्ड	-11.3169
▁कुरूणाम	-11.317
▁प्रमदा	-11.3172
करणार्थं	-11.3173
▁परोक्ष	-11.3174
ह्लाद	-11.3177
र्ट	-11.3177
▁फ्र	-11.3178
मर्ष	-11.3178
▁लद्दाख्	-11.3179
▁साम्प्रदायिक	-11.318
चक्षु	-11.318
▁परमो	-11.3182
▁Sale	-11.3184
थु	-11.3184
▁प्रवर्ध	-11.3185
▁गान्धार्या	-11.3186
▁माहात्म्य	-11.3188
संनिभ	-11.319
▁पात्रे	-11.319
▁महानदी	-11.3192
▁ब्राह्मणेभ्यो	-11.3195
▁विरल	-11.3196
▁कर्मणि	-11.3196
▁पण्य	-11.3196
▁Book	-11.3196
▁लघुः	-11.3196
▁नर्तक	-11.3199
▁भृशम	-11.32
तुमर्हसि	-11.32
▁विवर	-11.32
येट्	-11.3201
स्ततस्त	-11.3202
वलोक	-11.3202
उच्च	-11.3202
▁सर्व्वाणि	-11.3203
कू	-11.3205
▁सुरेश्वर	-11.3206
ot	-11.3206
दृढ	-11.3207
▁गच्छत	-11.3207
▁बहुमत	-11.3208
▁सुग्रीवेण	-11.3208
▁अधिकृत्य	-11.3208
▁विलम्बित	-11.3209
▁मधुरं	-11.3209
प्रकोष्ठ	-11.3212
प्रशिक्षक	-11.3212
▁परिश्रान्त	-11.3214
▁शृण्वत	-11.3216
▁राजानम	-11.3216
▁व्याहृत	-11.3219
श्रुति	-11.3221
▁आरक्षकैः	-11.3223
▁वीरान्	-11.3224
▁अपश्यन्	-11.3224
▁वर्धय	-11.3224
▁दण्डः	-11.3225
प्राप्य	-11.3226
us	-11.323
▁राहु	-11.323
▁समास्थाय	-11.3231
३६	-11.3231
to	-11.3232
▁केन्द्रम्	-11.3232
▁सक्त	-11.3233
स्ट्रि	-11.3235
विभक्त	-11.3236
वश्य	-11.3236
बाहुल्य	-11.3238
ङ्गल	-11.324
५७	-11.3241
मेण्ट	-11.3242
▁गल	-11.3243
स्थितेः	-11.3243
▁५१	-11.3244
▁परीक्ष्य	-11.3244
▁वृक्षाणां	-11.3246
ाङ्गण	-11.3247
▁चक्रं	-11.3247
▁क्षोभ	-11.3247
▁ग्रहणं	-11.3249
धुना	-11.325
▁प्रकटित	-11.325
▁समाश्रित्य	-11.3252
▁मार्क्स्	-11.3253
बौ	-11.3255
खल	-11.3255
वलय	-11.3259
वशात्	-11.326
ीकुर्वन्ति	-11.3261
शृङ्खलायाः	-11.3261
ख्या	-11.3263
रिण	-11.3263
▁कुरवो	-11.3265
दाम	-11.3265
▁खं	-11.3265
▁पट्टिका	-11.3267
▁रथाः	-11.3268
▁तपोधनाः	-11.3269
▁अचल	-11.3269
्येते	-11.327
▁विरूप	-11.3271
बर्न्	-11.3272
चरितं	-11.3274
▁निपातितः	-11.3276
शासनं	-11.3277
रेख	-11.3277
ब्रे	-11.3279
श्चिन्त	-11.328
य॑	-11.3281
प्रकाराः	-11.3281
मार्य	-11.3282
▁रसायन	-11.3282
कामो	-11.3283
▁न्यूनाः	-11.3284
विघ्न	-11.3285
▁इयम्	-11.3287
▁स्टोर्	-11.3288
प्रभु	-11.329
▁महारथौ	-11.3293
▁हृदये	-11.3293
▁कैकेय	-11.3294
ैतान्	-11.3296
▁साम्य	-11.3296
मृत्	-11.3297
त्युग्र	-11.3298
कृताः	-11.3298
▁स्थितमेक	-11.33
▁कुरुक्षेत्र	-11.33
हिता	-11.33
▁नोड्	-11.3301
▁निकटे	-11.3302
ैति	-11.3302
रुचि	-11.3303
▁सङ्ग्रहालय	-11.3304
▁त्वह	-11.3305
ाप्नुया	-11.3306
▁गणेश	-11.3308
स्तुमुल	-11.3311
७९	-11.3311
▁चास्ति	-11.3313
▁विस्म	-11.3313
▁दर्शितम्	-11.3313
ग्री	-11.3314
▁दीर्घः	-11.3318
▁पाठेऽस्मिन	-11.3321
णु	-11.3323
▁विद्यालयाः	-11.3325
▁किरीटिन	-11.3325
▁समिति	-11.3325
माहार	-11.3326
▁अरण्य	-11.3329
विषयं	-11.333
▁चापरे	-11.3331
▁स्ट	-11.3331
ावली	-11.3332
▁इण्डोनेशिया	-11.3333
]	-11.3333
—	-11.3333
▁16.04	-11.3333
▁आकस्मिक	-11.3333
▁आनुवंशिक	-11.3333
▁महामृधे	-11.3333
▁झटिति	-11.3333
▁वैनतेय	-11.3333
▁पृतना	-11.3333
▁विटामिन	-11.3333
▁अधोनिर्दिष्ट	-11.3333
माचार्य	-11.3335
▁भूकम्प	-11.3336
▁शैत्य	-11.3337
क्ला	-11.3338
▁अनुभूयते	-11.3339
▁यदाश्रौष	-11.3339
▁कथयामि	-11.3339
▁शरणागत	-11.3339
दानी	-11.334
मोन	-11.3341
▁त्वदर्थ	-11.3343
▁प्रवर्तन्ते	-11.3343
▁तैर	-11.3345
▁चतुर्विध	-11.3345
▁पाण्डुनन्दन	-11.3346
dir	-11.3346
परीक्ष	-11.3347
▁सिक्ख्	-11.3347
हृष्ट	-11.3347
▁व्याल	-11.3347
▁आध्यात्मिक	-11.3348
ैर्युक्त	-11.3348
▁नायकः	-11.3348
▁यासु	-11.3348
▁अज्ञान	-11.3348
▁विकीर्ण	-11.3348
▁निरामय	-11.3349
▁अशक्य	-11.3349
िभि	-11.3349
▁दक्षिणभागे	-11.3351
नाशन	-11.3351
कील	-11.3351
▁देवदानव	-11.3352
▁किरीटी	-11.3353
हिम	-11.3353
▁प्रलय	-11.3354
▁मर्यादा	-11.3354
▁प्रयत्नं	-11.3355
▁निर्धार	-11.3355
▁योषित	-11.3357
भूषितम्	-11.3359
क्रीडानां	-11.3359
▁हितम्	-11.336
▁प्रभवति	-11.336
▁नैषध	-11.336
▁अग्ने	-11.3361
माल्	-11.3362
▁सत्कार	-11.3363
धारक	-11.3363
▁block	-11.3363
▁निषेध	-11.3367
ोद्यान	-11.3369
ाग्रतः	-11.3369
निरत	-11.3369
▁प्रश्ना	-11.3369
योरिव	-11.337
▁ब्राह्मण्य	-11.337
▁कर्तव्यः	-11.337
िकायां	-11.337
▁ओक्	-11.3372
▁ऋत	-11.3372
ेथाः	-11.3373
▁हन्तव्य	-11.3375
▁रामायण	-11.3376
▁उत्तमाः	-11.3379
▁मुण्ड	-11.3379
▁कारागार	-11.338
ाभिनन्द	-11.3381
▁उद्यत	-11.3382
▁कौरवाः	-11.3382
यार्	-11.3383
▁विभज्य	-11.3384
▁विश्वरूप	-11.3384
▁नामा	-11.3385
▁गणः	-11.3386
ञ्जी	-11.3386
९१	-11.3388
▁युध्यस्व	-11.3388
सङ्कुल	-11.3389
च्चैव	-11.3389
ite	-11.3391
संख्य	-11.3392
▁सिन्धुराज	-11.3392
संनिधौ	-11.3393
▁मीन	-11.3394
किङ्ग्डम्	-11.3394
पाठस्यास्य	-11.3395
▁देख	-11.3397
▁आक्रमणस्य	-11.3397
▁भ्रातुर्	-11.3399
▁एडिटर्	-11.3401
▁ग्रो	-11.3401
संसद	-11.3403
उद्	-11.3403
मितं	-11.3403
ोष्ठ	-11.3403
▁प्रसूत	-11.3404
ोपजीव	-11.3406
▁लक्ष्मणस्य	-11.3407
▁महार्णव	-11.3407
ेऽथ	-11.3408
▁विस्तृतं	-11.3409
जनपद	-11.341
▁समापन	-11.341
विचित्र	-11.3412
▁निरय	-11.3412
▁दर	-11.3413
वैद्य	-11.3414
पूजयन्	-11.3415
युक्तान्	-11.3415
▁तोष	-11.3416
▁देवानाम	-11.3416
नीस्	-11.3416
मार्गाः	-11.3417
मव्यक्त	-11.3418
▁सेनया	-11.3419
क्लेश	-11.3421
मावृत्य	-11.3422
ाक्षि	-11.3423
▁पक्षे	-11.3424
नाह	-11.3424
▁मार्गाः	-11.3425
▁विरामदिन	-11.3426
▁चेस्	-11.3427
▁परिचर्या	-11.3427
आधारित	-11.3428
▁अपमान	-11.3429
जज्ञे	-11.3431
▁निक्षिप्य	-11.3433
▁संरक्ष	-11.3435
क्रीडारूपेण	-11.3436
प्यते	-11.3437
मभाषत	-11.3437
जार्	-11.3438
न्तर्हित	-11.3438
▁संहार	-11.3439
संकाशा	-11.344
ानुरूप	-11.3441
दिवसः	-11.3442
फ़ोन्	-11.3442
व्यवस्थायां	-11.3443
ेऽहनि	-11.3446
▁समाप्ति	-11.3446
रीना	-11.3449
▁अस्त	-11.3453
भविष्य	-11.3453
▁संनिधौ	-11.3454
▁समाः	-11.3455
▁कङ्क	-11.346
संगीत	-11.3461
▁फलक	-11.3462
वेट्	-11.3462
▁संयोज	-11.3463
▁मण्डले	-11.3464
माशु	-11.3464
परिषद्	-11.3464
वासी	-11.3464
▁सफला	-11.3465
र्मे	-11.3466
वृद्धेः	-11.3467
वृत्य	-11.3468
▁क्षत्रियस्य	-11.3469
रुच	-11.347
one	-11.347
▁दंशित	-11.3471
मन्त्र्य	-11.3471
▁व्याख्यात	-11.3473
▁समुद	-11.3474
▁सरिता	-11.3475
▁भक्ता	-11.3475
भ्यन्तर	-11.3476
▁प्रह	-11.3478
▁७४	-11.3478
▁वैद्यः	-11.3479
▁शतक	-11.348
ात्मने	-11.3481
▁स्वातन्त्र्यं	-11.3482
विहीन	-11.3482
ानाञ्च	-11.3482
▁विवाहिता	-11.3483
▁व्योम	-11.3483
▁इमा	-11.3484
▁वर्णान्	-11.3485
करणेन	-11.3486
▁चतुर्थं	-11.3487
▁इतीम	-11.3489
चिकित्सायै	-11.349
राय्	-11.3492
गृहस्य	-11.3495
▁लौ	-11.35
शनि	-11.3501
▁विसंज्ञ	-11.3502
कुर्वन्ति	-11.3503
▁कोण	-11.3504
▁सशर	-11.3504
ोऽस्तु	-11.3509
प्रक्रियायाः	-11.3509
मन्त्रालय	-11.3511
▁स्थानस्य	-11.3512
▁प्रदर्शनम्	-11.3513
श्राव	-11.3515
q	-11.3515
पिक्चर्स्	-11.3515
▁प्रववृते	-11.3515
▁विललाप	-11.3515
▁item	-11.3515
▁कञ्चित्	-11.3515
▁भिद्यते	-11.3515
▁रसातल	-11.3515
▁सातवाहन	-11.3515
▁अवहत्	-11.3515
▁हेन्री	-11.3515
▁पञ्जीकरण	-11.3515
▁स्लैड्	-11.3515
▁शृणोति	-11.3516
▁रणमूर्धनि	-11.3516
भीक्ष्ण	-11.3516
▁शशाक	-11.3516
ीकृताः	-11.3516
▁वक्तुमर्हसि	-11.3517
▁धिक्	-11.3517
स्थितिः	-11.3517
▁द्विजर्षभ	-11.3518
▁इत्येनम्	-11.3518
▁संसक्त	-11.3518
▁रफ़ी	-11.3518
▁भीष्मद्रोण	-11.3518
▁परिक्रम	-11.3519
▁पेश्वा	-11.3519
पूल्	-11.352
▁अलङ्कृत	-11.352
▁सेवित	-11.3521
▁सम्भाजी	-11.3522
ध्याय	-11.3522
सद्	-11.3522
▁कृतघ्न	-11.3523
▁प्रतिबिम्ब	-11.3523
▁आङ्ग्लभाषाया	-11.3524
दलम्	-11.3524
▁समकालीन	-11.3525
परम्परायाः	-11.3525
▁मैक्	-11.3525
भाषाः	-11.3526
▁सपत्न	-11.3526
भवतां	-11.3527
प्रणाली	-11.3527
नुरक्त	-11.3527
▁शतक्रतु	-11.3529
▁दानेन	-11.353
▁एलिमेण्ट्	-11.3531
कीर्य	-11.3531
▁विद्यमानम्	-11.3532
कथायाः	-11.3532
▁विकेट्	-11.3533
▁श्वेतवर्ण	-11.3533
▁निष्कास्य	-11.3534
▁करतल	-11.3534
▁उद्धर	-11.3535
▁विनिवर्त	-11.3536
▁भावि	-11.3536
▁मेन्	-11.3537
▁बहुभिर्	-11.3537
▁भक्तिं	-11.3539
▁कुक्कुट	-11.3541
▁""""	-11.3541
ोक्ता	-11.3542
दर्शक	-11.3543
▁निष्फल	-11.3544
▁वामतः	-11.3545
▁दुर्भिक्ष	-11.3545
शिरा	-11.3548
कथय	-11.3548
इतिहासस्य	-11.3548
रास	-11.3549
्ली	-11.3549
▁बह्वी	-11.355
▁संवादपेटिका	-11.3551
▁बहुकाल	-11.3552
▁ज्वलन्	-11.3552
▁जनसङ्ख्याया	-11.3553
▁निश्चित्य	-11.3553
क्षिपत्	-11.3554
▁मौण्ट्	-11.3554
▁महतो	-11.3555
तेषां	-11.3555
▁प्रेषितः	-11.3557
▁कन्य	-11.3557
▁नमस्ते	-11.3558
यिन्	-11.3559
▁३३	-11.3559
▁दीक्षा	-11.3559
nd	-11.356
▁मीर्	-11.356
▁कुलस्य	-11.3561
▁कम्पैल्	-11.3561
▁हरयो	-11.3562
▁नगरीय	-11.3566
od	-11.3566
▁पौ	-11.3567
▁/	-11.3567
▁शासने	-11.3567
▁डान्	-11.3568
▁गन्तव्यं	-11.357
तिष्ठेति	-11.357
▁शङ्कित	-11.357
▁निर्वहणं	-11.3572
▁नूतनः	-11.3572
▁वपुषा	-11.3572
▁द्योत	-11.3573
▁५५	-11.3574
▁अवगमन	-11.3574
▁वर्गे	-11.3576
▁संवि	-11.3577
▁कुर्वन्त	-11.3578
नारायण	-11.3578
नेट्वर्क्	-11.3578
▁एलि	-11.3579
शिल्प	-11.3579
ब्याण्डी	-11.3579
▁जानपद	-11.358
शौच	-11.3581
▁परिहार	-11.3581
शैर्	-11.3582
८८	-11.3585
▁कर्लि	-11.3586
▁जीन्	-11.3586
▁सर्व्वान्	-11.3586
शुष्क	-11.3587
ger	-11.3588
▁विस्तीर्ण	-11.3589
▁पाण्डो	-11.3589
▁विजयनगर	-11.3589
▁सुभृश	-11.359
▁ज्वलित	-11.359
▁प्रेरणा	-11.3591
माडेल्	-11.3591
▁अरि	-11.3592
▁मूडल्	-11.3593
जिगीष	-11.3594
▁बत	-11.3595
▁while	-11.3595
नगराणि	-11.3595
▁समाविष्टाः	-11.3595
दन्ति	-11.3596
शङ्ख	-11.3597
शनल्	-11.3597
▁करणं	-11.3598
यताम्	-11.3598
▁मलय	-11.36
▁कीलफलक	-11.3601
▁उड्डयन	-11.3603
मत्यन्त	-11.3603
भ्यभाषत	-11.3606
क्लास्	-11.3608
सूदन	-11.361
संस्थाना	-11.361
▁ज्वर	-11.3612
▁पानीय	-11.3614
▁पूप	-11.3615
▁उर्वर	-11.3615
▁भाग्य	-11.3615
धूत	-11.3615
▁आकर्षण	-11.3615
▁शान्तनवो	-11.3616
▁बौद्धमत	-11.3617
▁मूलानि	-11.3617
▁निर्मम	-11.3618
▁वासुदेवः	-11.3618
रणौ	-11.3618
वन्तश्च	-11.3619
▁शिविर	-11.362
समाकीर्ण	-11.362
▁वेदविद	-11.362
▁पादपा	-11.3621
▁नदीम्	-11.3622
मात्रे	-11.3622
▁श्रीनिवासः	-11.3622
▁श्रृङ्खला	-11.3622
विंश	-11.3623
गुर	-11.3623
▁सर्वासा	-11.3624
▁सीवन	-11.3624
▁पोलि	-11.3624
▁डाय	-11.3626
कुर्वत	-11.3627
▁४४	-11.3627
स्तू	-11.3628
▁विप	-11.3628
▁मेट्रो	-11.3628
▁फिल्म्	-11.3629
▁सेन्द्रा	-11.3632
▁सद्य	-11.3633
▁होम	-11.3634
▁प्रभाविताः	-11.3636
▁विचारणा	-11.3636
▁काला	-11.3637
लेन्स्	-11.3639
सङ्	-11.3643
विशेषज्ञ	-11.3644
▁ह्येत	-11.3646
▁सैन्ये	-11.3646
पद्धत्या	-11.3648
▁ब्रै	-11.3651
रोड्	-11.3652
क्वे	-11.3653
▁तथाऽऽ	-11.3653
▁उपयोगस्य	-11.3655
ञ्चा	-11.3656
वर्णः	-11.3656
समिते	-11.3661
हन्तु	-11.3662
▁इत्याख्यं	-11.3663
महाद्वीपस्य	-11.3664
स्थस्य	-11.3664
▁उत्तमा	-11.3665
रुध्य	-11.3668
सियो	-11.3668
▁आमन्त्रय	-11.367
▁स्ट्रोक्	-11.3674
▁७२	-11.3675
▁तमिळनाडु	-11.3675
▁राय्	-11.3675
▁आपल्	-11.3676
मर्षण	-11.3676
ाज्ञया	-11.3676
वाप्य	-11.3677
▁संसद	-11.3678
ञ्जलि	-11.3679
▁अड्	-11.3681
देवः	-11.3682
श्रृङ्खलाया	-11.3685
चेष्ट	-11.3687
▁30	-11.3687
द्भि	-11.3689
दर्शित	-11.3692
▁मन्त्री	-11.3693
▁ईश	-11.3694
▁यूथप	-11.3694
▁गृहात्	-11.3696
द्युति	-11.3696
▁प्रशंसाम्	-11.3698
निह	-11.3699
▁गमिष्याम	-11.37
▁minus	-11.37
▁single	-11.37
▁औपचारिक	-11.37
▁परिहर्तुं	-11.37
▁पाश्चात्य	-11.37
▁उपयोक्तव्य	-11.37
▁भगीरथ	-11.37
तक्राव्	-11.37
▁ऐश्वर्य	-11.37
▁भूरिश्रवा	-11.37
▁श्वासोच्छ्वास	-11.37
▁दायूद	-11.37
▁वासुकि	-11.3701
▁स्तनान्तरे	-11.3701
▁राबर्ट्	-11.3701
▁परमप्रीत	-11.3702
▁दुर्मते	-11.3702
▁शिरांसि	-11.3702
▁उद्घाटयितुं	-11.3702
▁ईमेल्	-11.3702
▁क्षत्रियर्षभ	-11.3702
ऽयं	-11.3702
▁विश्रुता	-11.3702
▁करणीयमिति	-11.3703
▁नार्थ्	-11.3704
▁सत्यमेतद्	-11.3704
▁ज़िका	-11.3705
▁परीक्षितुं	-11.3705
▁यथावद	-11.3705
▁टीपु	-11.3706
▁अभिषेक	-11.3706
▁फङ्क्षन्	-11.3707
▁नैन	-11.3707
▁फिलिप	-11.3707
सिद्धि	-11.3708
मुत्सहे	-11.3708
▁उम	-11.3709
▁व्रजेत्	-11.3709
वतो	-11.371
दले	-11.371
▁कर्मणः	-11.371
रियम्	-11.3711
▁मृत्युपर्यन्तं	-11.3712
▁विकासाय	-11.3712
वर्या	-11.3712
▁गोलिका	-11.3713
▁नारिकेल	-11.3713
▁गवास्कर्	-11.3713
▁अस्पष्ट	-11.3715
सूच्यां	-11.3715
▁प्रतिपद्य	-11.3716
मुत्थाय	-11.3716
पयात	-11.3716
▁गणकयन्त्र	-11.3718
▁अवतार	-11.372
दर्शनं	-11.372
▁म्यू	-11.372
▁भर्	-11.3721
नासिक	-11.3721
▁कारयति	-11.3722
▁Project	-11.3722
पदा	-11.3722
स्थलेषु	-11.3722
गम्	-11.3723
▁y	-11.3723
▁परिचित	-11.3724
▁प्रकाशयति	-11.3724
▁आक्रान्त	-11.3725
तत्व	-11.3726
▁मासस्य	-11.3726
▁वर्णानां	-11.3726
ck	-11.3728
▁सिद्धिं	-11.3729
ाभाव	-11.3729
▁चित्रमिदं	-11.3729
▁जीवितुं	-11.373
स्ती	-11.373
▁तद्वद्	-11.3731
▁roll	-11.3731
▁इत्येक	-11.3731
▁अङ्गार	-11.3733
▁प्रतीत	-11.3733
ादन्य	-11.3734
▁चन्द्	-11.3736
▁समम्	-11.3738
▁नदीनां	-11.3738
यिष्यन्ति	-11.3738
न्तरिक्षे	-11.3739
▁पाञ्चाली	-11.3739
▁शूराणां	-11.374
▁द्विजान्	-11.3741
▁गोर	-11.3741
▁राजस्थान्	-11.3742
▁वक्तव्यं	-11.3742
वृन्द	-11.3743
▁ऐटम्	-11.3746
मन्न	-11.3747
गाध	-11.3747
द्द	-11.3748
▁मलयाळम्	-11.3749
▁home	-11.375
▁आग्रा	-11.375
निन्दित	-11.3752
▁गुणैः	-11.3753
▁नाभ्य	-11.3753
श्चक्र	-11.3754
▁जलेन	-11.3755
▁संहत	-11.3757
▁सम्पद	-11.3758
मृद	-11.3759
दर्शयन्	-11.3759
▁मोचय	-11.3759
सदस्यः	-11.3761
▁याव	-11.3763
▁पृष्ठं	-11.3764
नृशंस	-11.3765
K	-11.3765
▁भवेयु	-11.3766
▁समलंकृत	-11.3767
स्वातन्त्र्य	-11.3767
गुल्म	-11.3768
विश्वकप्	-11.3768
ीणां	-11.3768
पर्यटन	-11.3768
महाबाहो	-11.3768
पार्थिव	-11.3769
काञ्चन	-11.3769
▁निबद्ध	-11.377
भित्ति	-11.3771
▁देवैः	-11.3772
ाप्सरस	-11.3773
सलिल	-11.3775
सौकर्य	-11.3776
मनुव्रत	-11.378
उल्	-11.3782
▁श्रेयस	-11.3783
समन्विताः	-11.3784
रिड्	-11.3785
ोऽन	-11.3787
▁अनिल	-11.3788
me	-11.3789
महाकाव्य	-11.379
▁अत्रैव	-11.3793
▁स्टेट्	-11.3794
▁विमोचित	-11.3794
▁कोष्ठक	-11.3795
दर्शनः	-11.3798
▁अस्मत्	-11.38
सङ्ख्याक	-11.3801
▁संहृष्ट	-11.3803
पथे	-11.3804
▁आयोजितम्	-11.3804
▁मन्दर	-11.3805
▁प्रभाते	-11.3805
▁निरूपित	-11.3807
स्वामी	-11.3808
▁अग्रभाग	-11.3811
वङ्ग	-11.3813
गौरव	-11.3816
समाकुलम्	-11.3819
▁निखिल	-11.3823
▁रराज	-11.3824
सूचनाः	-11.3824
▁युयुत्स	-11.3824
▁हिन्दुमत	-11.3824
▁ऊर्ध्वता	-11.3825
लोहित	-11.3826
▁प्रतिक्रियां	-11.3826
▁प्रेरय	-11.3827
▁प्रादुर	-11.3828
ायोधन	-11.383
मिमाम्	-11.3832
▁सौर	-11.3832
वाप्त	-11.3833
द्रि	-11.3833
िणो	-11.3833
▁100	-11.3833
वधं	-11.3838
श्वसन	-11.3839
▁सर्वज्ञ	-11.384
▁कर्णाटक	-11.3841
▁तदनु	-11.3843
तरङ्ग	-11.3844
▁पक्षी	-11.3844
▁भवनानि	-11.3844
▁अन्तिमे	-11.3844
बेक्	-11.3846
▁बहू	-11.3846
पत्राणां	-11.3847
सत	-11.3847
मितो	-11.3849
▁मनुष्या	-11.3852
▁नीच	-11.3853
विषयान्	-11.3854
▁उद्धृत	-11.3854
▁वारय	-11.3855
ुना	-11.3857
स्तस्या	-11.3858
ग्रामस्य	-11.3859
नेमि	-11.3861
भाग्य	-11.3862
वसु	-11.3864
▁क्रियाः	-11.3864
▁मस्तिष्के	-11.3867
▁कुड्म	-11.3867
चाय	-11.3868
ाधम	-11.3868
▁उत्सवस्य	-11.3872
रेष	-11.3872
▁कृषिक्षेत्र	-11.3875
स्टीन्	-11.3876
▁किक्	-11.3876
देशीयः	-11.3877
▁समाप्तिः	-11.3878
▁शाल	-11.3878
▁अकृत	-11.3881
▁द्वेष	-11.3883
▁पुरस्कारः	-11.3884
ान्विता	-11.3885
▁व्यस्त	-11.3885
▁पुनरागत	-11.3887
कीर्णा	-11.3887
▁स्पृष्ट	-11.3888
▁password	-11.3889
▁text	-11.3889
▁ओहायो	-11.3889
▁जापनीस्	-11.3889
▁रग्बी	-11.3889
▁निरर्थक	-11.3889
ग्रूप्	-11.3889
नेकशः	-11.3889
▁नमस्कृत्य	-11.3889
▁निरुत्साह	-11.3889
लक्रोस्	-11.3889
▁त्वत्प्रसाद	-11.3889
▁जलप्लावन	-11.389
स्ट्रो	-11.389
▁नम्रता	-11.389
▁त्वत्कृते	-11.389
▁छादयामास	-11.3891
इन्स्टिट्यूट्	-11.3891
▁कार्पास	-11.3891
▁मिज़ो	-11.3891
▁जगद	-11.3891
▁वित्तकोश	-11.3892
▁शक्ष्यन्ति	-11.3892
सारथिः	-11.3892
▁फ़ीट्	-11.3893
विनीत	-11.3894
▁निगृह्य	-11.3894
रेज्	-11.3894
▁भौम	-11.3894
▁कुत्रापि	-11.3895
▁षण्मास	-11.3896
▁सुघोर	-11.3896
▁महावने	-11.3896
▁हव्य	-11.3897
▁रक्षन्तु	-11.3897
▁कोसल	-11.3899
▁परिवर्तयति	-11.3899
▁आगमिष्यति	-11.3901
ाधिपः	-11.3902
▁राजोवाच	-11.3902
र्नाम	-11.3902
▁तत्क्षण	-11.3904
▁चित्रीकरणं	-11.3904
यानेन	-11.3905
▁कीलकं	-11.3905
टाक्	-11.3906
▁वर्षीय	-11.3907
बभौ	-11.3909
▁उपस्कर	-11.3909
▁सुमित्रा	-11.391
▁तद्वाक्य	-11.391
धय	-11.3911
▁भारतसर्वकारेण	-11.3911
शिश	-11.3911
▁टङ्क	-11.3911
▁क्रुद्धाः	-11.3912
प्नुव	-11.3912
▁वदसि	-11.3913
▁परिचारक	-11.3914
▁भुजङ्ग	-11.3914
▁सम्भाषण	-11.3915
II	-11.3915
▁मेऽद्य	-11.3917
▁वर्जिनिया	-11.3918
▁सूप	-11.3919
▁स्त्रीषु	-11.3919
▁बलवता	-11.392
ात्मकम्	-11.3921
▁यूरोपियन्	-11.3921
▁गतिर्	-11.3924
▁मैत्र	-11.3924
▁विचेष्ट	-11.3924
तदनन्तरं	-11.3925
▁स्क्र	-11.3926
▁जिम्	-11.3927
बंद	-11.3927
जू	-11.3928
ूद	-11.393
कुर्व	-11.393
▁नियन्त्रणे	-11.3931
▁गोपाल	-11.3931
▁वसिष्ठो	-11.3931
▁उदाहरणम्	-11.3931
विदित	-11.3932
▁आधारित	-11.3933
▁४८	-11.3933
▁संहत्य	-11.3934
▁समक्ष	-11.3934
▁वातावरण	-11.3935
▁समीपस्थं	-11.3935
स्टोन्	-11.3936
भूमिका	-11.3937
क्लम	-11.3938
▁त्वेव	-11.3939
▁आगता	-11.3939
केन्द्राणि	-11.3939
पिता	-11.3942
▁गन्ता	-11.3942
▁शतानि	-11.3945
बेरी	-11.3945
▁संस्थापक	-11.3945
▁घातक	-11.3945
▁रजो	-11.3948
निरा	-11.3948
स्थान्	-11.3948
▁प्रोत्साह	-11.3949
▁सोनी	-11.395
निष्ट	-11.3951
साहित्यस्य	-11.3952
▁बालाः	-11.3953
▁निष्कर्ष	-11.3955
▁बाणैः	-11.3955
चिकित्स	-11.3956
तिष्ठन्	-11.3957
शब्देन	-11.3958
▁किमिदं	-11.3958
मण्ड्	-11.3959
इदानीम्	-11.396
▁str	-11.396
▁ब्लोक्	-11.3962
▁श्रावय	-11.3962
आरक्षक	-11.3964
वयस्क	-11.3966
उपत्यकाया	-11.3966
▁लेबल्	-11.3966
▁कर्तव्या	-11.3966
▁समवाय	-11.3967
छेद	-11.3967
प्रहरण	-11.3969
▁विहिता	-11.397
धर्षण	-11.3973
संकुलम्	-11.3973
ऽह	-11.3977
संवीत	-11.3978
▁तपोवन	-11.3981
४४	-11.3982
▁शाश्वतम्	-11.3983
कृतम्	-11.3984
चित्रे	-11.3985
ङ्को	-11.3985
क्रतु	-11.3985
मुपास	-11.3987
▁याचित	-11.3987
▁वृक	-11.3987
▁उत्तराधिकार	-11.3988
गतान्	-11.3989
▁नामतः	-11.3991
मारुत	-11.3991
▁अर्जुनं	-11.3991
▁कौण्टि	-11.3991
▁जनकात्मजा	-11.3993
▁सागरं	-11.3994
पश्यन्	-11.3995
ब्ध	-11.3995
▁परिकल्पित	-11.3996
▁शूद्रा	-11.3998
▁परिवर्तनम्	-11.3999
▁वैविध्य	-11.4
▁समस्यानां	-11.4002
व्यवस्थां	-11.4002
▁आयस्य	-11.4003
▁विचार्य	-11.4003
बुद्धिः	-11.4003
▁राज्यपालः	-11.4004
वर्यं	-11.4005
▁यवन	-11.4006
▁३४	-11.4008
▁सहमत	-11.4009
धीय	-11.4009
सिक्त	-11.4015
▁स्वार्थ	-11.4015
ूट्	-11.4015
मिल	-11.4015
▁यज्ञो	-11.4015
▁सर्वविध	-11.4016
दै	-11.4016
▁स्रोतः	-11.4017
तारा	-11.4017
ेनेह	-11.4019
प्रयास	-11.4019
▁सबल	-11.4019
▁रूपे	-11.4019
धन्वा	-11.402
▁मन्दिरे	-11.402
▁निर्गमन	-11.4021
मुपागत	-11.4021
▁व्यवस्थां	-11.4023
▁अग्रत	-11.4024
▁मेरी	-11.4026
▁कोष	-11.403
▁ग्रस्त	-11.403
▁आफ़्रिका	-11.4032
▁राज्येन	-11.4033
▁उपस्थिति	-11.4038
▁नृपाः	-11.4039
ीकृतवान्	-11.4042
000	-11.4044
प्रायः	-11.4047
▁वर्णाः	-11.4048
प्रेम	-11.405
▁जनस्थान	-11.4051
▁श्राव	-11.4051
भुव	-11.4052
ऽति	-11.4052
देशानां	-11.4052
सैट्	-11.4054
▁पृष्ठस्य	-11.4056
▁दत्तानि	-11.4058
मोन्	-11.4059
▁सरथ	-11.4059
धिप	-11.4059
▁पर्वताः	-11.4064
▁निर्देशनं	-11.4064
मर्याद	-11.4065
रुत	-11.4065
▁विहीन	-11.4066
▁गुणवत्ता	-11.4069
पुरोगम	-11.407
▁कठिनं	-11.407
सूनु	-11.407
▁राव्	-11.4073
▁श्रो	-11.4078
नद्यां	-11.4078
▁पतिव्रता	-11.4081
द्वीपः	-11.4081
ाब्रवीद्	-11.4081
▁आब्जेक्ट्	-11.4081
▁महाकपिः	-11.4081
▁हथेलियों	-11.4081
pdf	-11.4081
▁भविष्यद्वादिन	-11.4081
▁मूषिक	-11.4081
▁आवहति	-11.4081
▁विप्रर्षे	-11.4081
चेम्पियन्शिप्	-11.4081
▁मूषक	-11.4081
▁प्रथमवारम्	-11.4081
▁contact	-11.4081
▁अगृह्णन्	-11.4081
▁मौन	-11.4081
▁सङ्घटित	-11.4082
▁टेक्सस्	-11.4082
▁गमिष्यसि	-11.4082
▁एक्सेस्	-11.4082
▁सुभग	-11.4082
▁१९५९	-11.4083
▁स्टेटिक्	-11.4083
▁क्रव्याद	-11.4083
ैतानि	-11.4083
▁१९५१	-11.4083
▁तुल्यं	-11.4084
▁कथिता	-11.4084
▁अनुग्रह	-11.4084
ादारभ्य	-11.4085
रूप्यकाणि	-11.4085
▁कण्टक	-11.4085
▁सम्मिल	-11.4086
गच्छद्	-11.4086
▁पाण्डूना	-11.4087
▁कागद	-11.4088
▁दुष्टात्मा	-11.4088
प्रदेशाः	-11.4088
▁प्रद्युम्न	-11.4088
निस्त्रिंश	-11.4088
ऽस्य	-11.4089
▁अनावश्यक	-11.4089
▁द्यौ	-11.4089
स्त्रिदश	-11.4092
▁सदन	-11.4093
[...]
